<pad>	0
<s>	0
</s>	0
<unk>	0
\	-1.97933
n	-2.91562
▁to	-3.49126
▁=	-3.53659
_._	-3.86212
▁n	-3.92555
[	-3.94572
▁a	-3.96495
▁is	-4.07269
▁0	-4.1159
▁i	-4.13422
]	-4.17087
i	-4.19595
▁and	-4.20597
nif	-4.2197
▁1	-4.38938
nprint	-4.45146
▁of	-4.50417
nfor	-4.5445
▁s	-4.62305
nread	-4.63446
▁-	-4.7348
▁+	-4.74994
▁integer	-4.78845
▁long	-4.7951
▁b	-4.80879
▁x	-4.89788
nset	-4.90842
▁with	-4.9555
nelse	-4.97844
▁exclusive	-5.03626
▁m	-5.12469
▁ans	-5.18397
▁	-5.18864
▁c	-5.20953
▁k	-5.22463
▁the	-5.25875
▁(	-5.27273
1	-5.32632
▁than	-5.33611
▁equal	-5.34553
▁j	-5.40678
▁"	-5.40797
▁*	-5.41335
2	-5.45715
▁2	-5.47379
ncreate	-5.47631
▁by	-5.50867
▁int	-5.51778
▁t	-5.52662
j	-5.54952
▁y	-5.55402
)	-5.61394
▁integers	-5.68901
nincrement	-5.7232
▁from	-5.73246
▁size	-5.76231
▁/	-5.7655
▁sum	-5.779
▁be	-5.82078
▁inclusive	-5.8295
▁if	-5.83603
ndeclare	-5.85664
▁newline	-5.89049
▁print	-5.89519
▁array	-5.90617
▁value	-5.91544
▁new	-5.91565
▁d	-5.92541
nlet	-5.9258
▁p	-5.93237
▁greater	-5.95808
a	-5.97628
▁or	-5.99666
▁set	-5.99839
,	-6.00249
▁l	-6.04878
▁read	-6.05328
▁less	-6.06304
(	-6.09194
▁v	-6.11397
▁r	-6.11402
▁increment	-6.11809
nwhile	-6.12174
"\	-6.15187
▁not	-6.19764
▁string	-6.21733
s	-6.22054
▁loop	-6.25187
][	-6.2932
=	-6.318
▁cnt	-6.33031
▁'	-6.34134
"	-6.35096
_	-6.35096
▁true	-6.3518
x	-6.35431
▁arr	-6.35735
▁create	-6.3949
▁line	-6.42084
▁%	-6.45022
▁return	-6.48332
▁then	-6.50023
▁length	-6.55492
[0]	-6.55534
=0	-6.56671
▁do	-6.56952
d	-6.57235
▁f	-6.57554
▁3	-6.59187
▁0_._	-6.59765
nreturn	-6.60938
▁input	-6.62759
▁1]	-6.65523
ing	-6.66308
b	-6.674
▁flag	-6.69079
▁max	-6.70949
▁function	-6.71818
▁10	-6.73531
▁following	-6.74485
▁min	-6.74852
▁num	-6.76358
▁str	-6.76412
assign	-6.77688
▁count	-6.7829
k	-6.7882
▁modulo	-6.809
▁res	-6.82196
1_._	-6.83418
t	-6.86247
3	-6.87153
▁1)	-6.8731
▁temp	-6.90509
▁declare	-6.91499
▁let	-6.91703
▁q	-6.92603
▁variable	-6.92605
▁-1	-6.94282
▁>	-6.95817
'	-6.98092
▁false	-6.98318
[1]	-6.99541
increase	-7.00313
▁mod	-7.02288
y	-7.03017
nadd	-7.0383
ndecrement	-7.04349
▁4	-7.05064
.	-7.07431
▁as	-7.1163
e	-7.11994
▁<	-7.1327
▁<=	-7.14951
▁equals	-7.15096
▁character	-7.16796
NO	-7.18617
m	-7.19121
nbreak	-7.20581
▁in	-7.21043
▁z	-7.2128
▁>=	-7.21481
▁5	-7.22195
nchange	-7.22571
▁w	-7.22723
▁h	-7.22797
▁)	-7.23259
c	-7.2467
▁result	-7.24849
'\	-7.25582
▁vector	-7.3212
▁1_._	-7.32142
▁elements	-7.33047
YES	-7.33244
▁one	-7.33393
▁arguments	-7.36271
▁element	-7.38847
▁N	-7.40557
o	-7.4135
▁for	-7.42026
nsort	-7.4243
f	-7.43087
()	-7.43405
▁len	-7.44031
r	-7.4421
▁end	-7.45238
p	-7.46126
l	-7.47933
▁ch	-7.48158
▁ints	-7.48313
▁!=	-7.49549
na	-7.49755
=1	-7.50772
2_._	-7.50892
▁dp	-7.51511
▁A	-7.54579
nans	-7.55408
▁7	-7.56281
▁at	-7.58568
▁values	-7.59027
nin	-7.60543
▁u	-7.63391
▁e	-7.63702
▁call	-7.66068
-	-7.66817
▁longs	-7.67456
▁g	-7.68582
▁tmp	-7.69198
[2]	-7.70343
ns	-7.72697
call	-7.73374
▁while	-7.7404
▁output	-7.74094
▁boolean	-7.75103
▁are	-7.75432
nloop	-7.76549
▁standar	-7.76976
▁NO	-7.78342
▁_._	-7.79093
▁argument	-7.80056
▁mx	-7.80187
▁strings	-7.80812
int	-7.81047
▁decrement	-7.81219
▁change	-7.82557
▁mp	-7.83681
▁absolute	-7.84669
▁YES	-7.84983
nmake	-7.8522
ed	-7.87869
▁run	-7.88756
▁first	-7.88874
▁variables	-7.88892
▁an	-7.89815
▁char	-7.9098
0	-7.91554
size	-7.92416
v	-7.936
▁2)	-7.94478
Read	-7.94831
▁8	-7.94866
noutput	-7.95477
▁add	-7.96158
▁6	-7.96284
▁constant	-7.98423
])	-7.99796
▁&	-8.021
▁abs	-8.02352
▁'0'	-8.02611
▁it	-8.04643
▁minimum	-8.05053
▁pos	-8.05289
▁st	-8.05647
▁gcd	-8.05955
▁break	-8.06449
ndisplay	-8.07345
]_._	-8.08368
▁index	-8.09809
-1]	-8.09845
▁even	-8.10245
1[	-8.10719
▁else	-8.111
nx	-8.12846
+	-8.14655
▁100	-8.15323
decrease	-8.17513
▁maximum	-8.1786
▁vis	-8.18147
▁check	-8.19808
▁S	-8.20217
▁((	-8.24901
▁maxn	-8.25908
▁arrays	-8.26547
▁name	-8.2687
[3]	-8.27023
-1	-8.28489
to	-8.31447
nappend	-8.31586
nc	-8.32412
nt	-8.32999
ndefine	-8.33208
▁double	-8.33842
▁total	-8.34792
▁on	-8.35055
▁T	-8.3514
▁bool	-8.35284
▁ok	-8.35313
▁start	-8.35482
▁that	-8.35604
u	-8.35651
▁all	-8.35829
ans	-8.35986
A	-8.36718
▁ar	-8.37338
nstart	-8.37528
▁B	-8.38111
▁user	-8.38132
nsum	-8.38803
+1]	-8.39055
2[	-8.39338
▁M	-8.39555
▁map	-8.39941
&	-8.41247
▁decrementing	-8.41902
▁last	-8.42661
▁o	-8.43713
▁val	-8.43817
integers	-8.44191
▁cur	-8.44397
npush	-8.44814
sum	-8.45208
]]	-8.45991
▁mid	-8.46554
*	-8.48777
+1	-8.50418
9	-8.50472
▁now	-8.50479
'_._	-8.50803
▁1][	-8.51264
][0]	-8.52632
▁1000	-8.53071
▁solve	-8.53169
z	-8.53206
h	-8.53379
▁iteration	-8.54171
▁characters	-8.57244
nstop	-8.57487
▁assign	-8.57899
integer	-8.5948
))	-8.61922
▁times	-8.62131
▁increase	-8.62189
▁2_._	-8.62334
O	-8.62501
R	-8.62945
▁MOD	-8.63257
"_._	-8.63724
▁second	-8.63965
into	-8.64181
▁0)	-8.64414
▁odd	-8.64778
D	-8.66398
▁bitwise	-8.66814
▁tak	-8.67064
▁L	-8.67238
max	-8.67758
min	-8.68092
2)	-8.68127
▁'\	-8.68339
▁-1_._	-8.6861
subtract	-8.69718
▁each	-8.69733
▁dfs	-8.70004
▁counter	-8.70574
array	-8.70632
][1]	-8.71008
].	-8.71273
length	-8.71376
▁ret	-8.715
ninput	-8.7316
▁const	-8.73528
nb	-8.73538
▁R	-8.74768
▁void	-8.74769
first	-8.75038
▁right	-8.75721
▁both	-8.76373
▁C	-8.76925
q	-8.76968
ninsert	-8.77064
▁takes	-8.77229
']	-8.77481
second	-8.77528
▁ss	-8.77626
▁left	-8.77675
▁'1'	-8.77855
nd	-8.78069
▁26	-8.7822
▁9	-8.79275
▁truthy	-8.79486
long	-8.79906
nthe	-8.80938
▁105	-8.8096
ncontinue	-8.81338
B	-8.81381
np	-8.821
ndivide	-8.82276
▁maxx	-8.82456
notherwise	-8.82861
▁prime	-8.82882
▁space	-8.83701
)_._	-8.83712
4	-8.86744
▁"\	-8.86874
▁out	-8.88535
▁pointer	-8.88718
▁next	-8.8879
1,	-8.89567
nflag	-8.89993
nm	-8.90691
[4]	-8.9078
▁make	-8.9138
/	-8.91895
LL	-8.91965
▁"_._	-8.92289
▁casted	-8.92605
▁between	-8.93278
▁reading	-8.94194
3_._	-8.9474
arr	-8.96344
▁xx	-8.96563
<	-8.97137
▁continue	-8.98435
nl	-8.98549
▁D	-8.98655
▁swap	-8.99017
▁initialize	-8.99606
▁different	-9.00818
▁bytes	-9.00863
▁cont	-9.01483
▁MAX	-9.02017
L	-9.02209
w	-9.02267
▁beginning	-9.03066
cnt	-9.03274
>	-9.03387
▁K	-9.0356
S	-9.03718
▁mn	-9.04007
1)	-9.04081
▁101	-9.05984
▁no	-9.06344
▁ma	-9.07458
▁vec	-9.07771
▁==	-9.08098
▁row	-9.08111
▁time	-9.0821
narr	-9.08802
nrun	-9.10257
▁minn	-9.10715
num	-9.11012
function	-9.11091
g	-9.11256
string	-9.1135
▁maxi	-9.11707
nend	-9.1242
nk	-9.12663
▁down	-9.12961
▁'-'	-9.134
▁aux	-9.13936
th	-9.14214
str	-9.14448
MAX	-9.14964
end	-9.14982
▁two	-9.1547
crementing	-9.15823
▁'*'	-9.15851
▁INT	-9.15896
▁1))	-9.16039
▁number	-9.16096
▁12	-9.16824
▁sizeof	-9.16928
▁<<	-9.1887
/2	-9.20245
▁empty	-9.20587
▁P	-9.2075
▁current	-9.20803
▁cost	-9.21817
▁20	-9.21824
ncnt	-9.2235
nres	-9.22578
"]	-9.22729
nremove	-9.24451
nv	-9.24703
▁INF	-9.24829
▁substring	-9.24896
pos	-9.25199
ni	-9.25493
▁60	-9.26722
;	-9.26871
["	-9.27341
▁ct	-9.27563
▁answer	-9.27743
▁'.'	-9.27992
▁tot	-9.28607
▁position	-9.2869
▁"0"	-9.29115
ninteger	-9.29124
len	-9.29353
▁col	-9.29358
begin	-9.29724
▁zero	-9.30702
▁mark	-9.30907
▁insert	-9.31272
▁2]	-9.31306
▁pair	-9.32005
▁1000000007	-9.32233
niterat	-9.32658
▁MAXN	-9.32839
▁"-1"	-9.33087
[5]	-9.33235
||	-9.33609
▁dy	-9.33624
▁X	-9.34296
▁otherwise	-9.35452
▁idx	-9.35562
nexit	-9.35977
nf	-9.36071
▁'+'	-9.36648
N	-9.36787
['	-9.3828
▁top	-9.38957
5	-9.39381
res	-9.39509
▁15	-9.3978
temp	-9.40407
▁root	-9.41037
▁curr	-9.41168
▁step	-9.41446
ntemp	-9.4214
▁ara	-9.42543
gcd	-9.42951
U	-9.43248
count	-9.43679
▁unsigned	-9.43842
▁mini	-9.44252
▁30	-9.44421
▁#	-9.44508
▁diff	-9.44567
▁plus	-9.44825
▁'#'	-9.44838
ng	-9.461
▁define	-9.46204
re	-9.46386
▁200	-9.46448
▁inf	-9.46727
▁up	-9.47152
▁yy	-9.48764
▁find	-9.48801
2,	-9.49086
show	-9.50537
▁'9'	-9.50668
multiply	-9.51311
▁pre	-9.51413
nr	-9.51442
▁square	-9.51481
▁110	-9.52057
1[0]	-9.52306
]=	-9.52646
▁G	-9.52671
▁100000	-9.53122
▁1005	-9.53405
T	-9.53458
▁\	-9.53579
No	-9.53767
▁prev	-9.5401
▁multiple	-9.55031
M	-9.55271
cur	-9.55284
[0]_._	-9.55463
▁which	-9.56102
Yes	-9.56653
▁rest	-9.57691
▁V	-9.57939
C	-9.58168
▁push	-9.58869
▁1])	-9.5946
nreverse	-9.60526
▁dist	-9.60758
▁endline	-9.60858
▁get	-9.61127
or	-9.61858
0_._	-9.62265
▁bitshift	-9.62353
▁bit	-9.62721
▁"#"	-9.62938
▁back	-9.63004
dp	-9.64178
▁|	-9.64184
▁power	-9.64502
▁Max	-9.65021
▁(2	-9.65249
here	-9.65331
▁test	-9.65951
nnum	-9.66156
nnew	-9.66473
▁100005	-9.6726
ncount	-9.67739
▁base	-9.68167
▁data	-9.68255
▁can	-9.68804
▁shift	-9.68922
▁Yes	-9.68935
▁further	-9.6902
▁iterator	-9.69198
increment	-9.69979
▁dif	-9.70042
ny	-9.70316
▁decremented	-9.70439
illed	-9.7063
▁mm	-9.71545
▁1001	-9.71949
▁divide	-9.72116
▁sz	-9.72194
▁25	-9.72252
▁decrease	-9.72387
▁ind	-9.7248
st	-9.72637
▁rem	-9.72888
▁(1	-9.72912
▁No	-9.73081
F	-9.73422
▁11	-9.73612
▁stop	-9.73695
X	-9.74589
▁"1"	-9.74998
set	-9.75768
start	-9.75852
is	-9.7587
1[1]	-9.76076
▁order	-9.76202
▁co	-9.76393
▁digit	-9.76903
▁__	-9.77188
al	-9.77261
▁most	-9.77639
▁append	-9.77925
▁whe	-9.77944
▁48	-9.78017
find	-9.78069
▁dis	-9.78277
back	-9.78555
▁dx	-9.78839
▁word	-9.79516
G	-9.79633
▁{0}	-9.80297
if	-9.81722
▁W	-9.81792
▁Y	-9.81865
▁10)	-9.82136
▁lcm	-9.82673
▁statement	-9.82789
nn	-9.82806
▁ex	-9.83413
▁ca	-9.83622
▁?	-9.837
[0][	-9.83713
▁mi	-9.84435
▁bb	-9.85248
▁my	-9.85418
▁found	-9.85434
▁us	-9.8588
▁least	-9.86066
abs	-9.86454
▁day	-9.86933
▁10000	-9.87008
I	-9.87419
▁Q	-9.87658
▁>>	-9.87774
▁lower	-9.87817
[0][0]	-9.87867
=2	-9.88246
▁"*"	-9.88402
▁score	-9.89174
▁valid	-9.90831
▁50	-9.90843
substr	-9.91081
▁low	-9.91188
▁pr	-9.91678
2[0]	-9.92165
▁item	-9.92329
▁_	-9.92533
nget	-9.92869
pair	-9.93159
▁letter	-9.93512
K	-9.93611
▁OR	-9.93893
get	-9.93971
▁3)	-9.94781
▁cin	-9.95129
()_._	-9.95238
index	-9.95488
▁judge	-9.95495
▁type	-9.95655
▁fa	-9.96046
6	-9.96633
▁stdout	-9.9706
▁55	-9.97725
tmp	-9.97894
▁getchar	-9.98157
▁sort	-9.98334
nswap	-9.98541
▁through	-9.98731
▁ceil	-9.99048
true	-9.99077
read	-9.99292
▁sqrt	-9.99496
[1]_._	-9.99582
▁cal	-9.99838
--	-9.99853
ndp	-9.99979
3)	-10.0016
W	-10.0033
▁!	-10.0044
7	-10.0047
▁id	-10.0104
▁adj	-10.0108
▁looping	-10.0127
-1)	-10.0179
▁table	-10.0225
nclear	-10.0238
▁4_._	-10.0387
▁exit	-10.0417
▁price	-10.0481
▁cek	-10.0498
▁init	-10.0515
mid	-10.0566
▁360	-10.059
▁chars	-10.0664
▁freq	-10.0679
▁does	-10.068
▁content	-10.0681
nerase	-10.0705
▁high	-10.0709
P	-10.0732
2]	-10.0741
▁mat	-10.0771
[0][1]	-10.0775
▁^	-10.0785
▁lo	-10.0787
1]	-10.0799
▁'4'	-10.0847
▁nothing	-10.0852
▁accept	-10.0857
▁"."	-10.0872
▁kol	-10.0883
▁pq	-10.0911
▁remainder	-10.0912
▁match	-10.0942
▁point	-10.0952
▁go	-10.0971
▁begin	-10.1009
flag	-10.1017
▁keep	-10.1043
▁stream	-10.1068
▁cmp	-10.1075
▁pow	-10.1127
-|	-10.1134
▁used	-10.1146
▁unique	-10.1151
▁setting	-10.1156
|	-10.1182
▁reference	-10.1228
ch	-10.1236
Y	-10.1239
and	-10.1251
▁'\0'	-10.1326
at	-10.1381
nlen	-10.1397
rock	-10.1398
▁booleans	-10.1448
▁strlen	-10.1466
scissors	-10.1493
▁dimension	-10.1526
2=	-10.1527
paper	-10.1528
▁sol	-10.1537
▁color	-10.1543
▁until	-10.1625
it	-10.1648
idx	-10.169
((	-10.1698
▁hi	-10.1703
▁fast	-10.1731
ndo	-10.1817
OOOO	-10.1823
▁op	-10.1839
print	-10.1847
▁win	-10.1865
lled	-10.1873
▁inline	-10.1927
▁after	-10.193
▁positive	-10.1938
▁'('	-10.1939
ngo	-10.1944
row	-10.202
▁rows	-10.2023
▁div	-10.205
nch	-10.2069
▁fb	-10.211
][2]	-10.2213
▁4)	-10.2213
[1][	-10.2246
▁memset	-10.2249
▁need	-10.2253
▁visit	-10.227
skip	-10.2286
▁=0	-10.2336
▁subtract	-10.2345
char	-10.235
prime	-10.2389
npos	-10.2405
-1][	-10.2421
▁'0')	-10.2425
▁doubles	-10.2436
8	-10.2443
:	-10.2444
▁address	-10.2458
▁10_._	-10.2484
▁items	-10.2503
2[1]	-10.2504
exclusive	-10.2547
nmax	-10.255
▁vectors	-10.2573
mod	-10.2589
▁primes	-10.2597
now	-10.2599
▁I	-10.2656
▁Friendship	-10.2689
nto	-10.2698
val	-10.2702
vector	-10.2712
->	-10.2733
▁isprime	-10.275
▁visited	-10.2822
▁upper	-10.2825
left	-10.283
time	-10.2832
▁exp	-10.286
make	-10.288
())	-10.2929
▁",	-10.2975
▁32	-10.3002
nstr	-10.3022
▁round	-10.3026
▁100001	-10.3076
ith	-10.3115
▁97	-10.3118
▁float	-10.3137
▁PI	-10.314
▁"-	-10.3153
in	-10.3205
▁minx	-10.3225
▁acos	-10.3237
▁:	-10.324
Z	-10.3254
mp	-10.3264
▁display	-10.3338
▁calling	-10.3347
TRIANGLE	-10.337
▁'?'	-10.3373
▁vv	-10.3382
nmx	-10.3382
▁H	-10.3386
nmin	-10.3393
[6]	-10.3418
▁inp	-10.3435
▁case	-10.3446
<=	-10.3458
▁cc	-10.3471
[1])	-10.3476
}	-10.3488
!"	-10.3488
▁tb	-10.3494
scending	-10.3503
▁store	-10.3508
▁resp	-10.3526
▁'8'	-10.3593
▁points	-10.36
ntmp	-10.3626
▁coun	-10.3641
▁bits	-10.3648
▁compare	-10.3654
of	-10.3655
▁""	-10.3657
▁Min	-10.3675
▁cout	-10.3728
nlong	-10.374
▁998244353	-10.374
OO	-10.3743
SEGMENT	-10.3764
1=	-10.3799
OOO	-10.3861
18	-10.3932
[1][0]	-10.3945
(0_._	-10.395
▁hh	-10.396
')	-10.396
boolean	-10.3962
[0])	-10.3994
▁dem	-10.3995
npop	-10.4011
nst	-10.4024
▁sy	-10.4028
the	-10.4088
▁nums	-10.4106
nfill	-10.4146
▁1000000	-10.4148
▁tp	-10.4149
▁1]_._	-10.4167
▁kk	-10.4202
[1][1]	-10.4235
▁ty	-10.426
▁re	-10.4275
▁key	-10.4277
▁yu	-10.4303
▁best	-10.4363
+1)	-10.4395
▁fl	-10.4431
out	-10.4558
>=	-10.4569
▁queue	-10.4603
10	-10.4633
▁minus	-10.4636
update	-10.4702
▁qm	-10.4702
▁2*	-10.4725
▁':'	-10.4785
▁columns	-10.4792
▁hash	-10.48
▁tt	-10.4809
RIGHT	-10.484
▁same	-10.4883
▁"-1	-10.4925
▁flg	-10.4937
V	-10.4958
cast	-10.4991
▁ck	-10.5002
absolute	-10.5063
▁O	-10.5077
nw	-10.5094
▁se	-10.5094
▁U	-10.5109
▁suma	-10.5114
▁sign	-10.5114
mx	-10.5117
Q	-10.5121
er	-10.5145
et	-10.5164
ll	-10.5188
▁da	-10.5205
▁isPrime	-10.5226
▁book	-10.5234
▁31	-10.5244
▁eps	-10.5247
▁cast	-10.533
>0	-10.5354
▁infinite	-10.5383
▁64	-10.5425
▁front	-10.5458
nq	-10.5459
[2]_._	-10.547
last	-10.5496
▁"/"	-10.5502
xx	-10.5503
▁grid	-10.5513
▁precision	-10.5525
▁red	-10.5536
Time	-10.5544
erminate	-10.556
Second	-10.5575
],	-10.5594
no	-10.5632
[7]	-10.5708
▁1000000000	-10.5709
(0)	-10.5741
▁sm	-10.5741
MIN	-10.5752
▁has	-10.5782
for	-10.5809
▁{	-10.5822
col	-10.5839
▁(((	-10.5861
/10	-10.5863
▁Z	-10.5905
▁ada	-10.5943
▁file	-10.5953
▁blue	-10.5957
-2	-10.5958
▁contain	-10.5959
▁'7'	-10.5961
▁cou	-10.5974
▁Arr	-10.5986
▁calc	-10.6002
▁level	-10.6008
ar	-10.6032
[2][1]	-10.6043
First	-10.6044
PRINT	-10.6044
▁days	-10.6082
▁'<'	-10.6111
▁multiply	-10.6112
▁1000000009	-10.6121
▁sb	-10.6126
▁arg	-10.6128
▁father	-10.6131
▁)_._	-10.6134
▁dig	-10.6146
▁mas	-10.6198
▁chest	-10.6207
name	-10.6222
▁EPS	-10.6272
▁squared	-10.6325
false	-10.636
IMPOSSIBLE	-10.6363
nz	-10.6375
=0_._	-10.6411
▁'_._	-10.642
element	-10.642
▁place	-10.6432
head	-10.6452
▁form	-10.6468
ne	-10.6491
▁po	-10.6507
4_._	-10.652
▁tc	-10.6598
nT	-10.663
▁ta	-10.6647
▁'0'_._	-10.6665
ninv	-10.667
[1][2]	-10.6672
▁"|"	-10.6725
▁201	-10.6734
▁three	-10.6743
ALMOST	-10.6758
▁magic	-10.6769
ntotal	-10.6771
oke	-10.6771
-2]	-10.6775
▁fi	-10.6782
!	-10.6805
▁args	-10.6805
▁rs	-10.6821
▁pref	-10.6832
black	-10.6839
value	-10.6841
▁biceps	-10.6862
LEFT	-10.6878
=(	-10.6881
▁keyboard	-10.6935
▁100010	-10.6938
▁rounded	-10.6938
▁stack	-10.694
▁remove	-10.695
▁Number	-10.6952
+2	-10.6953
▁(180	-10.6953
▁pass	-10.6954
▁pic	-10.6956
▁1.0	-10.7007
++]	-10.7025
▁2))	-10.7068
▁UP	-10.7073
▁DOWN	-10.7075
▁fin	-10.7092
▁F	-10.7093
▁falsy	-10.7107
▁{0_._	-10.7115
▁joy	-10.7144
+1][	-10.715
▁fixed	-10.7151
[2])	-10.7157
▁mult	-10.7189
▁con	-10.7202
▁1][0]	-10.7213
▁7)	-10.7234
▁brr	-10.7259
▁1][1]	-10.728
▁WINS	-10.7282
nu	-10.7291
▁'>'	-10.7294
▁negative	-10.7302
▁{1_._	-10.7303
▁tab	-10.731
▁lol	-10.7315
▁First	-10.7348
▁24	-10.7351
▁nl	-10.7352
▁1010	-10.7382
▁prog	-10.7458
▁list	-10.7467
▁TESTS	-10.7477
▁Dp	-10.7513
▁500	-10.7516
▁180	-10.7595
▁fun	-10.7642
▁hitung	-10.7647
ss	-10.7648
nret	-10.7653
▁move	-10.7658
▁cy	-10.7694
▁sub	-10.7703
▁Second	-10.7724
void	-10.776
▁yes	-10.7793
▁le	-10.7805
▁'|'	-10.7824
▁nonzero	-10.7825
▁'/'	-10.7826
nok	-10.784
▁aa	-10.7842
▁"#	-10.7847
▁ff	-10.7887
)]	-10.7893
▁distance	-10.7894
▁tem	-10.7923
▁5)	-10.7925
nmid	-10.7932
[2][0]	-10.794
▁ac	-10.8012
▁every	-10.8013
▁br	-10.8016
▁myset	-10.8039
▁board	-10.8045
▁fact	-10.8052
nwrite	-10.8057
▁gap	-10.8059
▁lucky	-10.8059
us	-10.8094
▁comp	-10.8108
▁sx	-10.8166
▁green	-10.8167
64_	-10.818
nmp	-10.8196
▁divisi	-10.8205
▁uneven	-10.8206
▁puts	-10.8225
▁')'	-10.8239
%	-10.8271
[0][2]	-10.8281
RU	-10.8285
ble	-10.8337
[(	-10.8369
*(	-10.8372
▁fuel	-10.8409
input	-10.841
▁good	-10.8414
▁sieve	-10.8431
▁tx	-10.8473
Friendship	-10.8574
txt	-10.8597
▁mins	-10.8598
come	-10.8601
▁spf	-10.8617
▁fathercnt	-10.8617
▁mymap	-10.8619
▁dir	-10.8621
▁pa	-10.8635
])_._	-10.8671
▁pw	-10.8685
result	-10.8745
▁su	-10.8764
decrement	-10.8778
▁ctr	-10.8797
▁guy	-10.8805
id	-10.8808
▁have	-10.8817
top	-10.8837
▁half	-10.8854
=3	-10.8896
RE	-10.8919
▁pri	-10.892
]-	-10.8922
▁multiplie	-10.893
Set	-10.8931
[2][2]	-10.8948
pow	-10.9004
▁10000000	-10.9013
▁{}	-10.9014
not	-10.9014
E	-10.9019
▁head	-10.902
▁hate	-10.9028
▁1000005	-10.9032
▁250)	-10.9058
▁qr	-10.9066
▁100_._	-10.9114
▁22	-10.9117
nvis	-10.9124
▁log	-10.9132
ter	-10.9153
(2_._	-10.9198
▁120	-10.9207
▁numbers	-10.922
▁winner	-10.9251
1+	-10.9256
▁rec	-10.9343
▁its	-10.9385
▁'['	-10.9401
1.	-10.942
ind	-10.9428
White	-10.9436
nmove	-10.944
▁Grades	-10.9444
▁respectively	-10.9444
LU	-10.9454
▁parameters	-10.9456
LD	-10.9467
RD	-10.9472
▁code	-10.9486
▁mul	-10.9493
▁-1}	-10.9506
nre	-10.9525
▁"+"	-10.9579
nA	-10.9594
ninitialize	-10.9616
Black	-10.9662
▁db	-10.9682
▁edges	-10.97
▁ele	-10.9704
right	-10.9718
▁.	-10.974
▁100)	-10.9748
ncur	-10.9755
▁tolower	-10.9798
▁def	-10.9803
nar	-10.9805
▁var	-10.9833
double	-10.9834
3,	-10.9838
0,	-10.9858
▁200000	-10.988
*2	-10.9881
▁HIM	-10.9893
▁HER	-10.9894
Akshat	-10.9895
▁matrix	-10.9896
▁chang	-10.9907
rat	-10.9909
IG	-10.9917
op	-10.9928
▁51	-10.9941
copy	-10.9942
nmemset	-10.9945
▁dep	-10.9956
▁msk	-10.9959
ncheck	-10.996
▁search	-10.9972
]=1	-11.0001
▁RIGHT	-11.0025
1-	-11.0038
=-1	-11.0038
_1	-11.0102
▁"2"	-11.0104
▁exist	-11.011
▁status	-11.0134
▁":"	-11.0141
▁16	-11.0166
red	-11.0172
▁contains	-11.0173
▁cap	-11.0246
[3])	-11.0251
new	-11.0254
-9	-11.0259
▁isok	-11.0272
^2	-11.0273
▁pairs	-11.0273
on	-11.0283
+1_._	-11.0287
create	-11.0302
▁skip	-11.0321
▁cx	-11.0331
ly	-11.0333
▁year	-11.0343
▁put	-11.0357
one	-11.0361
ret	-11.0365
▁modul	-11.0369
▁menor	-11.0369
▁sumb	-11.0376
Malvika	-11.0376
::	-11.0377
white	-11.0388
]-'	-11.0395
▁ql	-11.0415
step	-11.043
▁rep	-11.0432
▁Chris	-11.0449
▁Mishka	-11.0449
▁open	-11.0492
▁102	-11.0557
Power	-11.0585
▁done	-11.0597
number	-11.0606
▁way	-11.0607
▁decreasing	-11.0608
▁condition	-11.0612
▁turn	-11.0621
▁more	-11.0622
▁act	-11.0628
▁req	-11.0652
▁was	-11.0653
reduce	-11.0656
up	-11.066
else	-11.0673
▁LEFT	-11.0677
+2]	-11.0689
▁returni	-11.0693
Oh	-11.0693
++	-11.0706
ITH	-11.0712
▁rat	-11.0732
▁par	-11.0749
▁moves	-11.075
▁np	-11.076
▁27	-11.0773
▁(3	-11.0785
▁2,	-11.0819
▁decimal	-11.0827
yy	-11.0843
<0	-11.0857
▁itself	-11.0857
▁program	-11.0858
▁matches	-11.087
sqrt	-11.0881
blue	-11.0885
child	-11.0889
ay	-11.0917
▁"|	-11.0944
▁Count	-11.0945
▁reg	-11.0951
▁tam	-11.0969
2-	-11.0993
▁fill	-11.0996
▁med	-11.1047
▁pt	-11.1052
nS	-11.1066
la	-11.1097
▁hav	-11.1101
nN	-11.1113
▁Input	-11.1115
▁jj	-11.1115
▁priority	-11.113
2))	-11.1148
("	-11.1149
DOWN	-11.1149
▁endl	-11.115
UP	-11.1155
▁111	-11.1162
▁txt	-11.117
minus	-11.1174
▁5001	-11.119
▁0}	-11.1208
▁"0	-11.1259
vis	-11.1265
!^^	-11.1293
▁48)	-11.1306
ad	-11.138
▁lim	-11.1416
Correct	-11.142
woman	-11.142
fabs	-11.146
▁la	-11.1465
▁2000	-11.1465
▁0;	-11.1473
maxn	-11.1486
pt	-11.1532
▁cad	-11.1541
▁ccw	-11.1544
▁there	-11.1616
-1]_._	-11.1618
▁tree	-11.1637
▁'5'	-11.1647
▁lowercase	-11.1647
▁200005	-11.1657
▁200001	-11.1658
man	-11.169
bound	-11.1697
nresult	-11.1699
▁MIN	-11.17
npre	-11.1705
="	-11.1728
▁pp	-11.173
▁Ans	-11.1749
")	-11.1758
▁cot	-11.1763
▁bigge	-11.1848
▁18	-11.1884
[8]	-11.191
▁cycle	-11.1912
▁maxm	-11.1912
▁method	-11.1931
▁love	-11.1944
▁graph	-11.1957
position	-11.1961
Reality	-11.1978
Space	-11.1979
Soul	-11.198
ncost	-11.198
#"]	-11.1985
Mind	-11.1986
▁save	-11.1988
3=	-11.2001
▁cup	-11.202
▁ms	-11.2056
▁big	-11.2073
][3]	-11.2074
▁forward	-11.2074
1][	-11.2088
▁update	-11.209
▁sup	-11.209
▁starty	-11.2095
nC	-11.2097
▁mo	-11.2167
▁jump	-11.2188
▁infinitely	-11.2211
▁fabs	-11.2216
▁"?"	-11.2216
▁rl	-11.2246
creasing	-11.2246
▁mask	-11.2246
▁extra	-11.2253
▁sq	-11.2259
green	-11.2267
▁2005	-11.228
proceed	-11.231
▁tm	-11.2313
25	-11.2321
nor	-11.2328
▁dat	-11.2335
nmaxx	-11.2337
▁pl	-11.2373
▁maps	-11.2415
▁cod	-11.2431
▁Correct	-11.2452
▁game	-11.2488
▁work	-11.249
AND	-11.25
Color	-11.2502
▁goal	-11.251
▁udmoves	-11.2511
▁rlmoves	-11.2511
▁curlower	-11.2512
▁hasil	-11.2516
▁DP	-11.2521
▁mov	-11.2525
▁alpha	-11.2532
▁coins	-11.2537
nindex	-11.2538
▁gr	-11.2551
▁divis	-11.2552
▁lenb	-11.2579
▁dm	-11.2601
▁PRINT	-11.2624
▁letters	-11.2625
▁1;	-11.2632
▁fix	-11.2638
nj	-11.2675
total	-11.2746
▁lessons	-11.2749
▁ed	-11.2755
▁pi	-11.2776
cost	-11.2787
▁tim	-11.2799
berOfPartialAns	-11.2799
▁width	-11.2807
▁13	-11.2813
▁side	-11.2819
▁flog	-11.282
▁diag	-11.283
▁startx	-11.2833
▁state	-11.2839
▁short	-11.2841
2(	-11.2845
▁write	-11.2851
▁MX	-11.2895
Ron	-11.2921
▁lb	-11.2925
ninline	-11.2943
▁incremented	-11.2955
es	-11.2968
nh	-11.2975
till	-11.3007
▁sc	-11.3021
▁digits	-11.3043
▁divisor	-11.3083
▁35	-11.3107
▁ver	-11.3111
cw	-11.3113
▁Solve	-11.3127
▁path	-11.3137
▁parent	-11.3144
▁reverse	-11.3152
▁possible	-11.3169
▁240	-11.3182
▁220	-11.3183
▁cr	-11.3187
▁convert	-11.3191
reate	-11.3195
Karen	-11.3213
▁cw	-11.3221
▁bl	-11.3222
base	-11.3255
▁sw	-11.3267
digit	-11.3268
diff	-11.3275
▁tar	-11.3275
▁300	-11.3333
low	-11.3344
▁iter	-11.3361
▁bound	-11.3382
tr	-11.3398
led	-11.3422
▁3*	-11.3442
▁large	-11.3442
▁smaller	-11.3443
▁weak	-11.3444
▁contador	-11.3452
▁poly	-11.3464
▁lst	-11.3465
▁chair	-11.3474
▁psum	-11.3481
▁'^'	-11.3485
▁stringstream	-11.3493
both	-11.3497
▁"+	-11.353
Dodecahedron	-11.3538
Tetrahedron	-11.3539
Octahedron	-11.3539
then	-11.3542
Cube	-11.3542
queue	-11.3544
TEAM	-11.3549
nfo	-11.3612
▁9)	-11.3617
▁steps	-11.3661
oo	-11.3675
▁cond	-11.3677
curr	-11.3721
▁floor	-11.3765
▁light	-11.3775
▁23	-11.3777
▁edge	-11.383
)/2	-11.3846
▁9_._	-11.3856
ccw	-11.3866
-1-	-11.3868
empty	-11.3869
▁names	-11.387
power	-11.3883
Mahmoud	-11.3892
Ehab	-11.3894
▁answ	-11.3901
orange	-11.3907
[2][	-11.3912
▁till	-11.3966
ct	-11.3989
▁36	-11.4008
▁250	-11.4028
um	-11.4069
]+	-11.4085
nma	-11.4087
nlast	-11.4097
_._"	-11.4113
)))	-11.4138
▁star	-11.4162
npr	-11.4169
▁sqr	-11.4182
nMOD	-11.4184
▁soma	-11.4196
as	-11.42
▁1000000007)	-11.4215
shift	-11.4216
▁ones	-11.4221
front	-11.4225
▁counts	-11.4226
▁20000	-11.4287
▁150	-11.4298
▁jum	-11.43
▁Ehab	-11.4348
▁Mahmoud	-11.435
][1])	-11.4351
▁TEAM	-11.4356
▁wi	-11.4363
ve	-11.4369
▁1}	-11.4375
chest	-11.4417
▁banyak	-11.4438
tc	-11.4443
▁28	-11.4475
▁uppercase	-11.4478
▁largest	-11.4486
▁over	-11.4495
▁cards	-11.4505
0)	-11.4512
▁"#.	-11.4527
▁2001	-11.4528
▁86400	-11.4535
fa	-11.4536
▁null	-11.4537
▁poww	-11.4548
nright	-11.4554
prev	-11.4558
H	-11.4563
▁money	-11.4566
▁slen	-11.4572
▁nuts	-11.4575
▁summ	-11.4577
▁erase	-11.4584
biceps	-11.4616
purple	-11.4618
▁vs	-11.4619
yellow	-11.462
let	-11.4622
▁cha	-11.4624
▁nCr	-11.4633
▁Impossible	-11.4642
▁home	-11.4642
▁Incorrect	-11.465
maxx	-11.4685
ign	-11.4688
ndis	-11.4692
5_._	-11.4694
▁proceed	-11.4722
vec	-11.4723
▁ne	-11.4725
nput	-11.4784
▁chk	-11.479
equal	-11.4791
▁%=	-11.4823
▁maxs	-11.4825
▁123	-11.4833
line	-11.4835
▁part	-11.4839
]))	-11.4846
▁Rozdil	-11.4848
▁active	-11.4848
▁stdin	-11.485
▁strcmp	-11.485
▁GCD	-11.4855
▁clock	-11.4857
▁MN	-11.4872
▁ll	-11.4892
▁Next	-11.4903
▁"4"	-11.4915
captain	-11.4943
[{	-11.4947
▁122	-11.4976
▁iterat	-11.4987
+(	-11.4987
signed	-11.4995
▁neg	-11.5
Leonard	-11.5003
Sheldon	-11.5003
Rajesh	-11.5003
Howard	-11.5004
Penny	-11.5004
50	-11.5008
▁poss	-11.5022
[0]]	-11.5038
node	-11.5039
-1_._	-11.5075
points	-11.51
nit	-11.5121
(1	-11.5132
)*	-11.5136
return	-11.5149
en	-11.5166
J	-11.5175
>(	-11.5179
▁cp	-11.5184
declare	-11.5184
▁3]	-11.5218
nmn	-11.522
permutation	-11.5231
▁previous	-11.5233
▁spyke	-11.524
▁'3'	-11.5249
▁96	-11.5253
▁oven	-11.5254
pre	-11.5254
▁final	-11.5258
mber	-11.5276
▁players	-11.5278
▁hor	-11.5283
nstep	-11.5291
▁speed	-11.5292
▁lca	-11.5305
▁lena	-11.5315
co	-11.5327
ither	-11.5343
ary	-11.5376
Icosahedron	-11.5389
Hermione	-11.5396
major	-11.5396
▁Anton	-11.5411
▁byte	-11.5425
minor	-11.5428
far	-11.544
push	-11.5446
▁captain	-11.5459
level	-11.5466
▁pm	-11.5505
naux	-11.5507
_0	-11.5538
▁indx	-11.5539
dif	-11.5555
nanswer	-11.5558
ta	-11.5562
▁follow	-11.5574
▁hb	-11.5583
7_._	-11.5584
▁mode	-11.5586
▁command	-11.5603
▁en	-11.5618
▁1.0)	-11.5628
▁-2	-11.5629
fantasy	-11.5631
▁factor	-11.5631
▁label	-11.5638
▁gl	-11.564
+1)/2	-11.5641
If	-11.5644
▁loss	-11.5647
cr	-11.5651
▁numOps	-11.5658
▁carry	-11.5659
▁'='	-11.5662
▁90	-11.5674
▁sp	-11.5688
modulo	-11.5692
NG	-11.5693
▁92	-11.5707
▁"-"	-11.5712
▁del	-11.5719
▁present	-11.5719
▁box	-11.5729
▁maxy	-11.5734
/5	-11.5736
jj	-11.5737
log	-11.5737
▁numb	-11.5748
▁execute	-11.575
card	-11.5776
▁pal	-11.5786
[2	-11.5803
▁Danik	-11.5816
nval	-11.5821
CHA	-11.5822
forward	-11.5822
▁nex	-11.5823
▁fx	-11.5824
[9]	-11.5839
▁maxa	-11.5848
▁retur	-11.5894
▁old	-11.5902
[3]_._	-11.5905
ncont	-11.5918
))_._	-11.596
▁itr	-11.5966
ntot	-11.6012
buil	-11.6027
."	-11.6029
▁rx	-11.6031
▁remaining	-11.6042
▁GRAPH	-11.6051
hi	-11.6052
nsolve	-11.6054
▁chess	-11.6063
▁solution	-11.6067
▁month	-11.6072
▁205	-11.6074
▁trees	-11.6092
▁el	-11.6093
▁inv	-11.6098
▁rta	-11.6123
▁qua	-11.6125
▁memo	-11.6128
▁hp	-11.6138
lol	-11.6141
▁dim	-11.6142
▁10005	-11.6149
+1]-	-11.6169
pointer	-11.6202
▁th	-11.6211
root	-11.6227
backward	-11.6257
nfirst	-11.6261
▁19	-11.6261
▁pro	-11.6308
▁(4	-11.6317
▁0.5	-11.6339
▁am	-11.6343
▁va	-11.6343
rr	-11.6349
▁fy	-11.6357
▁maxl	-11.6357
dest	-11.6385
]-'0'	-11.639
▁ab	-11.6401
▁ope	-11.6407
▁501	-11.6433
zxcvbnm	-11.6482
▁jarak	-11.6482
▁matriz	-11.6484
▁capacity	-11.6484
▁infinity	-11.6484
▁weight	-11.649
▁md	-11.6492
[25]	-11.6492
▁soroban	-11.6495
team	-11.6498
▁atkm	-11.6501
▁E	-11.6502
▁getline	-11.6505
▁sumA	-11.6507
▁fff	-11.652
▁'2'	-11.6521
▁hy	-11.6522
▁{"	-11.6534
▁bfs	-11.6535
▁que	-11.6538
▁cycles	-11.6549
▁rot	-11.6556
▁mmap	-11.6573
3372036854775807	-11.6599
▁black	-11.6618
square	-11.6628
][0])	-11.6632
▁sta	-11.6635
▁team	-11.6654
▁tstep	-11.6658
▁depth	-11.666
home	-11.669
▁Vasya	-11.6704
Misha	-11.6709
Vasya	-11.671
▁1].	-11.6714
▁seq	-11.6716
Tie	-11.6717
-(	-11.672
nbool	-11.6724
▁words	-11.6729
▁128	-11.673
-8	-11.6764
▁40	-11.6766
▁limit	-11.6775
▁65	-11.6784
aux	-11.6797
-1.0	-11.6813
>1	-11.6813
/(	-11.6825
]>	-11.6832
ara	-11.6834
▁Set	-11.6891
▁imax	-11.6915
▁remain	-11.6915
▁pointe	-11.692
sort	-11.6921
ndfs	-11.6934
▁misha	-11.6937
oop	-11.6937
▁Vasilisa	-11.6938
▁error	-11.6938
▁Pic	-11.6939
counter	-11.6943
▁asd	-11.6943
▁ha	-11.6944
▁Need	-11.6948
▁cell	-11.6949
▁bisa	-11.695
asdfghjkl	-11.6953
▁participants	-11.6958
It	-11.6966
▁like	-11.6967
▁"5"	-11.6979
▁shu	-11.698
▁ry	-11.6988
▁vet	-11.6997
▁votes	-11.6998
▁fr	-11.7006
minimum	-11.7007
▁tag	-11.7028
ncounter	-11.7034
nmark	-11.7049
▁invert	-11.706
ndiff	-11.7091
▁prices	-11.7095
To	-11.711
}]	-11.7113
ma	-11.7115
▁1000001	-11.7116
▁"1	-11.7129
▁ra	-11.7172
map	-11.7184
Incorrect	-11.7184
nname	-11.7185
whichPosn	-11.7185
undefined	-11.7185
def	-11.7213
_2	-11.7222
▁isdigit	-11.7224
nL	-11.7238
nvisited	-11.7275
se	-11.7298
le	-11.7299
▁7-	-11.7307
)(	-11.7326
▁multi	-11.7339
▁lead	-11.7367
-6	-11.7396
▁player	-11.7403
▁amount	-11.7411
▁comparator	-11.7413
▁vetor	-11.7415
▁given	-11.7418
an	-11.7419
▁505	-11.7422
▁interval	-11.7422
▁5005	-11.7423
▁1000006	-11.7425
▁huiwen	-11.7435
pp	-11.7436
▁larger	-11.745
resize	-11.7456
Int	-11.7457
(3	-11.7458
▁pas	-11.7466
▁raw	-11.7467
9_._	-11.7496
2+	-11.75
▁vowel	-11.7505
▁alt	-11.7506
▁target	-11.7507
▁levels	-11.7511
npri	-11.7516
add	-11.7521
te	-11.7549
▁tep	-11.7562
[10]	-11.7578
)/	-11.7589
▁card	-11.7595
om	-11.7601
▁tr	-11.7622
▁whichPosn	-11.7646
color	-11.7652
▁inch	-11.7654
loop	-11.7675
/2)	-11.768
▁xmax	-11.7681
Impossible	-11.7684
▁toupper	-11.7685
Danik	-11.7686
Anton	-11.7687
▁chris	-11.7714
depth	-11.773
[100]	-11.78
▁ysum	-11.7811
ncr	-11.7812
(-1)	-11.7821
▁take	-11.7829
MAXN	-11.7834
▁beat	-11.7837
▁999999	-11.7844
▁rotate	-11.7877
▁ios	-11.7879
▁parameter	-11.7884
▁(-1)	-11.7892
▁sumz	-11.7897
▁miny	-11.7902
▁To	-11.7903
[0],	-11.7911
Slava	-11.7913
▁person	-11.7913
▁nextDiv	-11.7913
▁sushu	-11.7913
9+7	-11.7913
▁password	-11.7913
▁'}'	-11.7915
▁toggle	-11.7917
▁zeroes	-11.7918
▁xay	-11.7921
▁indefinitely	-11.7923
▁DFS	-11.7924
▁"1/2"	-11.7925
▁binary	-11.7927
▁"1/1"	-11.7933
4,	-11.7933
▁atky	-11.7934
▁bills	-11.7936
▁2000000	-11.7937
so	-11.7949
▁400	-11.7959
div	-11.7984
▁use	-11.8043
▁chr	-11.8074
subtractions	-11.8085
▁8)	-11.8089
(-1.0	-11.809
▁sec	-11.81
▁{-1	-11.8102
(2	-11.811
▁increas	-11.8134
▁loc	-11.8146
▁backward	-11.8146
8_._	-11.815
▁undefined	-11.8159
▁Misha	-11.817
rem	-11.8196
▁CHA	-11.8197
nnow	-11.8199
Ciel	-11.8203
UR	-11.8213
ways	-11.8235
▁1]]	-11.8242
▁node	-11.8245
rs	-11.8246
*5	-11.8287
▁gg	-11.8296
▁bs	-11.8302
win	-11.8356
LO	-11.8358
open	-11.8365
▁copy	-11.8373
▁distanc	-11.8427
▁stone	-11.8431
▁gesture	-11.8439
hello	-11.8439
▁'!'	-11.844
▁boxes	-11.844
▁crew	-11.8441
▁isgro	-11.8442
nzero	-11.8445
▁de	-11.8446
▁exgcd	-11.845
do	-11.8451
▁"5/6"	-11.8451
▁"1/3"	-11.8452
▁"2/3"	-11.8452
▁hm	-11.8455
▁salt	-11.8461
▁record	-11.8461
▁blyat	-11.8463
▁alph	-11.847
nMax	-11.848
▁cmd	-11.8484
▁'6'	-11.8485
▁pointers	-11.8488
▁buff	-11.8493
▁exe	-11.8493
-1])	-11.8515
▁bob	-11.8515
▁0.0	-11.8517
nle	-11.853
lo	-11.8533
par	-11.8582
moves	-11.8595
][0][	-11.8605
odd	-11.8614
▁Bob	-11.8634
ajout	-11.8641
▁Alice	-11.8647
▁(360	-11.8653
('	-11.8658
▁29	-11.8662
nmod	-11.8671
▁colors	-11.8686
+1))	-11.8688
next	-11.8695
▁"="	-11.8703
[3][	-11.8708
▁zz	-11.8712
▁!(	-11.8718
>()	-11.8718
Danil	-11.8734
Nikita	-11.8738
tin	-11.874
Olya	-11.8741
▁nxt	-11.8751
Hanako	-11.8757
change	-11.8761
▁orange	-11.8763
half	-11.8763
Output	-11.8766
▁gets	-11.8768
Dasha	-11.877
Equal	-11.8771
Masha	-11.8776
▁sheets	-11.8783
▁qq	-11.8785
ncurr	-11.881
▁pot	-11.8811
ndir	-11.8846
dd	-11.8863
▁SEGMENT	-11.8864
act	-11.8867
nco	-11.8868
pri	-11.8873
nde	-11.8907
BA	-11.8935
▁plen	-11.8936
▁siz	-11.8947
▁di	-11.8955
]][	-11.899
▁jumlah	-11.8995
▁available	-11.8995
popcount	-11.8995
▁entered	-11.8995
▁raise	-11.8996
▁pole	-11.9
▁leaf	-11.9005
ULL	-11.9006
Ju	-11.9006
ntransform	-11.9007
▁2147483647	-11.9008
▁buf	-11.9009
▁powmod	-11.901
/7	-11.9022
*10+	-11.9022
▁bran	-11.9028
▁other	-11.9028
']['	-11.9029
▁mishka	-11.9031
[++	-11.9032
▁LCM	-11.9032
▁bottles	-11.9034
▁CUR	-11.9046
▁stones	-11.9049
▁bao	-11.9056
AB	-11.9059
▁600	-11.9084
▁Qr	-11.9088
point	-11.9091
colom	-11.9094
▁(7	-11.91
dg	-11.9102
capital	-11.9122
▁Cnt	-11.9146
▁xsum	-11.9153
▁60_._	-11.9162
▁Sum	-11.917
▁atk	-11.9174
▁pd	-11.9198
nout	-11.9216
+3	-11.9223
▁Equal	-11.9224
ceil	-11.9224
3[	-11.9286
nara	-11.9289
numberOfStudents	-11.9298
▁newdp	-11.9298
ngcd	-11.9305
▁iterations	-11.9309
▁(8	-11.9318
▁clo	-11.9322
▁Time	-11.9325
dimension	-11.9335
▁yellow	-11.9348
UL	-11.9353
Alice	-11.9355
nM	-11.9373
ult	-11.9388
▁dd	-11.9395
ul	-11.9416
digits	-11.9421
▁sumr	-11.9441
▁ymin	-11.9463
▁1][2]	-11.9479
▁woman	-11.9481
ate	-11.9488
▁ba	-11.9493
yes	-11.9499
nvec	-11.9503
▁ey	-11.9541
ra	-11.9542
^	-11.9554
▁goto	-11.9555
▁lc	-11.9555
▁li	-11.9559
Colours	-11.9583
Elephant	-11.9583
▁difference	-11.9583
Bear	-11.9583
▁inches	-11.9584
▁computer	-11.9586
▁qtb	-11.9593
▁frest	-11.9594
▁setprecision	-11.9596
▁vest	-11.961
▁lenght	-11.9613
▁repeat	-11.9614
▁QAQ	-11.9622
▁Bulbasaur	-11.9623
▁contiguous	-11.9633
▁21	-11.9636
▁quotient	-11.9637
▁amounts	-11.9659
▁wei	-11.9666
▁spec	-11.967
▁suff	-11.9678
▁sumB	-11.9682
nputs	-11.9684
▁pe	-11.9694
while	-11.9731
▁lon	-11.9737
▁floats	-11.9739
all	-11.9742
solve	-11.9776
▁greate	-11.9778
▁tmo	-11.979
▁qy	-11.9808
ry	-11.9809
▁9999999	-11.9824
▁men	-11.9825
ntime	-11.9831
nused	-11.9834
that	-11.985
▁sh	-11.9853
▁endy	-11.9855
break	-11.9871
▁Tie	-11.9889
dy	-11.9894
ncrease	-11.9932
lcm	-11.9966
impossible	-11.9968
Mishka	-11.9975
Chris	-11.9976
ULDR	-11.9977
search	-11.9981
Bob	-11.9982
distance	-11.9982
▁ite	-11.9984
-1]+	-11.9988
Pos	-11.999
maxi	-12.0004
▁(9	-12.0007
▁counta	-12.001
DR	-12.0013
DL	-12.0015
▁ys	-12.0024
ement	-12.0024
epend	-12.0031
▁1])_._	-12.0061
▁2.0	-12.0063
▁palin	-12.0069
-7	-12.0086
",	-12.0093
#"	-12.0095
reset	-12.0103
▁10001	-12.0113
▁ymax	-12.0124
check	-12.0124
▁dr	-12.0157
▁cs	-12.0174
▁sumy	-12.0175
▁occurrence	-12.0176
▁gc	-12.0177
2.	-12.0178
▁incrementin	-12.0194
BigInteger	-12.0208
Koyomi	-12.0208
▁amazing	-12.0208
▁Sentence	-12.0208
▁location	-12.0208
▁numDiv	-12.0208
Ann	-12.0212
▁format	-12.0215
▁emm	-12.0217
▁"7"	-12.0223
▁highest	-12.0226
▁fuck	-12.0226
from	-12.0229
▁four	-12.0234
▁load	-12.0235
▁hotels	-12.0236
▁smallest	-12.0236
▁column	-12.024
▁dict	-12.0243
▁dc	-12.0245
▁func	-12.0247
▁Blue	-12.025
▁err	-12.0254
▁"1/6"	-12.026
▁tail	-12.0274
cont	-12.0285
▁dg	-12.029
nidx	-12.0295
▁cakes	-12.0298
▁1000003	-12.0299
▁games	-12.0299
▁10010	-12.03
▁52	-12.0307
ong	-12.0311
▁lef	-12.0326
▁Md	-12.0341
▁hang	-12.0342
ngoto	-12.0351
▁0))	-12.0352
▁tha	-12.0375
ha	-12.0376
▁fim	-12.0384
▁lfp	-12.0393
!^^"	-12.0408
2["	-12.042
▁"|#.	-12.0431
▁prf	-12.0441
▁hit	-12.0459
▁ansy	-12.0467
▁maxim	-12.0472
=1_._	-12.0504
1000000007	-12.0528
▁pairt	-12.0531
nmm	-12.0538
▁mxv	-12.0545
▁100000000	-12.0558
▁lg	-12.0565
▁59	-12.0572
-1)/2	-12.0574
*10	-12.0584
▁-1)	-12.0589
▁Penny	-12.0592
unsigned	-12.0592
▁Howard	-12.0593
float	-12.06
substring	-12.0621
qwertyuiop	-12.0637
▁14	-12.0641
contest	-12.0644
sz	-12.0646
TIE	-12.0647
▁ev	-12.0656
▁pb	-12.0671
[105]	-12.0679
▁show	-12.0687
▁bak	-12.069
▁tri	-12.073
▁103	-12.0738
▁Masha	-12.0739
incremented	-12.0749
1["	-12.0751
nprev	-12.0754
ent	-12.0762
day	-12.0762
▁gra	-12.0764
▁xor	-12.0776
▁posy	-12.0797
+1)*	-12.08
▁oo	-12.0817
▁2}	-12.0819
]]]	-12.0826
post	-12.0829
▁gh	-12.0838
▁wp	-12.0843
mm	-12.0844
▁finish	-12.0855
output	-12.0857
▁bus	-12.0868
fffffff	-12.0874
Alien	-12.0875
NEITHER	-12.0875
▁palabra	-12.0875
▁factorial	-12.0875
▁danik	-12.0875
▁"***"	-12.0875
▁lowest	-12.0875
▁lzl	-12.0876
▁fives	-12.0876
▁pause	-12.0878
]+1	-12.0878
▁horizontal	-12.0878
▁basis	-12.0878
▁maxSize	-12.0879
▁bottom	-12.088
▁occ	-12.0881
▁qmarks	-12.0882
exadecimal	-12.0884
▁coord	-12.0886
▁process	-12.0888
▁biaoji	-12.0889
▁finall	-12.0891
▁maxsum	-12.0891
invert	-12.0892
▁arya	-12.0896
▁sumc	-12.09
▁+1	-12.09
Max	-12.0901
▁arra	-12.0902
▁sumpo	-12.0906
▁qpow	-12.0906
list	-12.0909
inner	-12.0918
ndist	-12.0919
stream	-12.0925
▁commands	-12.0925
▁shit	-12.0926
▁perm	-12.093
endline	-12.0933
xor	-12.0937
▁lie	-12.0939
▁Ql	-12.0949
nINF	-12.0957
▁slogan	-12.0957
▁qx	-12.0963
OT	-12.097
turn	-12.0971
▁bad	-12.0972
▁foo	-12.0984
nconvert	-12.0996
▁cpy	-12.1004
▁tdiff	-12.1009
atk	-12.1018
▁incrementi	-12.1018
▁mmax	-12.1023
1=0	-12.1058
▁deg	-12.1058
▁newsum	-12.1066
▁strange	-12.1074
▁mie	-12.1086
▁TIE	-12.1107
▁anton	-12.1108
elete	-12.111
▁contest	-12.1114
";	-12.112
price	-12.1121
▁(2*	-12.1128
zero	-12.1141
▁Dasha	-12.1153
run	-12.1155
▁xmin	-12.1158
▁maxr	-12.1163
▁maxv	-12.117
type	-12.1181
getchar	-12.1187
score	-12.1193
/4	-12.1209
▁notes	-12.1214
▁1]))	-12.122
nitem	-12.1229
ncek	-12.1232
nother	-12.1263
1}	-12.1273
ped	-12.1274
▁Rajesh	-12.1287
▁Sheldon	-12.1288
▁Leonard	-12.1288
[4][	-12.1293
▁endx	-12.1295
ax	-12.1296
▁ay	-12.1312
▁cntr	-12.1315
nMin	-12.1317
[0][0]_._	-12.1317
▁17	-12.1329
tp	-12.1344
▁turns	-12.1346
]/2	-12.1349
-3]	-12.1354
▁'0']	-12.1362
nB	-12.1368
sub	-12.1373
ment	-12.1385
execute	-12.1385
nvalid	-12.1391
▁tempm	-12.1394
▁maxlen	-12.1397
save	-12.1399
ending	-12.1403
with	-12.1425
▁deq	-12.1427
▁stu	-12.145
gap	-12.1452
▁resta	-12.1469
tot	-12.1474
▁sss	-12.1502
▁(5	-12.1532
layer	-12.1563
▁marks	-12.1563
1))	-12.158
▁prealoc	-12.1589
zhuangtai	-12.1589
▁amigos	-12.1589
▁soldier	-12.1589
▁voters	-12.1589
▁initial	-12.1589
▁myMap	-12.1589
▁static	-12.1589
/100	-12.1591
▁workdays	-12.1592
▁Way	-12.1593
▁grest	-12.1595
=2*	-12.1604
▁criba	-12.1604
▁searchres	-12.1605
▁5000	-12.1606
▁findfa	-12.1606
▁height	-12.1606
▁305	-12.1608
▁faces	-12.1611
Delete	-12.1614
▁freopen	-12.1614
▁Hash	-12.162
▁rub	-12.1627
▁"<"	-12.1627
▁">"	-12.1632
▁app	-12.164
nleft	-12.1645
/2+1	-12.1646
▁spect	-12.1646
▁vowels	-12.1649
▁vasya	-12.1654
▁Minb	-12.1669
adj	-12.167
▁acum	-12.1672
2=0	-12.1672
▁10]	-12.1673
▁fac	-12.1686
mark	-12.1687
▁tu	-12.1695
nrow	-12.1713
[4][2]	-12.1722
▁cmax	-12.1727
ting	-12.1729
▁palindrome	-12.1736
names	-12.1745
▁nx	-12.1748
nmaxi	-12.1755
▁2])	-12.1764
by	-12.1773
▁Mina	-12.1777
▁pv	-12.179
▁10000000000	-12.1798
▁']'	-12.1807
▁ep	-12.1837
nmonth	-12.1839
{	-12.1846
▁xxx	-12.1852
▁notup	-12.187
newline	-12.1879
▁abc	-12.1916
▁'_._'	-12.1935
nxx	-12.1954
▁send	-12.196
▁emp	-12.1963
nmaxn	-12.1978
▁zsum	-12.1999
word	-12.201
▁mmin	-12.2014
encont	-12.204
Num	-12.2048
▁fans	-12.2048
▁6)	-12.2068
maximum	-12.207
00	-12.2091
plus	-12.2106
halfplus	-12.2109
3))	-12.2113
HARD	-12.2127
EASY	-12.2127
Count	-12.213
notup	-12.2132
▁ww	-12.2133
▁per	-12.2139
none	-12.2145
-"	-12.2151
pref	-12.2156
▁3000	-12.2158
lower	-12.2166
ally	-12.2185
el	-12.2192
nint	-12.2204
▁child	-12.2215
mn	-12.2217
▁{2	-12.224
31_._	-12.2283
▁ls	-12.229
big	-12.2302
nrem	-12.2308
nsecond	-12.231
▁suf	-12.2334
(0)_._	-12.2351
lus	-12.2353
▁xop	-12.2354
▁acc	-12.2356
▁decrypt	-12.2358
klmnopqrstuvwxyz	-12.2358
aeiou	-12.2358
▁reqrec	-12.2358
▁center	-12.2358
▁sa	-12.2359
▁Init	-12.236
▁descending	-12.236
▁merge	-12.2361
▁indices	-12.2364
▁pearls	-12.2367
▁satu	-12.2369
▁INFF	-12.237
▁actual	-12.2372
▁single	-12.2374
▁liter	-12.2374
▁primeFactures	-12.2375
▁army	-12.2375
ndx	-12.2376
▁Cmp	-12.2389
▁denominator	-12.2389
nlabel	-12.2396
▁sisa	-12.24
▁(2^	-12.2407
▁100007	-12.2408
_._./"	-12.2417
▁going	-12.2421
▁ANS	-12.2427
▁fpow	-12.2428
▁workTime	-12.2429
▁loct	-12.2437
▁slot	-12.2445
▁offset	-12.2455
][0]_._	-12.2456
mini	-12.246
▁clear	-12.2476
|)"	-12.2487
▁97]	-12.2492
▁minP	-12.2494
▁opt	-12.2498
▁skill	-12.2512
est	-12.2513
▁ats	-12.252
1[2]	-12.252
▁rock	-12.2521
+1])	-12.255
▁sumne	-12.2556
▁99	-12.2567
#.#.#.#.#.#.	-12.2567
▁gmax	-12.2567
▁cm	-12.2568
terminate	-12.2579
INF	-12.258
nsuma	-12.2582
exp	-12.2593
nR	-12.2593
+1,	-12.2594
▁fla	-12.2602
▁sl	-12.2606
▁(-	-12.2619
than	-12.2625
▁modu	-12.2629
▁sag	-12.263
▁ctx	-12.265
os	-12.2655
▁this	-12.2657
nstore	-12.2662
▁pod	-12.2674
▁isupper	-12.2677
▁ust	-12.2683
▁maxcount	-12.2702
-1][0]	-12.2706
▁terminate	-12.2707
4)	-12.2717
▁ru	-12.2727
▁99999999	-12.2747
▁yb	-12.2754
'0'	-12.2783
▁maxcnt	-12.279
▁assigne	-12.2797
▁wh	-12.28
ghi	-12.2804
▁purple	-12.2859
▁mapp	-12.2862
▁bc	-12.2871
ninf	-12.2881
_4	-12.2886
1)_._	-12.2888
▁57	-12.2889
[2]-	-12.2906
][4]	-12.2921
64	-12.2929
TH	-12.2931
compare	-12.294
[1],	-12.2941
thursday	-12.295
fixed	-12.295
tuesday	-12.2951
saturday	-12.2951
sunday	-12.2951
monday	-12.2952
friday	-12.2952
lfp	-12.2954
+5	-12.2955
▁99999	-12.2955
strange	-12.2962
(1)	-12.2979
▁answers	-12.2985
▁dest	-12.2989
▁vct	-12.2991
pr	-12.2993
leave	-12.3009
▁zy	-12.3022
][1]_._	-12.3035
▁3,	-12.3068
[1000]	-12.3078
▁999999999	-12.3085
▁cant	-12.3086
▁te	-12.3095
▁Power	-12.3102
▁>0	-12.3115
dot	-12.3121
upper	-12.3139
stu	-12.3158
▁inputs	-12.316
▁rank	-12.317
▁taken	-12.3189
edge	-12.3189
▁excluisve	-12.3192
▁prohibited	-12.3192
optimization	-12.3192
▁consecutive	-12.3192
▁inicio	-12.3192
▁tedad	-12.3192
▁biao	-12.3192
▁numOf	-12.3192
Letter	-12.3192
▁47	-12.3193
▁buffer	-12.3193
stripe	-12.3193
▁groups	-12.3193
▁linha	-12.3193
▁bigmod	-12.3194
rado	-12.3201
▁smL	-12.3201
▁diamond	-12.3205
▁101_._	-12.3205
▁smR	-12.3206
▁dragon	-12.3206
▁duplicates	-12.3206
▁ALPH	-12.3207
▁ad	-12.3207
▁query	-12.3208
▁simon	-12.3209
▁oil	-12.3214
▁hold	-12.3215
▁third	-12.3219
▁page	-12.3221
lIdx	-12.3221
▁delta	-12.3225
character	-12.3226
nOtherwise	-12.3226
▁distinct	-12.3226
▁Alex	-12.3227
▁fastexp	-12.3228
▁blocked	-12.323
▁common	-12.3231
▁lft	-12.3233
▁dua	-12.3235
▁nega	-12.3239
▁Map	-12.3242
▁towels	-12.3243
▁primos	-12.3243
▁prod	-12.3248
▁timr	-12.325
▁cdays	-12.325
▁eC	-12.3254
▁'_'	-12.3254
▁permute	-12.326
▁angle	-12.3264
▁ihash	-12.3293
app	-12.3299
15	-12.3301
gdc	-12.3306
▁kanan	-12.3309
cc	-12.3314
▁1000010	-12.3335
nsz	-12.3337
▁neo	-12.3337
sign	-12.334
▁zx	-12.3346
nminn	-12.3352
▁(26	-12.3356
▁inc	-12.3357
▁kkk	-12.3361
nstring	-12.3364
▁solx	-12.3365
)]=	-12.337
nmini	-12.3376
▁maxval	-12.3379
▁sorted	-12.3381
-1,	-12.3391
nse	-12.3398
▁cel	-12.3432
▁Len	-12.3461
▁substr	-12.3463
#.	-12.3466
▁divs	-12.3468
▁ref	-12.3471
nyakyangmilihini	-12.3473
▁main	-12.3503
▁12]	-12.3514
▁lens	-12.3516
Sum	-12.3518
nMAX	-12.3523
▁180)	-12.3544
▁rla	-12.355
current	-12.3566
▁but	-12.3571
▁fu	-12.3588
▁ptr	-12.3599
▁vect	-12.3627
vowel	-12.3644
▁ro	-12.3645
▁lin	-12.3656
▁che	-12.3657
▁maxnum	-12.3662
iterator	-12.3663
▁bools	-12.3666
▁doit	-12.3676
bitwise	-12.3684
▁inter	-12.3687
vv	-12.3692
▁gp	-12.3702
be	-12.3705
dist	-12.371
ts	-12.3719
eat	-12.3723
▁""_._	-12.3742
▁posx	-12.3756
▁ten	-12.3774
▁J	-12.3778
▁bk	-12.3783
▁1100	-12.3787
ndy	-12.3832
01	-12.3834
▁dia	-12.3838
[5])	-12.3838
TO	-12.384
insert	-12.384
rt	-12.3844
▁compar	-12.3845
▁got	-12.3848
ot	-12.3849
▁}	-12.3856
lucky	-12.386
money	-12.3868
prefix	-12.3872
6_._	-12.3879
ignore	-12.3885
nsub	-12.389
▁dos	-12.3903
nct	-12.3913
▁pet	-12.3919
[0]][0]	-12.3923
numberOfElements	-12.3942
nnext	-12.3945
dx	-12.3946
+1+	-12.3947
▁mc	-12.3948
tabla	-12.3966
abc	-12.3969
ize	-12.3971
bak	-12.3973
▁tC	-12.3986
2)_._	-12.3988
▁lsum	-12.3993
Au	-12.3994
he	-12.4
tt	-12.4001
▁\0	-12.4011
erase	-12.4043
100	-12.4058
amt	-12.4058
ctr	-12.4061
are	-12.4072
sion	-12.4073
▁wt	-12.4078
][1][	-12.4081
qta	-12.4081
erate	-12.4083
tam	-12.409
▁face	-12.4095
▁paper	-12.4099
rd	-12.4099
▁vid	-12.41
▁Posution	-12.4101
▁interrupted	-12.4101
▁execution	-12.4101
▁fastIo	-12.4101
▁huruf	-12.4101
▁students	-12.4101
▁'{'	-12.4101
▁nextPrime	-12.4102
▁rides	-12.4102
▁izq	-12.4103
▁small	-12.4105
▁friends	-12.4105
▁Mul	-12.4105
qr	-12.4108
▁disC	-12.411
▁geek	-12.4114
▁nearest	-12.4118
▁people	-12.4118
▁Vector	-12.4118
▁negativos	-12.4118
▁jumlahgenap	-12.4118
▁build	-12.4119
▁32767	-12.4119
Min	-12.4128
▁isalpha	-12.4132
▁prevlen	-12.4134
Left	-12.4134
▁cols	-12.4135
▁isVowel	-12.4137
▁discounts	-12.414
▁before	-12.4143
road	-12.4147
▁ranks	-12.4149
▁ifstream	-12.415
▁only	-12.415
1*	-12.4151
▁End	-12.4154
▁|.|	-12.4161
▁minIncl	-12.4161
need	-12.4162
▁locg	-12.4164
▁rprev	-12.4164
▁yf	-12.4165
_8	-12.4167
▁skills	-12.4167
▁nama	-12.4181
▁matching	-12.4182
yu	-12.4183
lose	-12.4184
▁appear	-12.4187
▁modexp	-12.4195
nEPS	-12.42
biggest	-12.4201
ab	-12.4201
▁maks	-12.4202
▁block	-12.4205
▁drink	-12.4212
[1	-12.4212
nPI	-12.4222
marks	-12.4231
[100000]	-12.4238
#	-12.4268
▁tims	-12.4272
▁pwr	-12.4277
skill	-12.4285
▁127	-12.4288
.0	-12.4292
nfir	-12.4301
▁dsa	-12.4306
▁prevc	-12.4307
▁(_	-12.4314
esp	-12.4322
neo	-12.4326
▁1000000001	-12.4328
▁fir	-12.4333
1>	-12.4346
▁minm	-12.4354
▁odds	-12.4355
ice	-12.4365
▁"3"	-12.4374
cod	-12.4378
▁cntb	-12.443
sec	-12.4432
▁=0_._	-12.4445
▁area	-12.4446
▁suml	-12.4451
▁join	-12.446
)-	-12.4468
▁gla	-12.4485
▁maxN	-12.449
fb	-12.4492
▁imin	-12.4513
%2	-12.4517
(10	-12.4517
li	-12.452
▁4)]	-12.4536
▁nowp	-12.454
▁xb	-12.4543
-10	-12.4556
ql	-12.4584
▁100100	-12.4589
▁ways	-12.4605
▁50)	-12.4613
nms	-12.4615
▁uu	-12.4645
nfreq	-12.466
12	-12.469
nfound	-12.4701
▁"_._0	-12.4713
eps	-12.4714
'-'	-12.4716
▁maxb	-12.4743
44	-12.4766
hh	-12.4784
▁Karen	-12.4794
ion	-12.4811
data	-12.4817
ntest	-12.4821
eg	-12.4826
nuts	-12.4829
unique	-12.4831
Total	-12.4859
wednesday	-12.4859
='	-12.486
occur	-12.4872
joy	-12.4877
▁hc	-12.488
▁60)	-12.4884
▁999	-12.491
infinite	-12.4916
▁Ron	-12.4918
kol	-12.4923
99	-12.494
days	-12.4955
▁rate	-12.4959
/60	-12.4971
1_	-12.4976
chat	-12.4979
▁80	-12.4988
----------	-12.5011
nchar	-12.5013
rminate	-12.5015
(2*	-12.5023
▁2;	-12.5024
Factor	-12.5025
/3	-12.5062
1(	-12.5066
▁feet	-12.5074
▁ti	-12.5083
nTe	-12.5084
▁9999999999	-12.5085
-|"	-12.5085
eque	-12.509
▁caso	-12.5095
Index	-12.5095
▁INPUT	-12.5101
▁OUTPUT	-12.5101
▁brainfuck	-12.5101
▁inputLength	-12.5101
▁maxExcl	-12.5101
▁nineteen	-12.5101
▁qClose	-12.5101
DELTA	-12.5101
▁dynamic	-12.5101
▁fakem	-12.5101
ization	-12.5101
▁busca	-12.5101
▁perColor	-12.5101
▁echo	-12.5101
▁MAT	-12.5101
showpoint	-12.5103
▁pangkat	-12.5105
▁desk	-12.5105
▁minute	-12.5106
▁putchar	-12.5106
▁stud	-12.5107
-2)	-12.511
visited	-12.5113
▁suck	-12.5113
▁mima	-12.5114
▁4000000	-12.5114
▁shengyu	-12.5118
nI	-12.5118
▁walk	-12.5119
▁minimal	-12.512
▁manz	-12.5121
▁heap	-12.5121
fact	-12.5121
▁2002	-12.5124
▁hangx	-12.5126
▁finder	-12.5126
▁backw	-12.5132
high	-12.5134
▁coty	-12.5134
▁limak	-12.5137
▁choose	-12.5141
▁256	-12.5143
▁wait	-12.5145
▁rmark	-12.5148
▁src	-12.5149
▁mk	-12.515
▁sizeedge	-12.5157
▁nike	-12.5158
▁beginat	-12.516
▁conv	-12.5164
▁integ	-12.5167
▁fail	-12.5172
med	-12.5185
▁medals	-12.5191
▁syl	-12.5191
▁Hm	-12.5193
Print	-12.52
▁200010	-12.5201
inclusive	-12.5201
▁eaten	-12.5204
ok	-12.5204
▁nimpar	-12.5208
▁getint	-12.522
▁sym	-12.5223
▁nneg	-12.5224
5,	-12.5227
▁ya	-12.5233
▁exists	-12.5236
#.#.#.#.#.	-12.5244
▁cn	-12.5245
▁dic	-12.5255
rot	-12.5257
▁endpos	-12.5259
soma	-12.5259
▁digitm	-12.5259
[101]	-12.5264
wt	-12.5267
▁cups	-12.5267
=5	-12.5273
dep	-12.5274
da	-12.5288
▁stat	-12.5293
▁jol	-12.5296
ncurrent	-12.53
▁ml	-12.5307
ios	-12.5317
▁"4	-12.5319
eate	-12.5322
▁added	-12.5326
▁bo	-12.5331
ER	-12.5333
▁hr	-12.5334
[1000]_._	-12.5336
▁scissors	-12.5353
cup	-12.5358
splay	-12.5362
thing	-12.5367
▁seg	-12.5379
▁umb	-12.5396
▁normal	-12.5412
▁EASY	-12.5413
▁HARD	-12.5413
▁sumx	-12.5428
▁flat	-12.5454
pw	-12.5464
▁Dy	-12.5475
▁upd	-12.5485
▁Num	-12.5491
))))	-12.5509
▁DL	-12.5527
Ja	-12.5529
[1]][1]	-12.5545
▁npar	-12.5557
▁((1	-12.5573
▁compa	-12.558
▁lat	-12.5597
aa	-12.5605
nV	-12.5615
+4	-12.5624
▁nadj	-12.5632
▁sel	-12.5633
ries	-12.564
rea	-12.5644
gh	-12.5647
▁+=	-12.5652
▁jwb	-12.5665
()]	-12.5682
▁ny	-12.5688
▁divid	-12.5694
tri	-12.5699
▁inve	-12.5703
▁primer	-12.5719
>=0	-12.5733
▁100002	-12.5733
▁ke	-12.5742
gu	-12.5744
▁seat	-12.5754
ls	-12.5768
[1]]	-12.5769
▁cut	-12.5777
▁isn	-12.5807
▁las	-12.5817
rest	-12.5826
LINF	-12.5828
▁1}_._	-12.586
▁(10	-12.5866
-1][1]	-12.5873
letter	-12.5876
MINN	-12.5889
minx	-12.59
▁ud	-12.5922
block	-12.5936
SS	-12.5943
-----------	-12.5964
nex	-12.597
currnum	-12.5976
palindrome	-12.5989
target	-12.5992
▁reduce	-12.5994
▁atoi	-12.6003
▁off	-12.6009
▁-1000	-12.6009
]])	-12.6017
fingers	-12.6028
30_._	-12.6053
|"	-12.606
▁ui	-12.6063
▁Oh	-12.6066
▁3.14159	-12.608
3[0]	-12.6101
▁mmp	-12.6108
bru	-12.6111
Cb	-12.6116
▁incremen	-12.6135
▁Malvika	-12.6139
bool	-12.6139
▁iC	-12.6145
▁hour	-12.618
▁-10	-12.6182
▁Akshat	-12.6189
ange	-12.6195
]][1]	-12.6202
]=0	-12.6204
▁choc	-12.6205
3]	-12.6206
▁maxc	-12.6206
Gym	-12.6212
▁exlcusive	-12.6212
ZerosOnes	-12.6212
▁eevee	-12.6212
▁malloc	-12.6212
▁occurances	-12.6212
▁profits	-12.6212
▁salida	-12.6212
▁vertikal	-12.6212
▁encrypt	-12.6212
▁haogan	-12.6212
▁nuevo	-12.6212
▁202002	-12.6212
▁posibles	-12.6212
▁denied	-12.6212
▁Chess	-12.6212
▁chance	-12.6212
▁olnum	-12.6212
▁ziro	-12.6212
▁indimpar	-12.6212
▁minRow	-12.6212
▁maxRow	-12.6212
▁yelo	-12.6213
Infinite	-12.6213
▁Ids	-12.6213
▁station	-12.6214
▁minCol	-12.6214
▁maxCol	-12.6214
▁term	-12.6215
200000	-12.6215
▁valori	-12.6215
▁mohi	-12.6216
fo	-12.6216
▁losp	-12.6216
▁QQ	-12.6216
▁whole	-12.6217
▁seive	-12.6217
▁trump	-12.6217
▁awaly	-12.6219
▁tira	-12.6219
valid	-12.6221
▁mindis	-12.6221
▁notation	-12.6223
▁segment	-12.6223
▁blep	-12.6224
▁NULL	-12.6225
▁exlusive	-12.6225
▁inside	-12.6225
debug	-12.6226
▁strength	-12.6228
▁passengers	-12.6228
▁stck	-12.6228
▁numero	-12.6229
▁inicial	-12.6229
▁rgt	-12.6229
▁shelves	-12.623
▁4000	-12.6231
▁mirror	-12.6232
▁foot	-12.6233
▁posiciones	-12.6233
▁jumlahganjil	-12.6233
▁welfare	-12.6238
▁degree	-12.6238
▁intergers	-12.6239
▁shapes	-12.6242
▁mole	-12.6242
▁numedges	-12.6243
▁differ	-12.6244
▁cntfloat	-12.6247
(8)	-12.6248
0:0	-12.6251
▁prep	-12.6254
▁contN	-12.6254
▁masuk	-12.6258
▁AQ	-12.6259
▁pending	-12.626
later	-12.6263
▁cum	-12.6269
▁tank	-12.6269
▁maxsec	-12.6273
▁enemy	-12.6283
▁btoa	-12.6284
▁15_._	-12.6287
▁atob	-12.6289
AN	-12.629
▁Primes	-12.6292
▁cumm	-12.6293
▁1007	-12.6297
▁('	-12.6298
-1)*	-12.6304
▁sides	-12.6307
▁Start	-12.6314
▁factors	-12.6316
0(	-12.6319
▁cCount	-12.632
▁lime	-12.6321
▁mCount	-12.6326
inf	-12.6333
▁jumps	-12.6337
▁ou	-12.6337
▁zer	-12.6338
▁vocal	-12.6338
cos	-12.634
▁require	-12.6341
▁Flag	-12.6348
8"	-12.6348
▁losn	-12.6352
▁we	-12.6356
▁range	-12.6363
▁Find	-12.6367
▁ppow	-12.637
▁blu	-12.6375
▁1009	-12.6396
▁charnum	-12.6398
▁minval	-12.6402
-'0'	-12.6404
▁Found	-12.6405
rue	-12.6406
visit	-12.6411
nup	-12.6412
taken	-12.6427
|)	-12.6433
cl	-12.6434
▁81	-12.6448
gov	-12.6453
▁forw	-12.6462
▁ofstream	-12.6462
(&	-12.6467
▁isvowel	-12.6469
nday	-12.6479
▁gov	-12.6483
▁nam	-12.6483
[3]+	-12.6484
▁26)	-12.6486
▁alphabetical	-12.6487
▁Now	-12.6487
ea	-12.6489
▁checks	-12.649
▁Go	-12.6494
▁nC	-12.6494
mul	-12.6497
cy	-12.651
▁dot	-12.6513
Id	-12.6519
nmymap	-12.6535
▁sam	-12.6536
mo	-12.6538
[105]_._	-12.656
▁may	-12.6572
++"	-12.6576
▁islower	-12.6577
ndata	-12.6578
▁bal	-12.6583
ber	-12.6599
▁65]	-12.6606
▁man	-12.661
▁era	-12.6611
▁lett	-12.6618
▁hj	-12.6618
])]	-12.6636
▁100009	-12.6645
▁2^	-12.6646
▁ULDR	-12.6648
Val	-12.6676
▁rr	-12.6678
▁numa	-12.669
dsa	-12.6701
▁Output	-12.6701
etter	-12.6701
0}	-12.6707
240	-12.671
-1]-	-12.6714
kk	-12.6721
▁pop	-12.6729
ncrement	-12.6762
ndif	-12.6768
ut	-12.677
▁od	-12.6774
▁UR	-12.6774
▁Ar	-12.678
minmum	-12.6781
▁rb	-12.6785
▁((3	-12.6799
▁(0)	-12.6807
▁sheet	-12.681
ver	-12.6816
▁eq	-12.6819
ur	-12.6828
1<	-12.6842
▁org	-12.6858
]<=	-12.6866
▁timer	-12.6871
▁-100	-12.6879
sp	-12.689
2*	-12.6912
men	-12.6969
indx	-12.6969
28	-12.6975
▁divi	-12.6981
▁bul	-12.7052
▁asc	-12.7054
nas	-12.7074
▁58	-12.7084
▁oy	-12.709
nprimes	-12.7092
▁")"	-12.7094
▁ci	-12.7107
▁rt	-12.711
▁210	-12.7111
▁minimun	-12.7115
▁ccnt	-12.7117
take	-12.7122
(97	-12.7145
eight	-12.716
answer	-12.7163
nsol	-12.7175
sir	-12.7181
▁maxle	-12.7191
▁Soul	-12.7194
leafeon	-12.7199
▁Space	-12.7199
▁Reality	-12.7204
(0	-12.7205
flareon	-12.721
sylveon	-12.721
umbreon	-12.7211
ogo	-12.7212
ndiv	-12.722
86400	-12.7225
notes	-12.7231
poww	-12.7235
-1))	-12.7245
msk	-12.7247
]='	-12.7248
▁norm	-12.7249
▁ds	-12.7253
Dec	-12.7262
Now	-12.7275
null	-12.7279
()))	-12.7282
usa	-12.7283
▁cas	-12.7288
cx	-12.7318
tstep	-12.7319
▁cz	-12.7326
nword	-12.7328
▁tra	-12.7339
▁tlen	-12.7346
/10)	-12.7356
nscore	-12.7357
------------	-12.7358
▁(-1	-12.7378
tail	-12.7387
▁prim	-12.7395
'])	-12.7412
ak	-12.7421
▁Ta	-12.7426
▁interger	-12.7432
▁Mind	-12.7432
▁cntc	-12.7435
▁righ	-12.7442
▁pack	-12.7443
▁mina	-12.7443
XXL	-12.7457
((3	-12.7457
▁inclu	-12.7459
State	-12.7461
▁998244353)	-12.7462
▁destination	-12.7462
restaurantsJoys	-12.7462
wheniEndFromLeft	-12.7462
▁screen	-12.7462
▁ttoalha	-12.7462
▁kecil	-12.7462
▁logarith	-12.7462
▁maxSections	-12.7462
▁symbol	-12.7462
▁tConOven	-12.7462
▁NEB	-12.7462
▁banyakganjil	-12.7462
▁ganjilterkecil	-12.7462
▁Names	-12.7462
▁parity	-12.7462
▁carryFlag	-12.7462
▁bucket	-12.7462
▁CHR	-12.7462
▁myString	-12.7462
▁toalha	-12.7462
▁negro	-12.7462
▁segun	-12.7462
▁nogover	-12.7462
▁tiga	-12.7462
▁tramp	-12.7462
[100010]	-12.7462
▁"15"	-12.7463
▁outfile	-12.7463
track	-12.7463
nsemicol	-12.7463
▁colCount	-12.7464
▁besar	-12.7464
▁excusive	-12.7464
▁ostringstream	-12.7465
▁tipe	-12.7466
▁slice	-12.7466
▁5]	-12.7468
▁texto	-12.7471
Array	-12.7472
holidays	-12.7473
▁1000020	-12.7473
▁150001	-12.7473
▁strArr	-12.7474
▁bulbs	-12.7476
▁awalx	-12.7476
▁primo	-12.7477
▁maap	-12.7477
Star	-12.7478
▁Div	-12.7479
▁previousConte	-12.7481
▁1024	-12.7481
▁indpar	-12.7482
▁studentsRate	-12.7482
▁blockb	-12.7483
▁split	-12.7483
▁divisores	-12.7483
▁nilai	-12.7484
▁zheng	-12.7484
▁qtd	-12.7485
▁MODULUS	-12.7485
▁PhoneArray	-12.7485
▁gcdofarray	-12.7485
(12)	-12.7487
▁lvl	-12.7487
▁mayor	-12.7488
▁cadena	-12.7488
▁hari	-12.749
▁Res	-12.7491
▁"6"	-12.7491
▁boox	-12.7491
▁blank	-12.7493
▁White	-12.7493
▁900	-12.7493
▁Maxn	-12.7495
▁away	-12.7498
▁isPalindrome	-12.7498
▁faken	-12.75
▁mius	-12.75
▁wrong	-12.7506
1<=	-12.7508
▁saida	-12.751
▁blocka	-12.751
▁sandali	-12.7512
*-1	-12.7514
▁Freq	-12.7515
▁wrkdsz	-12.7515
▁lines	-12.7517
▁spff	-12.752
ge	-12.7521
nCr	-12.7523
▁nome	-12.7526
110	-12.7526
▁des	-12.7535
▁oranges	-12.7537
▁xs	-12.7537
▁medal	-12.7537
▁hot	-12.7545
▁hashi	-12.7546
▁Yellow	-12.7546
▁xorr	-12.7547
▁candidate	-12.755
]-'0')	-12.7552
/2]	-12.7553
▁text	-12.7554
▁isp	-12.7558
▁pick	-12.7562
▁midTime	-12.7566
▁maxNum	-12.7567
▁hora	-12.7568
▁lp	-12.7572
tttt	-12.7573
▁zlicz	-12.7578
▁[5][5]	-12.7579
▁mindiff	-12.758
▁pages	-12.758
▁lights	-12.7582
hole	-12.7591
▁wit	-12.7594
#.#.#.#.#.#.#.	-12.7601
▁colo	-12.7603
▁vol	-12.7605
▁pntr	-12.7607
counts	-12.7612
▁cprice	-12.7614
▁numver	-12.7631
▁seed	-12.7654
▁csx	-12.7656
▁allocat	-12.766
();	-12.7666
▁niz	-12.7666
▁jmin	-12.768
▁na	-12.7692
▁seen	-12.7698
tpresents	-12.7704
▁chay	-12.7705
ncal	-12.7722
▁modd	-12.7727
cap	-12.7735
nbest	-12.7743
▁pf	-12.775
▁eight	-12.7756
▁chax	-12.7757
▁cunt	-12.7758
▁jmax	-12.7761
nshu	-12.7763
▁fingers	-12.7767
Se	-12.7769
▁kq	-12.7773
less	-12.7792
▁letterx	-12.7797
file	-12.7806
▁prevr	-12.7815
spec	-12.7843
book	-12.7843
rison	-12.7852
primes	-12.7863
▁dimensions	-12.7891
▁me	-12.7901
32	-12.7911
▁mass	-12.792
sorted	-12.7926
▁any	-12.7929
bb	-12.7929
rac	-12.7938
(180	-12.7943
nfast	-12.7949
crement	-12.795
ncpy	-12.7954
gg	-12.7971
▁bv	-12.7972
11	-12.798
▁0.5)	-12.7982
▁2.0)	-12.7986
[0].	-12.7999
▁rd	-12.8002
key	-12.8003
▁IMPOSSIBLE	-12.8005
▁LO	-12.8022
▁95	-12.8026
arg	-12.804
asd	-12.8049
▁Dm	-12.8066
njudge	-12.8068
▁bx	-12.8073
▁coin	-12.8092
&1	-12.8103
▁tren	-12.8113
nind	-12.8115
urantsLunchTimes	-12.813
▁fs	-12.8133
▁numD	-12.8141
nlo	-12.815
3-	-12.8161
▁fo	-12.817
inp	-12.8173
▁tests	-12.8174
even	-12.8186
▁gcdd	-12.8199
▁un	-12.8199
'}	-12.8205
▁100003	-12.8212
▁4]	-12.8213
ant	-12.8222
Value	-12.8226
--]	-12.8232
▁25)	-12.8233
▁vl	-12.825
%10	-12.8277
▁500000	-12.8278
▁pali	-12.829
ncol	-12.8309
strings	-12.8314
▁jjj	-12.8326
]][0]	-12.833
▁killed	-12.833
▁1000)	-12.8334
▁pai	-12.834
▁(!	-12.8343
nfl	-12.8353
▁mex	-12.8359
▁ce	-12.8371
▁fre	-12.8376
▁30)	-12.8383
▁1)))	-12.8393
▁minA	-12.8416
30	-12.8417
INT	-12.844
nhigh	-12.8441
Found	-12.8445
nnums	-12.8446
me	-12.8464
▁wz	-12.8466
_._'	-12.8484
ck	-12.8487
▁rc	-12.8493
=5*	-12.8498
▁ph	-12.8499
▁49	-12.8501
maze	-12.8546
▁oc	-12.8549
▁1000000)	-12.8552
precision	-12.8574
=4	-12.8578
▁msum	-12.8585
2[0])	-12.8586
vl	-12.8605
nadj	-12.8612
drink	-12.8622
ies	-12.8625
jolteon	-12.8639
glaceon	-12.8639
▁al	-12.8639
TOWARDS	-12.8644
bacterias	-12.8649
mode	-12.8652
speed	-12.8654
times	-12.8668
sieve	-12.8668
put	-12.8672
Len	-12.8676
▁intege	-12.8681
sizeof	-12.8684
gl	-12.8688
nmi	-12.8689
pte	-12.8691
pwr	-12.871
ac	-12.8721
nlow	-12.8723
▁-48	-12.8746
▁bio	-12.8747
colors	-12.8751
box	-12.8753
nyes	-12.8773
▁63	-12.8779
▁300000	-12.8783
malow	-12.8802
nis	-12.8804
ndec	-12.8812
▁pB	-12.8828
ag	-12.8838
▁winC	-12.885
▁gv	-12.8852
hase	-12.8862
▁rnum	-12.8862
▁minp	-12.8885
▁exchange	-12.8887
▁sequential	-12.889
XXS	-12.889
▁sameSocks	-12.889
▁CityCode	-12.889
▁alphanumeric	-12.889
▁asphaltx	-12.889
▁asphalty	-12.889
▁binaryCode	-12.889
▁dimention	-12.889
▁getChar	-12.889
▁hunger	-12.889
▁numPairs	-12.889
▁shovel	-12.889
▁tercer	-12.889
@	-12.889
▁numeric	-12.889
LIM	-12.889
▁cross	-12.889
▁crush	-12.889
▁rotasi	-12.889
Possible	-12.889
▁supply	-12.889
▁safe	-12.8891
SEC	-12.8891
▁positivos	-12.8891
▁insect	-12.8891
▁girl	-12.8891
▁Roz	-12.8891
▁multimap	-12.8891
▁woch	-12.8891
▁starCount	-12.8891
▁zuo	-12.8891
▁DashaCount	-12.8891
▁BIT	-12.8892
▁blah	-12.8892
▁getwin	-12.8893
▁numOpen	-12.8894
▁insertion	-12.8894
▁cursor	-12.8894
▁30010	-12.8895
etra	-12.8896
▁succ	-12.8896
▁addresses	-12.8897
[110]	-12.8897
pasos	-12.89
▁maxVal	-12.89
▁Black	-12.89
<=0	-12.8902
[50]	-12.8902
XXXS	-12.8903
▁maxLen	-12.8904
▁clones	-12.8905
▁FB	-12.8905
▁nrod	-12.8905
▁gb	-12.8905
▁geo	-12.8905
▁local	-12.8905
strgro	-12.8906
▁10000007	-12.8906
▁vc	-12.8906
ASE	-12.8909
▁thisChar	-12.8909
▁Move	-12.8911
▁inilahhasilnya	-12.8911
▁signal	-12.8912
▁esPrimo	-12.8913
▁cambio	-12.8913
/2)*	-12.8913
▁product	-12.8913
▁gotodown	-12.8913
▁city	-12.8914
▁FA	-12.8914
▁fristOven	-12.8914
▁ivmind	-12.8916
▁correct	-12.8917
▁1000007	-12.8918
▁hero	-12.8918
▁pkt	-12.8918
▁ganjil	-12.892
▁shap	-12.892
▁itung	-12.8921
▁control	-12.8921
dig	-12.8922
▁9999	-12.8925
▁packs	-12.8926
▁links	-12.8926
▁jav	-12.8927
▁MAXM	-12.8928
▁lcp	-12.8932
▁finishx	-12.8936
▁kpk	-12.8938
▁full	-12.8938
▁minodd	-12.8939
▁QA	-12.8941
▁20)	-12.8942
▁compari	-12.8945
▁exam	-12.8946
▁maxJ	-12.8946
▁stac	-12.8948
▁zerocnt	-12.8949
▁cyka	-12.8949
▁wynik	-12.8951
▁numOfTestCases	-12.8951
▁radius	-12.8952
eclare	-12.8952
▁press	-12.8959
▁bill	-12.8963
▁1000100	-12.8974
▁"8"	-12.8981
▁"[]"	-12.8983
▁viii	-12.8984
Arr	-12.8984
▁SC	-12.899
▁PE	-12.8994
▁Mod	-12.8995
nshit	-12.8999
▁demy	-12.8999
=100000	-12.8999
▁adder	-12.9005
▁cyc	-12.9006
▁piso	-12.9006
▁180-	-12.9008
wl	-12.9009
▁Counter	-12.9009
nfreopen	-12.901
▁reus	-12.901
>>	-12.9013
▁lock	-12.9014
▁sumeven	-12.9019
▁ho	-12.9019
▁sumodd	-12.9024
▁floating	-12.9026
tar	-12.9026
▁myv	-12.9027
▁144	-12.903
▁kount	-12.9031
nanswers	-12.9032
▁nextz	-12.9032
▁goo	-12.9048
▁Stone	-12.9058
▁Union	-12.9061
<<	-12.9066
▁Home	-12.9069
▁mcd	-12.9072
▁comb	-12.9088
▁years	-12.909
nextprev	-12.9091
de	-12.9093
▁demx	-12.9102
▁cd	-12.9104
▁Size	-12.9107
▁5.0	-12.9112
nprice	-12.9115
▁100004	-12.9115
▁disy	-12.9131
▁bacterias	-12.9137
▁dq	-12.915
▁impar	-12.9151
2>	-12.9155
(5	-12.9158
-5	-12.9158
▁scoreb	-12.918
▁disk	-12.9193
▁(100	-12.9201
▁gox	-12.9201
-1+	-12.9206
▁acu	-12.9207
▁Ma	-12.9214
-1)/	-12.9215
-------------	-12.9222
▁100050	-12.9225
▁them	-12.9226
▁au	-12.9246
freq	-12.9246
▁ops	-12.9248
]*	-12.9254
nedges	-12.9263
nlight	-12.9265
nflg	-12.9286
-2_._	-12.9293
▁math	-12.9316
▁cons	-12.9323
▁An	-12.9324
Ans	-12.9327
▁62	-12.9327
▁so	-12.9332
▁non	-12.9334
▁seven	-12.9357
npoint	-12.9362
[3][2]	-12.9364
npass	-12.9364
niss	-12.9375
cout	-12.9383
▁>=0	-12.9393
hm	-12.9394
▁rev	-12.9406
XL	-12.9411
tfingers	-12.9417
inite	-12.9426
▁qwertyuiop	-12.944
▁ansx	-12.9441
ol	-12.9446
XS	-12.9451
▁arrx	-12.9467
▁lib	-12.9473
[200]	-12.9489
▁usa	-12.9496
present	-12.9497
▁impossible	-12.9502
(1_._	-12.951
▁mem	-12.9519
dis	-12.9523
MOD	-12.9534
▁2*(	-12.9537
od	-12.9564
ri	-12.9567
ninc	-12.9578
▁frr	-12.9589
▁'0'))	-12.9598
▁curl	-12.9598
▁concatenate	-12.9604
tem	-12.9612
lessons	-12.9622
ake	-12.9627
▁npos	-12.9654
▁104	-12.9655
prevbeg	-12.9673
alindromic	-12.9691
005	-12.9691
▁arc	-12.9698
cpy	-12.9701
ele	-12.9705
)((	-12.9706
▁minnum	-12.9707
numbers	-12.9711
ents	-12.9722
▁disc	-12.9728
ine	-12.973
nbook	-12.9731
ncout	-12.9733
▁5))	-12.9734
▁reset	-12.9736
▁pA	-12.974
/2_._	-12.9755
▁ve	-12.9767
▁tmpb	-12.977
maxy	-12.9774
▁"2	-12.9775
lt	-12.9777
▁1111	-12.9788
Next	-12.9801
▁100000000000	-12.9803
▁countb	-12.9805
▁-(	-12.9813
Number	-12.9815
ssj	-12.982
▁major	-12.9826
▁Hermione	-12.9828
▁srt	-12.9846
ashaCount	-12.9851
▁nok	-12.9875
xay	-12.9882
coun	-12.9889
▁cans	-12.991
lb	-12.9969
Prime	-12.9971
pa	-12.9995
▁Cube	-13.0011
greater	-13.0013
▁Octahedron	-13.003
▁Tetrahedron	-13.0032
▁Dodecahedron	-13.0033
▁subtraction	-13.0033
▁=1	-13.0037
roll	-13.0039
▁cmx	-13.0043
▁opr	-13.0044
inc	-13.0052
tur	-13.0059
table	-13.0071
▁Get	-13.0091
space	-13.0093
ow	-13.0097
0)_._	-13.01
les	-13.0107
▁generat	-13.0115
ase	-13.0118
▁curs	-13.0128
nnames	-13.0139
nds	-13.0157
ze	-13.0168
1)/	-13.0174
<1	-13.0177
▁wa	-13.0211
arch	-13.0219
']=	-13.0223
'+	-13.0227
board	-13.0234
two	-13.026
105	-13.0261
father	-13.0264
▁3.1415926535	-13.0272
mapper	-13.0275
▁94	-13.0281
▁ox	-13.0281
)/10	-13.0282
ndig	-13.0288
▁Tb	-13.0299
--"	-13.0304
strlen	-13.0304
[1]-	-13.0308
acos	-13.0309
[100000	-13.0309
vote	-13.0309
tempname	-13.031
Finite	-13.0311
like	-13.0319
▁ant	-13.0321
'^'	-13.0324
kanan	-13.0324
isupper	-13.0333
Find	-13.0335
byte	-13.0338
000	-13.0346
ninit	-13.0348
▁tmpa	-13.0353
pen	-13.0358
ndays	-13.0362
qua	-13.0365
raw	-13.0369
alre	-13.0373
nyu	-13.0382
▁ax	-13.0383
acum	-13.0391
▁faktor	-13.0395
▁-1000000000	-13.0406
etr	-13.0407
3+	-13.0434
▁maxPrime	-13.044
▁99999999999	-13.0447
999999999	-13.0453
▁nom	-13.0464
>=1	-13.0468
etween	-13.0472
▁termina	-13.0477
39	-13.0496
shel	-13.0508
pq	-13.0508
▁si	-13.0509
▁vi	-13.0514
▁resul	-13.0515
ngh	-13.052
▁secretar	-13.0546
nupper	-13.055
▁duplicate	-13.0551
▁blan	-13.0555
▁awal	-13.0556
▁success	-13.0557
▁connected	-13.0557
6744073709551615	-13.0557
▁MODULO	-13.0557
▁bracket	-13.0557
▁colunas	-13.0557
▁direcciones	-13.0557
▁esVocal	-13.0557
▁lunchBreakTime	-13.0557
▁monedas	-13.0557
▁xasphalt	-13.0557
field	-13.0557
verticalMoves	-13.0557
▁LastCommom	-13.0557
▁cumple	-13.0557
▁fraction	-13.0557
▁makeChanges	-13.0557
▁panduan	-13.0557
▁rightMost	-13.0557
▁volume	-13.0557
▁yasphalt	-13.0557
getPossibilities	-13.0557
▁assistantTemps	-13.0557
▁client	-13.0557
▁comando	-13.0557
▁feature	-13.0557
▁leftPreSum	-13.0557
▁perlas	-13.0557
▁rightPreSum	-13.0557
▁totalSec	-13.0557
▁polje	-13.0557
▁prevDiv	-13.0557
":0"_._	-13.0557
dhurr	-13.0557
▁FindLen	-13.0557
▁expect	-13.0557
▁maxName	-13.0557
▁ndmny	-13.0557
▁binSearch	-13.0557
▁margesort	-13.0557
▁wallet	-13.0557
▁numofelements	-13.0557
▁tagua	-13.0557
▁edits	-13.0557
▁consume	-13.0557
▁salir	-13.0557
[1000006]	-13.0557
▁MODPRIMA	-13.0557
▁entry	-13.0558
▁esclusive	-13.0558
aaabbc	-13.0558
▁maxgro	-13.0558
▁150005	-13.0558
▁Random	-13.0558
▁getAns	-13.0558
▁meio	-13.0558
▁Boolean	-13.0558
▁chore	-13.0559
▁totalpass	-13.0559
▁pResult	-13.0559
▁getNext	-13.0559
▁phnum	-13.0559
▁LCA	-13.0559
▁alana	-13.0559
▁trone	-13.056
▁500005	-13.056
▁menorW	-13.0561
▁failed	-13.0562
Best	-13.0562
▁hld	-13.0562
▁kids	-13.0562
▁Ncoins	-13.0562
▁agua	-13.0562
+1))/2	-13.0563
[1001]	-13.0563
Hexadecimal	-13.0564
▁valfin	-13.0564
▁masha	-13.0564
▁patt	-13.0564
house	-13.0565
▁pple	-13.0566
▁200100	-13.0569
Cle	-13.057
▁avg	-13.0571
▁removeZeros	-13.0571
▁leaves	-13.0572
▁nhap	-13.0573
▁sequence	-13.0573
▁winB	-13.0573
▁maxfather	-13.0574
▁relax	-13.0574
▁buns	-13.0575
▁2000005	-13.0575
▁testcases	-13.0577
XXXL	-13.0577
▁defcos	-13.0578
▁cash	-13.0579
▁invfact	-13.0582
▁bol	-13.0582
▁difficulty	-13.0583
nputchar	-13.0583
▁ratios	-13.0584
▁triangle	-13.0585
▁winA	-13.0585
▁dryer	-13.0587
▁numerator	-13.0587
▁zuida	-13.0587
▁reports	-13.0587
▁helper	-13.0587
▁curDay	-13.0587
▁5000000	-13.0589
▁ispal	-13.0592
▁currgcd	-13.0592
20	-13.0594
-1)*(	-13.0599
▁prevI	-13.0601
valu	-13.0602
▁Cal	-13.0603
▁lift	-13.0605
▁prob	-13.0606
ncell	-13.0607
▁isLucky	-13.0608
▁bshu	-13.0613
*1.0)	-13.0613
▁1][2]))	-13.0615
▁cho	-13.0615
seq	-13.0616
[4])	-13.0616
▁rdfs	-13.0617
ala	-13.062
maskX	-13.0622
atoi	-13.0623
onal	-13.0624
▁sleepTime	-13.0626
var	-13.0629
▁qkids	-13.0629
▁borrow	-13.063
▁penalty	-13.063
▁WBWBWBWB	-13.063
▁BWBWBWBW	-13.063
Take	-13.0631
▁cube	-13.0631
▁buy	-13.0632
▁10))	-13.0633
test	-13.0635
▁1440	-13.0636
▁problems	-13.0639
▁OK	-13.0639
Cha	-13.0645
words	-13.0645
***	-13.0646
(10)	-13.0646
▁car	-13.0649
▁sdiag	-13.0651
andom	-13.0652
▁hap	-13.0654
▁remaind	-13.0655
▁rount	-13.0661
▁5050	-13.0663
negative	-13.0666
▁cities	-13.0667
looping	-13.0667
▁lmax	-13.0673
▁candies	-13.0673
▁marked	-13.0674
force	-13.0675
ceils	-13.0679
▁2010	-13.068
▁curlen	-13.0681
▁exc	-13.0681
nmk	-13.0684
▁cake	-13.0685
▁ashu	-13.0685
posL	-13.0689
▁kill	-13.0699
*2-	-13.07
▁minTime	-13.0703
)+(	-13.0708
iones	-13.0709
▁maxcol	-13.071
▁boy	-13.0712
▁Pow	-13.0715
▁maxsalary	-13.0716
▁kiu	-13.0717
▁Hy	-13.0726
▁wins	-13.073
▁fro	-13.073
NA	-13.0733
Ca	-13.0737
▁winm	-13.0737
replaced	-13.0741
▁lev	-13.0743
▁Dist	-13.0747
10_._	-13.0753
▁works	-13.0757
▁currentans	-13.0757
▁vert	-13.076
▁"()"	-13.0768
ESS	-13.077
▁pict	-13.0797
++)	-13.08
▁lose	-13.0804
▁matr	-13.0807
wap	-13.0809
nstatus	-13.0814
▁isFound	-13.0816
]<	-13.0817
FS	-13.0824
]++	-13.0828
▁Left	-13.0831
▁lang	-13.0838
chars	-13.0839
gr	-13.0846
nrea	-13.0846
▁2100	-13.0858
nplayers	-13.0862
74	-13.0862
▁gro	-13.0878
▁posi	-13.0881
+1][0]	-13.0896
found	-13.0904
fin	-13.0924
▁lab	-13.093
mount	-13.0932
▁started	-13.0937
▁42	-13.0951
▁hah	-13.0951
▁rad	-13.0953
▁diy	-13.0955
▁vm	-13.0958
▁god	-13.096
unt	-13.0971
▁maxP	-13.0971
200	-13.0973
▁cmn	-13.0986
▁wednesday	-13.0987
▁auxp	-13.0988
▁files	-13.0993
▁newnut	-13.0994
▁maxC	-13.0995
▁currnum	-13.1001
-1]+1	-13.1004
nfinal	-13.1006
rbegin	-13.1007
90	-13.101
▁evensum	-13.1013
ratio	-13.1014
▁prefix	-13.1014
54	-13.1041
nseen	-13.105
des	-13.1068
▁'8')	-13.1075
▁friday	-13.1077
▁monday	-13.1078
▁sunday	-13.1078
▁saturday	-13.1079
▁tuesday	-13.1079
▁pen	-13.108
▁thursday	-13.1081
▁println	-13.1083
nX	-13.1085
▁real	-13.1088
=100	-13.1088
item	-13.1101
▁Hs	-13.1101
▁87	-13.1101
nZ	-13.112
Ho	-13.1125
▁auxc	-13.1131
9999999999	-13.1145
▁7]	-13.115
▁bin	-13.1153
▁anses	-13.1166
▁minr	-13.1166
cek	-13.117
▁1.0))	-13.117
▁cun	-13.1171
side	-13.1175
ger	-13.1202
'_._'	-13.1206
nprime	-13.1206
);	-13.1212
tSum	-13.1241
-3)	-13.1245
▁compo	-13.1254
3_1	-13.1262
flagee	-13.1274
)/(	-13.1277
ser	-13.1285
pot	-13.1295
▁((2	-13.1299
(3*	-13.1307
ndeg	-13.132
▁56	-13.1323
▁kh	-13.1338
▁nor	-13.134
▁UL	-13.1342
--)	-13.1352
▁Hanako	-13.1352
ang	-13.1358
▁bpow	-13.1379
).	-13.1392
▁Ciel	-13.1393
▁SS	-13.1397
use	-13.1401
▁dix	-13.1401
votes	-13.1408
▁toast	-13.141
▁_._0_._	-13.1412
▁DR	-13.1415
'][	-13.1416
▁bot	-13.142
mult	-13.1424
▁wb	-13.1426
pply	-13.1433
nreq	-13.145
▁1000000000000	-13.1453
constant	-13.1461
▁post	-13.1466
▁Db	-13.1477
alph	-13.1492
nmul	-13.1495
*3	-13.1501
▁arrpos	-13.1513
▁34	-13.1517
month	-13.1521
als	-13.153
nsu	-13.1547
dir	-13.1548
alfa	-13.1564
Ay	-13.157
▁lt	-13.1572
▁getNum	-13.1578
nG	-13.1581
2<=	-13.1583
ap	-13.1583
hp	-13.16
1110	-13.1602
discount	-13.1605
rev	-13.1608
--------------	-13.1612
numb	-13.1621
numver	-13.163
nver	-13.1638
▁Maxa	-13.164
mi	-13.1644
nteger	-13.1646
▁minstring	-13.1647
80	-13.1662
1000	-13.1668
▁nowl	-13.1669
case	-13.1681
sing	-13.1708
rad	-13.1717
▁301	-13.1718
Oct	-13.1721
req	-13.1735
nvisit	-13.1735
nss	-13.1736
numa	-13.1736
10000	-13.1756
▁incr	-13.1757
ff	-13.1759
(((3	-13.1762
]*(	-13.1779
▁recur	-13.1782
▁exl	-13.1804
ston	-13.181
▁bexc	-13.182
▁teste	-13.1828
db	-13.1829
[0]-	-13.183
▁appl	-13.1834
-'	-13.1845
▁ansb	-13.1867
▁he	-13.1871
2[1])	-13.1874
initi	-13.1887
0:	-13.1909
▁maxA	-13.1945
hang	-13.1969
▁mcnt	-13.1988
ison	-13.2004
▁(0)_._	-13.201
ro	-13.2023
='0'	-13.2023
ncond	-13.2047
(8	-13.2058
uest	-13.2061
bl	-13.2064
eger	-13.2072
stringstream	-13.2072
imak	-13.2086
impar	-13.2102
am	-13.2102
Home	-13.2105
nmov	-13.2106
udah	-13.2166
[26]	-13.2168
nvv	-13.2177
ip	-13.2179
▁substrings	-13.2181
dem	-13.2185
nary	-13.2196
Str	-13.2197
▁zeros	-13.2208
possible	-13.222
▁conver	-13.2228
positive	-13.2236
accept	-13.2236
graph	-13.2243
0.0)	-13.2255
Size	-13.2268
ile	-13.2271
yello	-13.2277
/1000	-13.2281
TESTS	-13.2281
gets	-13.229
three	-13.229
allocate	-13.2291
[105][105]	-13.2292
ue	-13.2296
winner	-13.2297
47	-13.2297
forbid	-13.23
dishes	-13.2304
short	-13.2304
Flag	-13.2307
▁50000	-13.2314
maxWin	-13.2314
Union	-13.2316
tuple	-13.2317
require	-13.2318
offset	-13.2321
Stone	-13.2323
OR	-13.2324
vocal	-13.2324
normal	-13.2326
floors	-13.2326
cakes	-13.2326
slot	-13.2326
▁2)]	-13.2336
chair	-13.2341
inverse	-13.2349
func	-13.2351
ndeclar	-13.2352
MX	-13.2358
[0][1]_._	-13.2359
▁note	-13.2372
nincremen	-13.2388
pntr	-13.2393
▁::	-13.2411
0000000000000005	-13.2413
▁TR	-13.2414
▁tempc	-13.2416
▁multipl	-13.2418
▁Da	-13.2429
*8	-13.243
npro	-13.2442
1[3]	-13.2444
▁stars	-13.245
▁minit	-13.2462
10(	-13.2473
▁great	-13.2478
Mod	-13.2484
▁"1/1	-13.2485
...	-13.2486
Po	-13.2487
▁sumend	-13.2489
▁declar	-13.2492
mum	-13.2493
hash	-13.2494
-100	-13.2497
>9	-13.2499
text	-13.2506
--------------+"	-13.2508
trig	-13.251
ca	-13.2511
▁passenger	-13.2527
Word	-13.2533
▁cnew	-13.254
reading	-13.2542
levator	-13.2549
ation	-13.255
▁takeoff	-13.2557
borderPoints	-13.2557
Diamond	-13.2557
terkecil	-13.2557
▁getPr	-13.2557
▁vertical	-13.2557
participantes	-13.2557
▁FindParrent	-13.2557
▁aTypes	-13.2557
▁binaryChar	-13.2557
▁curWorst	-13.2557
▁differentSocks	-13.2557
▁minCoinValue	-13.2557
▁totalChocolate	-13.2557
▁upward	-13.2557
erfect	-13.2557
▁SumOf	-13.2557
▁aPrices	-13.2557
▁arrOccur	-13.2557
▁calculati	-13.2557
▁extreme	-13.2557
▁fatias	-13.2557
▁floorToGo	-13.2557
▁hishab	-13.2557
▁identical	-13.2557
▁importance	-13.2557
▁isVisited	-13.2557
▁maxVolume	-13.2557
▁militros	-13.2557
▁nEven	-13.2557
▁noOfprizes	-13.2557
▁tabuleiro	-13.2557
▁theyareworking	-13.2557
▁tranSize	-13.2557
▁triangulo	-13.2557
▁diameter	-13.2557
▁maurm	-13.2557
▁schedule	-13.2557
▁collumn	-13.2557
▁originalsquare	-13.2557
▁somaPrim	-13.2557
ndollar	-13.2557
▁ftpass	-13.2557
▁revStr	-13.2557
▁orgStr	-13.2557
domino	-13.2557
▁chrisCounter	-13.2557
▁mishkaCounter	-13.2557
▁takeoffMin	-13.2557
nassert	-13.2557
▁nrsel	-13.2557
▁"1111111"	-13.2557
▁numOfteams	-13.2557
▁totCc	-13.2557
▁again	-13.2557
▁waysCount	-13.2557
▁contCh	-13.2557
▁remnut	-13.2557
▁Rick	-13.2557
▁nsticks	-13.2557
▁plNumber	-13.2557
▁baack	-13.2557
▁"0000000"	-13.2557
▁falta	-13.2557
reversedNumber	-13.2557
plica	-13.2558
▁mitad	-13.2558
▁maxsuff	-13.2558
▁saltos	-13.2558
▁mainvector	-13.2558
▁sumador	-13.2558
Player	-13.2558
▁armor	-13.2558
▁boostIO	-13.2558
▁Amaze	-13.2558
▁jiati	-13.2558
▁tiempo	-13.2558
▁adivb	-13.2558
>1000000	-13.2558
▁contBi	-13.2559
Statement	-13.2559
▁inclusve	-13.2559
[1005]	-13.256
▁isOne	-13.2561
▁bdiva	-13.2562
▁urm	-13.2562
▁maior	-13.2562
▁room	-13.2562
▁prefixed	-13.2562
▁yeet	-13.2563
▁300005	-13.2563
▁seconddata	-13.2563
▁sizebul	-13.2563
▁lastSum	-13.2563
odgr	-13.2564
▁colums	-13.2565
nRea	-13.2565
▁1.5	-13.2565
▁avai	-13.2565
▁ciel	-13.2565
▁30005	-13.2565
▁damm	-13.2565
[100005]	-13.2566
▁shoes	-13.2566
▁firstSum	-13.2568
▁firstdata	-13.257
▁secretary	-13.2571
▁movesB	-13.2571
+'	-13.2571
▁maxValue	-13.2572
▁oCount	-13.2572
▁contE	-13.2573
▁DE	-13.2574
shelb	-13.2574
dama	-13.2574
▁"?	-13.2576
▁Result	-13.2578
▁transform	-13.2579
▁Long	-13.2581
▁gifts	-13.2581
▁boss	-13.2582
▁esto	-13.2586
Lower	-13.2586
▁fpb	-13.2586
▁denominador	-13.2586
▁secretaryNum	-13.2587
▁secnumbs	-13.2587
▁draw	-13.2587
▁lowar	-13.2587
▁studentTS	-13.2589
▁somaPoli	-13.2589
▁chrColor	-13.2589
▁perRowColor	-13.259
▁except	-13.2591
▁0.001	-13.2591
▁numerador	-13.2593
▁fastio	-13.2593
▁maohao	-13.2593
▁lastValid	-13.2593
▁bohlam	-13.2593
▁javab	-13.2593
▁Data	-13.2593
▁passou	-13.2594
▁lane	-13.2594
▁wincandidate	-13.2594
▁chores	-13.2597
▁/10	-13.2597
▁qiu	-13.2597
▁plans	-13.2597
▁reqNo	-13.2598
▁nslice	-13.2598
▁hred	-13.26
▁proc	-13.2601
▁qwe	-13.2604
▁absent	-13.2604
▁yiti	-13.2604
▁maxWord	-13.2606
▁200007	-13.2606
▁nomer	-13.2607
▁'_._0	-13.2607
▁-201	-13.2608
▁menorB	-13.2608
ex	-13.2611
▁ts	-13.2614
▁uper	-13.2614
808	-13.2614
▁flush	-13.2615
▁hpy	-13.2616
▁casos	-13.2616
▁Sub	-13.2618
▁infile	-13.262
nsign	-13.262
nLet	-13.2623
▁equ	-13.2623
▁suit	-13.2625
]>=	-13.2625
▁LC	-13.2626
▁RC	-13.2626
berOfRestaurants	-13.2626
▁compute	-13.2626
▁kiri	-13.2628
nMove	-13.2629
▁util	-13.263
▁mayu	-13.2632
48)	-13.2632
[100001]	-13.2634
▁maximo	-13.2642
/11	-13.2643
▁gu	-13.2645
▁SIZE	-13.2646
▁mean	-13.2646
▁firstPointer	-13.2647
-2*	-13.2649
Commo	-13.2653
reopen	-13.2657
▁From	-13.2658
▁MAXLL	-13.266
▁songs	-13.2661
▁dCount	-13.2661
="0"	-13.2662
▁indexG	-13.2663
▁blocks	-13.2666
▁drinks	-13.2668
▁maxdiff	-13.2672
▁Ex	-13.2677
▁10000006	-13.2683
17	-13.2688
▁alp	-13.2689
▁lastpos	-13.2694
▁4*(	-13.2697
▁backwards	-13.2697
▁rowCount	-13.2698
▁hpm	-13.2699
▁Green	-13.27
▁pascal	-13.2701
▁wak	-13.2704
▁occurrences	-13.2705
▁poz	-13.2706
▁indexT	-13.2707
▁rm	-13.2715
fix	-13.2716
▁digitn	-13.2725
▁NP	-13.2729
▁acef	-13.2729
▁free	-13.273
▁7))	-13.2731
▁minor	-13.2743
PE	-13.2746
axDominoesNumber	-13.2748
46	-13.275
endl	-13.2755
[11]	-13.2755
▁curInd	-13.2755
dia	-13.2758
%10]	-13.2759
*4	-13.2759
]-'0'))	-13.2763
▁maxlevel	-13.2772
▁token	-13.2778
▁removed	-13.2791
vie	-13.2791
▁faktori	-13.2792
▁(1.0	-13.2801
▁istringstream	-13.2802
▁lineTime	-13.2808
▁(__	-13.2812
mmin	-13.2821
▁who	-13.2822
▁BR	-13.2822
▁yt	-13.2828
▁crest	-13.2834
▁Add	-13.2837
▁lenp	-13.2838
▁1000000005	-13.2839
ir	-13.2841
▁pu	-13.2855
*2+1	-13.2856
nhasil	-13.2861
-------------+"	-13.2865
▁Finite	-13.2866
▁eid	-13.2869
▁cntone	-13.2884
IT	-13.2891
▁stay	-13.2897
crease	-13.2898
▁fp	-13.29
3_2	-13.2904
▁1500000	-13.2905
wise	-13.2905
Loop	-13.2906
[5][2]	-13.2906
▁Red	-13.2917
▁rtn	-13.2922
▁TOWARDS	-13.2922
▁remainings	-13.2926
hile	-13.2931
▁exclusi	-13.294
▁gas	-13.2943
▁ycost	-13.2943
▁1000004	-13.2949
▁minim	-13.295
▁uts	-13.2951
▁subs	-13.2961
▁akt	-13.2969
111	-13.2974
▁ansm	-13.2975
▁wong	-13.2986
=7	-13.3009
-2)*	-13.3011
▁Ch	-13.3019
go	-13.3022
▁lista	-13.3031
▁{3	-13.3031
654	-13.3033
+2)	-13.3033
▁pres	-13.3035
=1000000	-13.304
maxsub	-13.3045
nresta	-13.3045
nce	-13.305
Trol	-13.3058
(4_._	-13.3058
▁occur	-13.3059
teen	-13.3067
▁((((	-13.3085
▁Total	-13.3091
[0]+	-13.3105
eek	-13.311
▁ssum	-13.3136
▁1][2])	-13.3142
▁curans	-13.3144
arrent	-13.3147
▁sumd	-13.3152
▁auxl	-13.3154
▁115	-13.316
ame	-13.3161
calc	-13.3161
▁cmin	-13.3169
▁ifprime	-13.317
eraseN	-13.3175
▁2000010	-13.3186
▁Bu	-13.3196
▁mbs	-13.3197
▁xd	-13.3201
nmaxm	-13.3206
▁ju	-13.3226
nline	-13.3231
nsir	-13.324
▁rh	-13.3242
▁{{	-13.3271
=8	-13.3273
▁cry	-13.328
ffers	-13.3283
▁rts	-13.3293
=1000000000	-13.3298
▁1002	-13.3301
ive	-13.3306
[100]_._	-13.3327
+6	-13.333
▁(1+	-13.3335
▁mpow	-13.3336
cin	-13.3341
nerr	-13.3359
▁nut	-13.3365
7(	-13.3391
▁ft	-13.3392
(4)	-13.3402
[2][1]=	-13.3403
[1].	-13.3403
lg	-13.3407
nmult	-13.3413
▁ttem	-13.3435
snake	-13.346
nposx	-13.3466
▁yyy	-13.347
}_._	-13.3484
=10000	-13.3488
aku	-13.3491
35	-13.3494
▁amt	-13.3508
▁nCount	-13.3511
▁118	-13.3518
▁"("	-13.3522
nmaks	-13.3534
▁Ay	-13.3535
nbrr	-13.3543
logal	-13.3543
--------------+	-13.3545
▁tempstr	-13.3566
limits	-13.3571
[-1]	-13.3571
▁.)	-13.3587
MAXX	-13.359
▁rstr	-13.3592
▁defined	-13.3593
=15	-13.3593
naa	-13.3599
------------+"	-13.3613
1_2	-13.3617
▁Am	-13.3623
▁kmax	-13.3647
ding	-13.3649
[1]=	-13.3653
▁minib	-13.3654
▁newX	-13.3664
ncrea	-13.3688
4]	-13.37
.........|"	-13.3718
ort	-13.3721
pe	-13.3724
ted	-13.3748
▁minb	-13.375
ev	-13.3768
needed	-13.3776
nbl	-13.3786
nincrea	-13.3822
▁ivec	-13.3827
▁spow	-13.3828
▁(0	-13.3833
ute	-13.3856
▁lenth	-13.3865
isInn	-13.3874
npoints	-13.3877
sy	-13.3878
nindx	-13.3882
▁ky	-13.389
▁dataa	-13.3905
niter	-13.3912
ncent	-13.3933
nyy	-13.3948
[2*	-13.3949
▁maxer	-13.395
maks	-13.3954
▁Rb	-13.3955
4[	-13.3961
ncap	-13.3975
elv	-13.398
▁Icosahedron	-13.3982
appear	-13.3982
nmap	-13.3993
1="	-13.3998
cmp	-13.4035
▁anstemp	-13.4044
▁{{0	-13.405
emb	-13.4054
[1][0]_._	-13.4068
ttwo	-13.4077
nhh	-13.4085
nMAXN	-13.4102
nope	-13.4103
▁fq	-13.4108
▁lastm	-13.412
▁har	-13.4123
2=1	-13.4128
nid	-13.4128
'))	-13.4129
ngets	-13.4136
▁today	-13.4152
ust	-13.4156
▁winc	-13.4157
▁lf	-13.4159
ndep	-13.4176
son	-13.4188
ww	-13.419
gui	-13.419
▁six	-13.4224
0000	-13.4224
seed	-13.4226
▁dead	-13.4227
+10	-13.4251
▁dam	-13.4256
▁bnew	-13.4258
▁fS	-13.428
0+	-13.4286
▁bi	-13.4291
▁temps	-13.4294
lare	-13.4307
cp	-13.4309
Ma	-13.4325
▁chara	-13.4332
▁12_._	-13.4334
wo	-13.4354
▁tick	-13.4357
(((	-13.436
)+	-13.4368
pl	-13.4376
▁2001_._	-13.4381
28_._	-13.4407
▁1003	-13.4415
▁alphabetic	-13.4423
answ	-13.4447
maxindex	-13.4451
bytes	-13.4457
lag	-13.4458
000000000000000	-13.4462
▁ri	-13.4472
clusive	-13.4473
▁nod	-13.4477
▁sir	-13.4484
lasttime	-13.4506
_5	-13.4531
rate	-13.4533
5)	-13.4536
ract	-13.4552
9)	-13.4555
]/	-13.4563
▁qs	-13.4571
-------------+	-13.4579
ptr	-13.4584
▁|#.	-13.4609
<=9	-13.4644
ncreat	-13.4661
▁es	-13.4678
aly	-13.4701
▁cnta	-13.4702
#.#.#.#.#.|.|)"	-13.4704
/2-1	-13.471
keep	-13.4712
ntim	-13.4724
-3	-13.4726
[1]=1	-13.4732
ndic	-13.4744
[1]+	-13.475
candidate	-13.4755
each	-13.4756
trunc	-13.4766
Dist	-13.4768
coins	-13.4773
▁2][	-13.4778
alphabet	-13.4785
'8'	-13.4789
rIdx	-13.4808
curInd	-13.4808
quotient	-13.4809
maxsalary	-13.4812
mask	-13.4813
workTime	-13.4813
vasya	-13.4813
zlicz	-13.4815
twoPow	-13.4817
)-(	-13.4819
ANS	-13.482
modexp	-13.4821
▁"|.|	-13.4825
load	-13.4825
damage	-13.4825
contiguous	-13.4826
angle	-13.4827
remainings	-13.4828
weight	-13.483
'>'	-13.4831
myset	-13.4831
indice	-13.4832
CUR	-13.4832
ite	-13.4834
▁sumw	-13.484
50000	-13.4841
acef	-13.4843
toupper	-13.4846
buff	-13.4852
Start	-13.4852
27	-13.4854
piso	-13.4872
egers	-13.4873
▁permut	-13.4875
_._./	-13.4878
)'	-13.4881
(3-	-13.4886
[5][5]	-13.4894
?	-13.4894
10000000[	-13.4903
-1]<	-13.4906
'6'	-13.4924
nminx	-13.4931
Add	-13.4933
▁"|.|)	-13.4935
ntam	-13.4938
=10^9	-13.4946
▁202	-13.4951
spf	-13.4952
7)	-13.4981
nvector	-13.4982
06	-13.4996
▁LL	-13.5
▁mar	-13.5013
00:00	-13.5015
Primes	-13.5019
▁button	-13.5024
▁towel	-13.5028
▁gift	-13.5032
state	-13.5036
▁111111	-13.5039
nbase	-13.5041
▁109	-13.5041
▁palindrom	-13.5041
▁absolu	-13.5043
game	-13.5045
00006	-13.5047
▁100.0	-13.5048
▁exclu	-13.5051
sible	-13.5051
nominator	-13.5052
ockets	-13.5057
CHAMPAGNE	-13.5057
BBBBBBB	-13.5057
BEER	-13.5057
BRANDY	-13.5057
RGBYW	-13.5057
SAKE	-13.5057
TEQUILA	-13.5057
VODKA	-13.5057
WHISKEY	-13.5057
WINE	-13.5057
▁IsMinor	-13.5057
▁custom	-13.5057
▁leavekid	-13.5057
▁pertama	-13.5057
▁vashya	-13.5057
▁~	-13.5057
NumberOfContests	-13.5057
discountQuantity	-13.5057
vaporeon	-13.5057
▁NumOfFree	-13.5057
▁allAreSame	-13.5057
▁banyakapel	-13.5057
▁chegou	-13.5057
▁collect	-13.5057
▁lenguas	-13.5057
▁repeticiones	-13.5057
▁sentence	-13.5057
▁supercentral	-13.5057
▁tabeSize	-13.5057
▁wordVolume	-13.5057
ABSINTH	-13.5057
AllFirendsOfMili	-13.5057
NumberOfStations	-13.5057
TheOtherDestance	-13.5057
norgStr	-13.5057
sections	-13.5057
uniqueCharacters	-13.5057
▁CountOfMoney	-13.5057
▁IleMeczy	-13.5057
▁IsMajor	-13.5057
▁MODINVERSE	-13.5057
▁Potega	-13.5057
▁Solution	-13.5057
▁akmal	-13.5057
▁amulets	-13.5057
▁antisimon	-13.5057
▁aumento	-13.5057
▁banyakpear	-13.5057
▁bestVotes	-13.5057
▁binarycoding	-13.5057
▁cardOnTable	-13.5057
▁casiresp	-13.5057
▁cntNotFastened	-13.5057
▁crearCriba	-13.5057
▁euqal	-13.5057
▁extrema	-13.5057
▁goRest	-13.5057
▁hutch	-13.5057
▁lexicographic	-13.5057
▁modInverse	-13.5057
▁noOfStudents	-13.5057
▁numOfInfo	-13.5057
▁numPeople	-13.5057
▁object	-13.5057
▁originalState	-13.5057
▁punkty	-13.5057
▁quitarZeros	-13.5057
▁rowFull	-13.5057
▁selisih	-13.5057
▁source	-13.5057
▁strunity	-13.5057
▁thomasT	-13.5057
▁timeOfEnding	-13.5057
▁ultsel	-13.5057
▁warOpen	-13.5057
▁xaydung	-13.5057
▁arreglo	-13.5057
▁gender	-13.5057
▁isNoldPrime	-13.5057
▁noldbach	-13.5057
▁nowsafe	-13.5057
▁setTree	-13.5057
▁totAll	-13.5057
▁Morty	-13.5057
▁binaryResult	-13.5057
▁incoming	-13.5057
▁kedua	-13.5057
▁myCards	-13.5057
▁shuwei	-13.5057
▁sCopy	-13.5057
▁300300	-13.5057
▁Toats	-13.5057
▁cilik	-13.5057
▁flights	-13.5057
▁sumNeg	-13.5057
▁whitespace	-13.5057
▁comeco	-13.5057
▁islegal	-13.5057
▁medalboard	-13.5057
▁deleta	-13.5057
▁minSal	-13.5057
▁termination	-13.5057
▁mejor	-13.5057
▁salary	-13.5057
espeon	-13.5057
▁nInputs	-13.5057
▁maxSol	-13.5057
▁playerState	-13.5057
▁maxgas	-13.5057
▁shuzi	-13.5057
▁patok	-13.5057
▁cupboard	-13.5057
▁likeNum	-13.5057
▁rexxx	-13.5057
▁peeps	-13.5057
▁"..|	-13.5057
mergeSort	-13.5057
▁otherday	-13.5057
▁dollar	-13.5057
▁contBa	-13.5057
▁easy	-13.5057
▁damageY	-13.5057
▁floorNum	-13.5057
▁under	-13.5058
▁filter	-13.5058
▁simulate	-13.5058
reflection	-13.5058
['<']	-13.5058
▁deflt	-13.5058
▁usedLen	-13.5058
wasOut	-13.5058
▁tmaxmin	-13.5058
digitos	-13.5058
▁gede	-13.5059
▁functi	-13.5059
*60+	-13.5059
▁1000000007)*(	-13.5059
▁answerFound	-13.5059
▁section	-13.5059
▁remdiv	-13.5059
▁2048	-13.5059
nsection	-13.5059
▁mySum	-13.5059
▁xiao	-13.5059
▁writing	-13.5059
▁putprime	-13.506
▁mxcommon	-13.506
vertex	-13.506
▁forever	-13.506
▁knight	-13.506
+100]	-13.506
▁Mark	-13.506
▁HE	-13.5061
▁assert	-13.5061
▁prezero	-13.5061
▁27000	-13.5061
+2)*(	-13.5062
Remove	-13.5062
▁newvictim	-13.5062
+1)/2)-	-13.5062
▁resolver	-13.5062
("")	-13.5062
▁revert	-13.5063
replacement	-13.5064
▁elevator	-13.5064
▁tipo	-13.5065
GIN	-13.5065
▁minLimon	-13.5066
▁tsocial	-13.5066
▁satuan	-13.5067
ninp	-13.5067
▁sumclock	-13.5067
▁grau	-13.5067
etya	-13.5068
=998244353	-13.5069
RUM	-13.5069
▁pearl	-13.507
▁afterP	-13.507
▁stairs	-13.5071
▁employees	-13.5071
▁Try	-13.5072
▁evenCount	-13.5072
minTemp	-13.5073
▁spare	-13.5073
File	-13.5074
[19]	-13.5074
>::	-13.5074
▁goback	-13.5075
▁tuu	-13.5076
▁excl	-13.5076
nY	-13.5078
▁newPerson	-13.5079
---------------	-13.5081
▁tgd	-13.5082
maxTemp	-13.5083
MP	-13.5083
▁"25"	-13.5083
▁contV	-13.5086
▁tempSame	-13.5086
▁prer	-13.5087
▁ucont	-13.5087
▁VI	-13.5087
▁foll	-13.509
▁realR	-13.509
▁massiv	-13.5091
▁"00:00"	-13.5091
▁streak	-13.5091
▁jvb	-13.5092
▁447	-13.5092
▁such	-13.5093
▁10000005	-13.5094
amic	-13.5094
▁refused	-13.5095
▁closest	-13.5095
22	-13.5095
▁divUp	-13.5096
axSub	-13.5096
▁isTwo	-13.5096
▁self	-13.5097
▁complexity	-13.5098
▁-9999999	-13.5098
▁Nig	-13.5098
▁raices	-13.5099
▁particpant	-13.5099
▁444	-13.51
▁women	-13.51
▁"00"	-13.5101
illion	-13.5103
▁numhours	-13.5103
▁cOdd	-13.5103
▁"8<"	-13.5103
▁watched	-13.5103
▁mierda	-13.5103
▁basura	-13.5103
▁Pedy	-13.5103
▁bvoric	-13.5103
▁bhoric	-13.5103
▁outdeg	-13.5103
▁minbitcoins	-13.5104
▁visitado	-13.5104
▁[101][101]	-13.5104
▁secondPointer	-13.5104
▁qoutplayers	-13.5104
▁jokes	-13.5105
(2.0	-13.5105
▁MaxNum	-13.5106
bc	-13.5109
▁water	-13.5109
▁86400-	-13.5109
('-')	-13.511
▁qplayers	-13.5111
▁Vcost	-13.5112
▁-10000	-13.5112
▁some	-13.5112
▁clm	-13.5113
[1][0]][1]	-13.5113
▁Run	-13.5114
▁minsq	-13.5114
▁477	-13.5115
▁100.0)	-13.5115
nbottom	-13.5117
▁deck	-13.5118
▁flase	-13.5118
▁Bwin	-13.512
▁4005	-13.5121
▁hcf	-13.5124
▁SZ	-13.5124
▁Day	-13.5125
+2*	-13.5128
bic	-13.5129
▁parse	-13.513
▁contM	-13.5131
▁Mcost	-13.5131
values	-13.5132
[1][1]][1]	-13.5134
▁"..............	-13.5134
ceed	-13.5135
▁hours	-13.5136
▁ultimate	-13.5138
nnewdp	-13.5142
npairt	-13.5144
▁feets	-13.5145
uda	-13.5145
▁jud	-13.5146
▁port	-13.5147
▁indeg	-13.5149
26	-13.515
nlevels	-13.5152
ssign	-13.5153
primeFactors	-13.5155
▁toPurchase	-13.5159
▁tambah	-13.5159
▁474	-13.516
▁cheapest	-13.5161
▁20000000	-13.5161
▁combSort	-13.5161
▁bitcount	-13.5162
▁clr	-13.5162
▁bulb	-13.5163
▁bord	-13.5163
▁gbs	-13.5164
AG	-13.5164
ju	-13.5165
▁limes	-13.5165
000000	-13.5167
▁sideMoves	-13.5167
agi	-13.5168
▁trans	-13.5168
▁abajo	-13.5168
▁difB	-13.5168
▁maxJoy	-13.5172
▁jawab	-13.5173
▁MID	-13.5173
nQ	-13.5173
▁dari	-13.5178
▁maxid	-13.5184
▁zcost	-13.5187
Am	-13.519
▁onerun	-13.5193
[2][0]_._	-13.52
▁diry	-13.52
▁rgraph	-13.5205
leftnum	-13.5207
▁Minv	-13.5207
▁aws	-13.5208
▁mot	-13.5208
▁Tot	-13.5208
▁difA	-13.5211
olute	-13.5215
lowing	-13.5216
▁maxba	-13.5221
▁beginu	-13.5228
▁fasum	-13.5233
ther	-13.5238
▁"|.|)"	-13.5241
▁modpow	-13.5244
▁lastSoldier	-13.5246
16_._	-13.5247
▁12)	-13.5247
▁maskY	-13.5249
▁saved	-13.5254
100005	-13.5254
▁acumx	-13.5255
▁lsh	-13.5256
▁sho	-13.5256
▁increme	-13.5257
▁"|.|"	-13.526
▁likes	-13.5266
▁mapa	-13.5267
▁dish	-13.5268
▁couting	-13.5268
tab	-13.5269
▁[3][3]	-13.5269
▁weights	-13.5271
▁twoPow	-13.5272
▁rcont	-13.5276
▁getans	-13.5276
▁unite	-13.5277
1=0_._	-13.5278
▁1023	-13.5282
tations	-13.5283
▁qsort	-13.5283
em	-13.5287
▁mndist	-13.5288
▁Call	-13.5292
▁cntup	-13.5293
highid	-13.5293
ision	-13.5294
▁damage	-13.5294
▁newsquare	-13.5296
nbuf	-13.5297
60	-13.5298
▁heros	-13.5298
▁pasa	-13.5302
nhome	-13.5307
▁dz	-13.5307
▁BS	-13.5308
=-	-13.5309
3.0	-13.5311
▁jw	-13.5313
▁rIdx	-13.5316
▁dirx	-13.5319
▁bro	-13.532
▁months	-13.5322
▁isHome	-13.5325
ntegers	-13.5328
1000000000000000	-13.5331
▁prims	-13.5332
star	-13.5339
▁1000000002	-13.5343
-15	-13.5349
▁nowR	-13.5356
▁vow	-13.5359
][2])	-13.5369
▁bestb	-13.5371
▁tuple	-13.5374
▁totd	-13.5374
▁secs	-13.5378
▁maxWin	-13.5379
blem	-13.5381
+0	-13.5381
ncou	-13.5382
▁inverse	-13.5382
▁vote	-13.5385
npart	-13.5387
For	-13.539
▁dishes	-13.5391
hit	-13.5396
▁letra	-13.5398
ncurAns	-13.5402
[6	-13.5413
▁bxb	-13.5417
ES	-13.5417
fg	-13.5423
▁decimals	-13.5435
▁union	-13.5436
▁minsum	-13.5441
cei	-13.5444
▁turned	-13.545
-----------+"	-13.5451
maxgcd	-13.5457
▁countersum	-13.5462
▁msh	-13.5474
▁tbd	-13.5474
nqq	-13.5481
nmmax	-13.5488
▁frnd	-13.5494
]%2	-13.55
▁dots	-13.55
▁mintime	-13.5506
))/	-13.551
▁rez	-13.5516
ric	-13.5518
▁1<<	-13.552
parat	-13.5524
nsigned	-13.5524
▁1000002	-13.5525
▁suc	-13.5526
▁halfs	-13.5529
▁tomas	-13.5531
nsor	-13.5535
nsumb	-13.5535
[3][1]	-13.5538
▁glaceon	-13.5539
▁jolteon	-13.554
▁ltemp	-13.554
nfuel	-13.554
lang	-13.5542
▁sig	-13.5545
nfun	-13.5562
▁ee	-13.5562
-4	-13.5563
rows	-13.5565
▁trunc	-13.5568
[3]+1	-13.5572
▁(3*	-13.558
▁countI	-13.559
][1][1]	-13.5591
▁Maxm	-13.56
nya	-13.5609
▁Win	-13.5613
▁umbreon	-13.5613
ible	-13.5614
▁lik	-13.5614
▁sylveon	-13.5616
▁flareon	-13.5617
▁mis	-13.5634
ark	-13.5645
▁-1000000007	-13.5653
rom	-13.5668
▁106	-13.5686
▁firstw	-13.5686
▁floors	-13.5687
▁fang	-13.5689
▁ctf	-13.5695
nletter	-13.5702
▁107	-13.5702
▁2000001	-13.5706
▁isP	-13.5708
▁mmc	-13.5711
ncycle	-13.5716
▁recursi	-13.5719
neg	-13.5735
razn	-13.5762
lum	-13.5764
-1]-1	-13.5788
][0][0]	-13.5791
nparent	-13.5794
▁lastans	-13.5805
▁ignore	-13.5808
10^18	-13.5809
▁countT	-13.5827
<='	-13.5832
Oven	-13.5834
▁Fa	-13.5838
▁26-	-13.5838
[5][	-13.5857
14	-13.5868
68	-13.5874
nDo	-13.5886
▁{'	-13.5893
nD	-13.5906
▁cty	-13.5909
(8*	-13.5919
]=0_._	-13.5921
ka	-13.5922
FL	-13.5924
bi	-13.5932
[7-	-13.5937
▁Sr	-13.5939
ead	-13.5943
▁forth	-13.5949
nCounter	-13.5949
▁won	-13.5954
▁2}]	-13.5958
▁our	-13.596
ction	-13.5968
ched	-13.599
▁46	-13.5993
▁44	-13.5995
#.#.#.#.#.|	-13.5997
▁halfplus	-13.5997
▁100))	-13.6006
▁sumtime	-13.6012
ew	-13.6014
▁cpt	-13.6015
neven	-13.6016
.............	-13.6021
▁prv	-13.6029
ntop	-13.6031
▁dW	-13.6031
▁when	-13.6039
▁inte	-13.6045
▁mmm	-13.6047
▁dip	-13.6051
nnxt	-13.6067
nsp	-13.607
▁uni	-13.6076
[0]=0	-13.6092
▁0.01	-13.6095
▁1][3]	-13.6096
ngrid	-13.6097
▁maxpos	-13.6101
▁nb	-13.6101
------------+	-13.611
noo	-13.6134
ecrement	-13.6145
-1][2]	-13.6151
remainder	-13.6161
[10]_._	-13.6174
▁newY	-13.6179
Divisor	-13.6181
pts	-13.6186
nca	-13.619
match	-13.6193
▁com	-13.6195
][1][0]	-13.621
▁tota	-13.6212
nLim	-13.6216
0000000000000000	-13.6226
▁ratio	-13.6232
▁(1)_._	-13.6237
▁1)][	-13.6242
<3	-13.6255
tag	-13.6263
bit	-13.6264
tion	-13.6267
chrish	-13.6276
Dm	-13.6277
▁sal	-13.6277
any	-13.6284
16	-13.6284
judge	-13.6298
lem	-13.6299
[7	-13.63
▁bst	-13.6307
▁Li	-13.6312
▁minj	-13.6317
▁99)	-13.6321
'0')	-13.634
used	-13.634
__	-13.6368
▁minas	-13.6371
tplayers	-13.6386
▁10000001	-13.6391
▁Do	-13.6392
_7	-13.6393
▁wnr	-13.6412
▁minD	-13.642
4=0	-13.6455
inputArr	-13.6477
▁getR	-13.6478
compar	-13.6481
▁lengths	-13.6499
▁gotVal	-13.6533
Palindrom	-13.6535
▁statements	-13.6537
▁clen	-13.6538
▁mys	-13.6539
nmatch	-13.6552
▁rv	-13.6558
5002	-13.6558
nnumbers	-13.6561
((3*	-13.6564
ava	-13.6567
sig	-13.658
store	-13.6598
+9	-13.6602
1=(	-13.6609
▁30000	-13.6619
1"	-13.6621
nansw	-13.6627
▁bag	-13.6653
cosi	-13.6674
][0][1]	-13.6675
nam	-13.6676
nfin	-13.6692
▁printC	-13.6693
▁scorea	-13.6697
tim	-13.6711
▁flags	-13.6728
▁aexc	-13.6734
grid	-13.6752
nchest	-13.6752
sta	-13.6752
▁ost	-13.6753
▁inpp	-13.6753
5*	-13.6791
999	-13.6793
*7	-13.68
▁sumC	-13.6802
31	-13.6835
▁xie	-13.6837
nclo	-13.6845
▁aY	-13.6847
(26	-13.6849
▁WI	-13.6851
nbr	-13.6853
220	-13.6857
0=	-13.6859
nmas	-13.686
+1-	-13.686
▁30001	-13.6875
▁6-	-13.6891
nretur	-13.6891
▁fB	-13.6895
acu	-13.6899
able	-13.6906
▁incre	-13.6912
▁fcount	-13.6916
AT	-13.6935
▁aX	-13.6951
▁concatenat	-13.6953
▁jia	-13.6963
▁sumM	-13.6978
▁pans	-13.6997
▁pmin	-13.6998
▁say	-13.6998
3*	-13.7007
▁pct	-13.7011
has	-13.7012
shu	-13.7018
mymap	-13.7025
▁pred	-13.7036
▁ansB	-13.7064
▁maxj	-13.7074
cols	-13.7086
>=2	-13.7109
Counter	-13.7123
dfs	-13.7131
▁minix	-13.7146
parent	-13.7156
rut	-13.7168
▁91	-13.7175
▁cb	-13.7179
55	-13.718
final	-13.7188
light	-13.7188
maxsum	-13.7189
▁trow	-13.719
oc	-13.7192
8,	-13.7222
▁df	-13.7224
)+1	-13.7236
▁uc	-13.7244
▁sai	-13.726
ou	-13.7265
▁cor	-13.7267
▁wo	-13.7267
page	-13.7271
hor	-13.7273
":"_._	-13.7282
variable	-13.7311
doi	-13.7319
05	-13.732
nmultipl	-13.7321
▁getDi	-13.734
Odd	-13.7341
sheets	-13.7345
▁cA	-13.7345
Per	-13.736
100_._	-13.7362
▁cB	-13.74
fail	-13.7402
nte	-13.7406
2337203685477580	-13.7412
rec	-13.7421
per	-13.7433
dc	-13.7435
maxN	-13.7449
03	-13.7455
▁functio	-13.7456
tter	-13.7467
▁lar	-13.7469
▁totalc	-13.7475
tu	-13.7495
plen	-13.751
/1	-13.7511
▁boole	-13.7528
▁countr	-13.7532
down	-13.7535
nresp	-13.7537
[12]	-13.7539
']/2	-13.7559
#.#.#.#.#.#.|	-13.757
▁numof	-13.7578
▁"0000	-13.7581
)10	-13.7582
];	-13.7586
fi	-13.7621
larg	-13.7636
aul	-13.7642
lca	-13.766
zeros	-13.7678
[0][2])	-13.7692
7,	-13.7697
▁"92	-13.7699
▁"")	-13.771
2)*(	-13.7763
])))	-13.7774
started	-13.7789
cmin	-13.7799
tw	-13.7806
▁1222	-13.7809
sup	-13.783
▁Is	-13.7847
----------+"	-13.7849
▁SieveOfErat	-13.785
]-1)	-13.7854
odo	-13.7857
important	-13.7858
▁10.0	-13.7878
▁cos	-13.7882
sper	-13.7895
▁-_._(	-13.7899
nmina	-13.7905
diag	-13.7911
combs	-13.7932
0.0	-13.7936
(*	-13.794
#.#.#.#.#.#.#.#.	-13.7943
▁white	-13.7953
nmy	-13.7959
▁wap	-13.7961
imum	-13.7965
ubtract	-13.7978
265358979323846	-13.7984
-1]/	-13.7999
▁99999999999999	-13.8013
%4	-13.8022
▁hmn	-13.8028
10000000	-13.8029
▁replace	-13.8031
▁itm	-13.8043
▁pc	-13.8057
floor	-13.8061
▁valu	-13.8065
cmax	-13.8066
▁ut	-13.8066
fathercnt	-13.8078
▁xa	-13.8079
1000000009	-13.8082
1001	-13.8091
[1][1]]	-13.8094
#.#.#.#.|.|)"	-13.8094
Waste	-13.8098
minsteps	-13.8106
▁cX	-13.8108
[10001]	-13.811
▁(*	-13.8111
priority	-13.8113
poly	-13.8114
▁INFL	-13.8117
heets	-13.8118
exist	-13.8121
beforeP	-13.8123
.141592653589793	-13.8124
medal	-13.8126
▁rit	-13.8127
currentJoy	-13.8127
numOps	-13.8127
perm	-13.8132
Bulbasaur	-13.8133
lastSoldier	-13.8133
maskY	-13.8136
tolower	-13.8137
LCM	-13.8139
pascal	-13.8139
▁sk	-13.814
Green	-13.814
QAQ	-13.814
amounts	-13.814
mishka	-13.8141
candies	-13.8141
minIncl	-13.8142
tree	-13.8142
carry	-13.8143
Yellow	-13.8143
locg	-13.815
cumm	-13.8151
IN	-13.8152
free	-13.8153
cities	-13.8155
enemy	-13.8155
rowCount	-13.8158
▁Check	-13.8159
nada	-13.8159
Blue	-13.816
'.'	-13.816
nom	-13.8162
heros	-13.8164
concatenate	-13.8166
"1/6"	-13.8167
▁maxk	-13.8167
13579	-13.8174
medals	-13.8179
exc	-13.8181
-----------+	-13.8183
maxNum	-13.8185
wait	-13.8186
midTime	-13.8192
repeat	-13.8192
▁dB	-13.82
dasha	-13.8205
▁stor	-13.8208
*2-1	-13.8214
101	-13.8217
▁-100000000	-13.8218
towels	-13.8222
686	-13.8228
128	-13.8236
shela	-13.8236
maxlevel	-13.8236
▁10000000000000	-13.8245
▁cnr	-13.8245
hero	-13.8254
nda	-13.8267
▁"3	-13.827
loct	-13.8279
hapes	-13.8291
orted	-13.8295
rx	-13.8297
#.#.#.#.#.|.|"	-13.83
▁10^	-13.8301
bottles	-13.8302
▁"2/3	-13.8305
printC	-13.831
pages	-13.831
▁"5/6	-13.8312
1[0])	-13.8315
▁(999999999	-13.8316
▁"1/6	-13.8316
▁"1/3	-13.8319
rementing	-13.8322
2+1	-13.8323
who	-13.8329
bob	-13.8329
gs	-13.8336
▁"1/2	-13.8339
nike	-13.8354
▁absolut	-13.8355
negativo	-13.8357
▁removeZero	-13.8359
Person	-13.836
▁dash	-13.8361
`	-13.8369
000000)	-13.8371
▁judg	-13.8373
▁rea	-13.8377
Limon	-13.8378
▁-5	-13.8382
npi	-13.8384
12345	-13.8385
cups	-13.8387
nchang	-13.8387
curAns	-13.8387
▁kiek	-13.8388
▁distress	-13.8388
▁boostI	-13.8389
maxval	-13.8389
positivo	-13.839
▁den	-13.839
Small	-13.839
▁alexey	-13.839
StationsDistance	-13.839
costToPay	-13.839
▁passCode	-13.839
validProblems	-13.839
▁chatSec	-13.839
▁downward	-13.839
▁leafName	-13.839
▁changedVotes	-13.839
▁checkDegenerate	-13.839
▁firstLine	-13.839
▁nechot	-13.839
▁segundos	-13.839
▁smjeroviY	-13.839
▁spicifier	-13.839
purchaseQuantity	-13.839
utility	-13.839
▁BestCoupon	-13.839
▁EOF	-13.839
▁FoundCard	-13.839
▁NumOfWords	-13.839
▁availabe	-13.839
▁battle	-13.839
▁bilangan	-13.839
▁boxees	-13.839
▁cEven	-13.839
▁certos	-13.839
▁columnFull	-13.839
▁companies	-13.839
▁floorSqrt	-13.839
▁foobar	-13.839
▁fucntion	-13.839
▁garrafas	-13.839
▁goContest	-13.839
▁haveBigLetter	-13.839
▁hidden	-13.839
▁hoursSpent	-13.839
▁inPutStr	-13.839
▁inclsuive	-13.839
▁instruction	-13.839
▁isLesson	-13.839
▁juntos	-13.839
▁lEven	-13.839
▁lemoes	-13.839
▁mapOfColumn	-13.839
▁mapOfRow	-13.839
▁mayuscula	-13.839
▁murdered	-13.839
▁noOfOranges	-13.839
▁numFour	-13.839
▁numOfGames	-13.839
▁numberOfInputs	-13.839
▁rowsDeleted	-13.839
▁sdVest	-13.839
▁selves	-13.839
▁shouldContinue	-13.839
▁smjeroviX	-13.839
▁tSinOven	-13.839
▁testCases	-13.839
▁timeWalk	-13.839
▁travel	-13.839
▁unsuch	-13.839
▁usadas	-13.839
▁Answers	-13.839
▁MCM	-13.839
▁ambos	-13.839
▁contenido	-13.839
▁myAss	-13.839
▁qplays	-13.839
▁resultadofinal	-13.839
▁Loses	-13.839
▁akhir	-13.839
▁limoes	-13.839
▁maxGive	-13.839
▁CheckStr	-13.839
▁encoded	-13.839
▁firstDay	-13.839
▁special	-13.839
▁tempChar	-13.839
little	-13.839
▁FindString	-13.839
▁TOOG	-13.839
▁exclusvie	-13.839
▁grauCor	-13.839
▁kontol	-13.839
▁plyrs	-13.839
▁whiteAns	-13.839
_7_4	-13.839
▁greeting	-13.839
(2002)	-13.839
goodCell	-13.839
quantity	-13.839
▁37000	-13.839
▁minPockets	-13.839
▁Operation	-13.839
▁destino	-13.839
"144"	-13.839
▁trash	-13.839
▁..|	-13.839
▁"127"	-13.839
▁"555555555"	-13.839
▁alexeyJ	-13.839
▁parza	-13.839
▁"32767"	-13.8391
▁"2147483647"	-13.8391
▁extgcd	-13.8391
▁curAng	-13.8391
▁Guest	-13.8391
▁camino	-13.8391
Distance	-13.8391
▁Target	-13.8391
▁successful	-13.8391
("-1")	-13.8391
▁numberofm	-13.8391
▁yeah	-13.8391
▁bnyak	-13.8391
WandC	-13.8391
handels	-13.8391
▁subStr	-13.8391
▁colour	-13.8391
▁sequentially	-13.8391
▁matrex	-13.8391
▁normalize	-13.8391
▁licz	-13.8391
Mili	-13.8391
▁excluding	-13.8391
▁isStop	-13.8391
▁entire	-13.8391
▁quit	-13.8391
▁"0/1	-13.8391
html	-13.8391
▁Prv	-13.8391
▁stick	-13.8391
numCap	-13.8391
ffic	-13.8391
▁bincode	-13.8391
▁haveNum	-13.8391
operator	-13.8391
▁ouput	-13.8392
▁returnAbs	-13.8392
▁unhack	-13.8392
▁Players	-13.8392
▁Petya	-13.8392
▁Team	-13.8392
kpyto	-13.8392
▁goGym	-13.8392
[1100]	-13.8392
▁minusSum	-13.8392
▁mltotal	-13.8392
▁towhid	-13.8392
nfailed	-13.8392
▁captin	-13.8392
slices	-13.8392
▁minGas	-13.8392
▁zhu	-13.8393
nworks	-13.8393
▁bowl	-13.8393
▁peso	-13.8393
▁upperCount	-13.8393
Exp	-13.8393
▁horiz	-13.8393
▁resultado	-13.8393
▁Cost	-13.8393
smallAns	-13.8393
thissub	-13.8393
▁gear	-13.8393
▁distressed	-13.8393
▁totDist	-13.8393
▁200025	-13.8393
▁2000000009	-13.8393
▁boost	-13.8393
▁1069	-13.8393
ature	-13.8394
posRL	-13.8394
▁lowerCount	-13.8394
▁"14"	-13.8395
▁frap	-13.8395
▁ctMin	-13.8395
▁quo	-13.8395
▁myInt	-13.8395
[1]_._":"_._	-13.8396
lega	-13.8396
=100*	-13.8396
,./	-13.8396
▁borne	-13.8396
▁exCount	-13.8397
▁!!(	-13.8397
▁Last	-13.8398
]-97	-13.8398
(1.5)	-13.8398
[55]	-13.8398
▁vict	-13.8398
▁duck	-13.84
zzzzzzzzzzzz	-13.84
Search	-13.84
▁colume	-13.84
▁odw	-13.8401
▁truth	-13.8402
▁quant	-13.8402
▁getson	-13.8402
tely	-13.8402
rigth	-13.8403
▁PEsize	-13.8403
▁rope	-13.8403
dwj	-13.8403
▁Greate	-13.8404
camp	-13.8405
▁maxWaste	-13.8405
1)*(	-13.8406
▁2000000000	-13.8406
3)*(	-13.8406
▁indE	-13.8407
▁enter	-13.8407
▁rowSet	-13.8409
/(2*	-13.8409
▁(9999	-13.841
once	-13.8411
▁tgm	-13.8412
▁747	-13.8412
▁774	-13.8412
▁tplays	-13.8413
▁bottle	-13.8413
▁numround	-13.8414
▁just	-13.8414
▁unos	-13.8414
▁fastmod	-13.8415
▁modPow	-13.8415
[6-	-13.8416
▁(99999	-13.8416
▁lpalin	-13.8416
▁20000000000	-13.8416
Out	-13.8417
▁zzz	-13.8417
=10001	-13.8417
[15]	-13.8419
+3*	-13.8419
▁wtf	-13.842
▁Vtime	-13.842
▁kString	-13.842
myPow	-13.8421
▁modinv	-13.8422
▁obj	-13.8422
nGas	-13.8424
uppe	-13.8424
▁sitch	-13.8424
▁kata	-13.8425
▁(9999999	-13.8425
Fill	-13.8426
▁pjg	-13.8427
(10.0	-13.8428
▁lengh	-13.8428
▁btong	-13.8428
▁{100	-13.8428
bestIndex	-13.8429
▁peek	-13.8429
▁0123456789	-13.843
gers	-13.8431
▁levl	-13.8432
▁printSt	-13.8433
nmerge	-13.8433
▁744	-13.8433
Open	-13.8433
▁(999999	-13.8435
[1][0]]	-13.8435
▁verif	-13.8437
[0]-'0'	-13.8437
▁hush	-13.8437
nts	-13.8437
▁esq	-13.8438
▁getX	-13.8438
▁lanes	-13.8438
▁buttons	-13.8438
▁reala	-13.8439
ncop	-13.844
▁diam	-13.844
▁Temp	-13.8442
▁testC	-13.8443
▁programming	-13.8443
▁tstudy	-13.8443
thislen	-13.8443
▁selectionSort	-13.8443
nthis	-13.8444
▁digui	-13.8444
waiter	-13.8445
▁isPrimeRoot	-13.8446
▁200009	-13.8447
▁(99999999	-13.8448
▁postdecrement	-13.8449
▁dick	-13.845
▁ncasos	-13.8452
▁exchanges	-13.8453
▁12870	-13.8454
▁arrSorted	-13.8454
actions	-13.8455
▁Wsp	-13.8455
▁numberOfMove	-13.8455
▁unfortunate	-13.8456
▁numOfNet	-13.8456
▁48620	-13.8456
▁lastrowa	-13.8456
▁Smith	-13.8456
▁0.25)	-13.8456
▁kvbox	-13.8456
▁refrence	-13.8456
▁javob	-13.8456
180.0	-13.8456
▁textVolume	-13.8456
▁lastZero	-13.8456
▁svr	-13.8456
▁dependency	-13.8457
▁qingkuang	-13.8457
▁"0123456789"	-13.8457
▁wordLen	-13.8457
▁divN	-13.8457
▁slove	-13.8457
QR	-13.8458
▁ncandidates	-13.8458
▁3432	-13.8458
▁sigh	-13.8458
▁hur	-13.8459
▁social	-13.846
▁kiekis	-13.8461
*2)	-13.8464
▁Orange	-13.8464
▁getprime	-13.8465
▁revs	-13.8467
1:1	-13.8468
▁curMin	-13.847
▁contI	-13.847
nfactor	-13.8471
▁psg	-13.8472
▁lasteven	-13.8476
▁lastodd	-13.8478
]-'0')-	-13.8479
Har	-13.848
▁Tim	-13.8483
su	-13.8483
▁ture	-13.8487
▁Mtime	-13.8488
2[200]	-13.8488
Des	-13.8491
▁(999	-13.8493
onemore	-13.8494
[1002	-13.8495
▁listsize	-13.8496
taka	-13.8496
▁2100000	-13.8502
▁hist	-13.8505
Fast	-13.8506
▁contT	-13.8509
▁rused	-13.851
▁supp	-13.851
▁flower	-13.8513
ntmpA	-13.8516
▁fA	-13.8516
▁veces	-13.8517
▁checkdouble	-13.8517
▁desks	-13.852
▁abcnt	-13.8523
njump	-13.8524
▁jsq	-13.8525
elta	-13.853
▁noob	-13.8534
6][26]	-13.8536
▁MI	-13.8536
▁username	-13.854
▁study	-13.854
▁spectator	-13.854
▁pposi	-13.8542
▁indO	-13.8542
▁smlr	-13.8547
equals	-13.8552
▁prevmin	-13.8553
▁MAXall	-13.8555
686]	-13.8556
▁924	-13.8557
▁minMatch	-13.8558
▁needPrezent	-13.8558
alt	-13.8558
▁question	-13.8559
▁!=0)	-13.856
▁accu	-13.8562
▁bookgreen	-13.8562
▁gover	-13.8565
▁curY	-13.8565
▁-999	-13.8569
<5	-13.857
▁candidates	-13.8571
▁childs	-13.8579
files	-13.858
edal	-13.8582
Call	-13.8584
▁defy	-13.8586
▁nhack	-13.859
▁250.0	-13.8593
▁ispalin	-13.8595
-1][2])	-13.8595
▁Hand	-13.8597
▁defm	-13.86
▁bpb	-13.8601
+1)*(	-13.8605
▁dsk	-13.8606
▁<='9'	-13.8607
[300]	-13.861
nprices	-13.8612
nsk	-13.8612
▁-(-	-13.8612
(10_._	-13.8613
▁mindist	-13.8617
Mon	-13.862
150	-13.862
▁minstep	-13.8625
limit	-13.8627
▁getsum	-13.863
▁dasha	-13.8631
▁-2}	-13.8634
writeln	-13.8641
-32	-13.8641
()->	-13.8641
▁1)])	-13.8645
ntank	-13.8648
▁sudah	-13.8648
▁fcounter	-13.865
Kh	-13.8652
ub	-13.8654
▁zong	-13.8655
ndegree	-13.8656
▁cpr	-13.8658
8979323846264338	-13.8664
▁beforeP	-13.8667
▁larg	-13.8669
ndigit	-13.8669
eil	-13.8672
▁(99	-13.8673
▁vpoints	-13.8673
▁360)	-13.8675
▁Waste	-13.8676
▁270	-13.8681
phack	-13.8683
)^2+	-13.8683
may	-13.8683
(2)))	-13.8686
▁indice	-13.8687
▁lste	-13.869
[0]=	-13.8692
▁ssss	-13.8696
▁180.0	-13.8698
▁nei	-13.8699
exit	-13.87
tNum	-13.87
▁asli	-13.8702
1]][	-13.8704
hen	-13.8707
▁modex	-13.8709
)%4]	-13.871
(0.0	-13.8713
▁nph	-13.8713
/2*	-13.8715
▁printsp	-13.8716
--])	-13.8717
▁Tst	-13.8719
▁1004	-13.8723
▁upset	-13.8724
nmatrix	-13.8724
rig	-13.8728
▁countE	-13.8729
▁chot	-13.8738
▁360/	-13.8739
)/5	-13.8742
king	-13.8746
▁scan	-13.8751
▁100020	-13.8759
▁ptot	-13.8761
[3][3]	-13.8775
quest	-13.8788
▁totals	-13.8788
ascii	-13.8795
countN	-13.8799
▁nOdd	-13.8806
▁Mid	-13.8809
▁creq	-13.8811
send	-13.8813
2(100000	-13.8815
Red	-13.8817
<2	-13.8818
▁emps	-13.882
▁mnind	-13.8833
▁charcter	-13.8834
nacc	-13.8838
▁maxV	-13.8842
▁cws	-13.8844
>='	-13.8849
samey	-13.8854
▁TB	-13.8859
nasd	-13.8862
▁3.141592	-13.8865
▁rats	-13.8865
1=1	-13.8866
inate	-13.8868
▁pcount	-13.8873
▁powm	-13.8874
▁[105][105]	-13.8881
presentes	-13.8883
-1][1])	-13.8885
▁mcount	-13.8887
cion	-13.8889
nSort	-13.8895
▁130000	-13.8896
▁320	-13.8905
▁link	-13.8906
.........	-13.8908
nbulb	-13.8914
▁qt	-13.8914
▁Psize	-13.8916
▁his	-13.8919
▁mceil	-13.8932
▁(1)	-13.8935
hy	-13.8939
▁roll	-13.8941
▁indep	-13.8941
----------------	-13.8943
ai	-13.8943
nteam	-13.8946
nrec	-13.8947
nimportant	-13.8952
]=4	-13.8954
elements	-13.8956
▁tsd	-13.8957
▁lj	-13.8958
▁isPref	-13.8959
items	-13.896
▁ccount	-13.8962
wz	-13.8967
▁drom	-13.8968
maxcount	-13.8972
VK	-13.8973
=3*	-13.9
▁ccws	-13.9004
emp	-13.9008
dict	-13.901
▁bY	-13.9011
▁indefin	-13.9013
▁rq	-13.9016
nmink	-13.9016
nstar	-13.9029
▁prevbeg	-13.9029
olo	-13.9035
Col	-13.9043
▁empt	-13.9044
▁ooi	-13.9045
▁allA	-13.9051
▁1200	-13.9056
▁'_._')	-13.9057
▁1.00	-13.9065
cunt	-13.9066
]-1	-13.907
iz	-13.9071
▁"5	-13.9082
▁Dis	-13.9084
▁mpu	-13.9085
▁maxh	-13.9089
roduce	-13.9095
▁ye	-13.91
▁viy	-13.9103
▁tml	-13.9106
▁nsp	-13.9107
▁Str	-13.911
*((	-13.9113
▁mpp	-13.9122
▁sorte	-13.9133
▁Prime	-13.9136
▁cstart	-13.9137
▁mpoints	-13.9137
nsta	-13.9137
▁sumD	-13.9138
▁-8	-13.9139
[1][1][	-13.9146
[8	-13.9162
▁solu	-13.9166
toutt	-13.9166
▁nvotes	-13.9168
▁TA	-13.9169
posx	-13.9169
/6	-13.9174
▁69	-13.9177
▁primesize	-13.919
▁uno	-13.9197
npa	-13.9201
scorea	-13.9209
▁leafeon	-13.9214
nremainder	-13.9215
twoPower	-13.9219
▁remd	-13.9228
=-2	-13.9231
▁bui	-13.9236
▁leave	-13.9241
5+1	-13.9247
▁qi	-13.9259
▁"000	-13.9267
▁cursum	-13.9269
▁threes	-13.9272
▁chrs	-13.9274
2}	-13.9278
urn	-13.9278
npp	-13.9285
*100	-13.9287
▁dire	-13.9292
TE	-13.9293
02	-13.9294
1+1	-13.93
nlimit	-13.9307
▁see	-13.9313
▁band	-13.9318
45	-13.9326
[](	-13.9326
Mar	-13.9376
=1005	-13.9378
fim	-13.9383
▁tempname	-13.9385
▁3.1415926	-13.9398
▁numS	-13.9402
2<	-13.9409
▁stab	-13.9414
ngot	-13.9416
va	-13.9419
▁anti	-13.9422
▁alr	-13.9434
ndone	-13.9434
cot	-13.9439
▁doll	-13.9443
nvotes	-13.9448
▁blen	-13.945
▁epi	-13.9466
0))	-13.9469
▁lenB	-13.9471
nMAXX	-13.9475
▁mgcd	-13.9481
niterator	-13.9485
▁fra	-13.9492
round	-13.9495
arra	-13.9498
ntwo	-13.95
nposy	-13.9503
▁papers	-13.9511
▁bX	-13.9543
nad	-13.9543
▁mind	-13.9546
Dp	-13.9548
ard	-13.955
▁cop	-13.9551
cent	-13.9573
nones	-13.9579
im	-13.9582
▁marke	-13.9588
rcase	-13.9593
]]]]	-13.9603
▁trd	-13.9604
▁mxl	-13.9605
const	-13.9627
▁firstb	-13.963
▁fors	-13.9644
ever	-13.9653
▁bac	-13.9663
bs	-13.9666
2]=	-13.9672
xb	-13.9674
nappear	-13.9694
[0][0]=	-13.9695
▁npd	-13.9695
seg	-13.9698
▁distr	-13.9699
valueArr	-13.9702
▁Ds	-13.9716
]-'0'+	-13.9726
-12	-13.975
'1'	-13.975
▁Msize	-13.976
500	-13.9768
init	-13.9775
tip	-13.9775
ete	-13.9797
▁4-	-13.9803
=10	-13.9803
▁numL	-13.9815
sumb	-13.9834
[1][1]_._	-13.9841
2="	-13.9852
▁lprime	-13.9856
ms	-13.9871
▁maxS	-13.9876
nprevbeg	-13.989
▁para	-13.9892
getY	-13.9904
▁loo	-13.9908
)1	-13.9913
lean	-13.9941
▁cases	-13.9951
Pow	-13.9951
cou	-13.9962
▁#)	-13.9963
ce	-13.9968
dib	-13.9989
▁cu	-14.0002
nskill	-14.001
[24]	-14.0012
npow	-14.0013
▁elemen	-14.0014
▁resL	-14.0022
▁gmin	-14.0028
▁idxb	-14.0029
nSa	-14.0031
▁[	-14.0032
itr	-14.0038
▁Pa	-14.0058
ach	-14.0077
▁du	-14.0103
..........	-14.0104
[3]-	-14.0104
busy	-14.0105
▁remainders	-14.0119
ntable	-14.0124
▁cei	-14.0146
nprin	-14.0174
hate	-14.0188
▁imp	-14.0192
(2.0)	-14.0202
▁minvalue	-14.0208
_1_._	-14.0209
▁**	-14.0226
md	-14.0231
=((	-14.0233
<=1	-14.0235
.........|	-14.0246
1_._-1_._0_._0	-14.0248
nseed	-14.0259
▁minind	-14.0282
▁maxind	-14.029
2)+(	-14.0305
▁"8	-14.0306
2][	-14.0306
stop	-14.031
96	-14.031
nkey	-14.0316
▁strng	-14.0318
▁cents	-14.0322
!=	-14.0329
---------	-14.0337
▁Olya	-14.0344
ning	-14.0355
eq	-14.0359
nlol	-14.0367
▁Nikita	-14.0368
form	-14.0369
nfla	-14.037
▁-1]	-14.0375
String	-14.0378
#.#.#.#.|	-14.0389
........	-14.0399
▁Danil	-14.0403
cmx	-14.0415
▁sid	-14.0419
/4)	-14.0451
▁ap	-14.0455
▁')	-14.0465
nMINN	-14.0468
imin	-14.0472
▁Mi	-14.0475
▁trm	-14.0478
▁mxj	-14.0481
▁sets	-14.0484
180-	-14.0485
▁minB	-14.0489
36	-14.0492
▁nul	-14.0493
▁100040	-14.0496
▁tabl	-14.0497
▁jwbn	-14.0518
nCa	-14.0522
MD	-14.0527
▁++	-14.0554
0.00	-14.0575
▁300001	-14.0592
che	-14.0602
=9	-14.0603
▁tip	-14.0613
nlead	-14.0672
my	-14.0672
same	-14.0677
gy	-14.0681
nbegin	-14.0691
[0]='	-14.0697
ba	-14.0702
▁gm	-14.0711
)])	-14.0748
▁wor	-14.0759
▁{{1	-14.0773
fast	-14.0782
▁tres	-14.0803
bstart	-14.0815
▁nu	-14.0828
.0)	-14.0844
uion	-14.0851
)%	-14.0851
lat	-14.0862
▁125	-14.088
minn	-14.0888
----------+	-14.0894
clear	-14.0895
▁(24	-14.0901
Awin	-14.0924
#.#.#.#.#.#.|.|"	-14.0926
---------+"	-14.0938
cnta	-14.0952
▁fg	-14.0965
eak	-14.0994
▁forb	-14.1003
▁ansh	-14.1004
▁another	-14.1011
large	-14.1013
10005	-14.1015
==	-14.1029
pass	-14.1032
▁wen	-14.1037
▁summax	-14.1039
nxt	-14.1049
ask	-14.1053
▁dk	-14.1084
▁bstart	-14.1093
▁'1')	-14.1094
hr	-14.1107
nmat	-14.1122
.00)	-14.113
dr	-14.1142
exrt	-14.1142
mnth	-14.1143
0)+	-14.1151
pro	-14.1165
ncoun	-14.1178
-1])/	-14.1188
ya	-14.1195
eep	-14.1207
▁endd	-14.1225
rthanorequaltox	-14.1247
nsb	-14.126
ecrease	-14.126
nlb	-14.1308
mas	-14.1325
▁'#')	-14.1326
nsoma	-14.1343
123	-14.1351
▁bla	-14.1361
cn	-14.1367
usi	-14.1405
▁arrB	-14.1409
▁bt	-14.1431
flg	-14.1448
#.#.#.#.	-14.146
duo	-14.1468
▁der	-14.1468
lin	-14.1471
+1)/	-14.1487
palin	-14.149
▁fue	-14.1506
bin	-14.1513
good	-14.1514
ep	-14.1518
>=10	-14.1541
kind	-14.1549
ncre	-14.155
▁pan	-14.156
nedge	-14.1573
ndisc	-14.1575
▁bcount	-14.1576
▁mz	-14.1577
▁cent	-14.1596
cycle	-14.1613
ather	-14.1614
work	-14.1614
lef	-14.1625
edges	-14.1635
.000	-14.1642
---------------+	-14.1643
nsq	-14.1649
memo	-14.1657
wi	-14.1665
▁ary	-14.169
sumB	-14.169
▁slt	-14.1702
peration	-14.1702
nbit	-14.1709
▁/2	-14.1716
(360	-14.1717
2[2]	-14.172
1000000	-14.1725
▁vii	-14.1732
(-1	-14.1749
mol	-14.1763
19	-14.1764
2+1)	-14.1768
#.#.#.#.|.|"	-14.1782
]>0	-14.1797
▁stri	-14.1798
▁mmi	-14.1813
▁ansf	-14.1838
DY	-14.1842
posit	-14.1853
limak	-14.1861
ti	-14.1862
preincrement	-14.1866
tro	-14.1866
▁squares	-14.187
factor	-14.1877
Sort	-14.188
convert	-14.1882
▁flagg	-14.1889
cal	-14.1903
ic	-14.1906
▁phi	-14.1922
▁tempb	-14.1926
1;	-14.1943
vs	-14.1946
nmaxa	-14.1949
nctr	-14.1966
▁xt	-14.2006
(9	-14.2012
/2-	-14.203
0]	-14.2052
...........	-14.2062
io	-14.2073
128_._	-14.2092
▁>>"	-14.2113
order	-14.2126
000000000000005	-14.2126
▁cval	-14.2128
nfact	-14.2128
display	-14.2131
4))	-14.2142
[0	-14.2143
ke	-14.2152
[0]*	-14.2157
2005	-14.2176
][1]=	-14.223
24	-14.2231
npot	-14.2235
▁ave	-14.2255
>2	-14.2262
ates	-14.2267
ncode	-14.2281
[--	-14.2287
nneed	-14.2294
▁39	-14.2299
lc	-14.2301
▁512	-14.2313
nwt	-14.2313
<(	-14.2315
ps	-14.2321
erthanorequaltox	-14.2323
[24	-14.233
only	-14.233
▁10009	-14.2335
nany	-14.2339
eration	-14.2353
2]_._	-14.2363
▁1)]	-14.2377
bulb	-14.238
▁minu	-14.2396
lasth	-14.2404
lit	-14.2412
ncalc	-14.2468
02][2]	-14.2474
bitch	-14.2505
pb	-14.2507
▁addr	-14.251
7]	-14.2517
osthenes	-14.2522
[0]))	-14.2526
swap	-14.2564
ncons	-14.257
nodd	-14.2574
iter	-14.2576
dm	-14.2585
▁sg	-14.2597
=?	-14.2625
ition	-14.263
▁tempsum	-14.2633
180	-14.2637
nan	-14.2648
][2	-14.2661
nge	-14.2679
define	-14.2687
▁isT	-14.2692
▁idxa	-14.2703
'9'	-14.2707
▁endj	-14.2709
sq	-14.272
'*'	-14.2724
cases	-14.2733
]=50	-14.2764
▁jv	-14.2766
▁mxd	-14.2768
nhm	-14.2776
most	-14.2789
sm	-14.28
▁cl	-14.2808
iff	-14.2816
ass	-14.2817
▁arry	-14.2819
▁unio	-14.2825
kan	-14.2837
unction	-14.2839
▁gs	-14.2843
nold	-14.2849
nothing	-14.2855
cond	-14.2875
until	-14.2894
▁vst	-14.2897
after	-14.29
hack	-14.2906
oma	-14.293
rMod	-14.293
nincr	-14.2939
nwhil	-14.2944
2384626433832	-14.2958
pi	-14.2963
▁200000000	-14.2984
=25	-14.2996
magic	-14.3001
stack	-14.3005
hitung	-14.301
love	-14.3017
]*2	-14.3023
ica	-14.3024
▁chec	-14.3032
▁creat	-14.3033
nnumber	-14.3041
'7'	-14.3049
11111111	-14.3051
OK	-14.3056
matches	-14.3058
-9999	-14.3063
remaining	-14.3069
▁naj	-14.307
does	-14.3073
year	-14.3073
chi	-14.3076
group	-14.3077
<='9'	-14.3084
her	-14.3084
lmax	-14.3091
sumA	-14.3095
fastExp	-14.3098
zeroNum	-14.3099
participants	-14.3099
solution	-14.3099
huiwen	-14.31
$	-14.3101
0.5	-14.3103
0]_._	-14.3106
path	-14.3108
From	-14.3108
common	-14.311
blyat	-14.3113
lenght	-14.3115
downloaded	-14.3117
smallest	-14.3118
hotels	-14.3119
question	-14.3121
needPrezent	-14.3123
minMatch	-14.3123
before	-14.3123
MaxN	-14.3125
xy	-14.3127
Hash	-14.3128
fastexp	-14.3128
ABC	-14.3128
intpart	-14.3128
bonus	-14.3129
nIn	-14.3131
jawab	-14.3132
Alex	-14.3132
firstPointer	-14.3133
isRoot	-14.3133
bookgreen	-14.3133
maxJoy	-14.3134
MID	-14.3134
BWBWBWBW	-14.3135
WBWBWBWB	-14.3135
wrkdsz	-14.3135
penalty	-14.3135
problems	-14.3136
SIZE	-14.3137
slogan	-14.3137
qkids	-14.3137
radius	-14.3137
nck	-14.3138
masuk	-14.3138
numOfTestCases	-14.3139
borrow	-14.3139
5050	-14.314
record	-14.314
wynik	-14.314
smlr	-14.3141
Freq	-14.3141
SP	-14.3141
stones	-14.3143
abajo	-14.3143
▁2501	-14.3143
cube	-14.3144
primos	-14.3144
blocked	-14.3144
sideMoves	-14.3144
isVowel	-14.3145
choose	-14.3146
paramet	-14.3146
urth	-14.3147
nmem	-14.3148
sleepTime	-14.3148
maxsec	-14.3149
sandali	-14.315
spectator	-14.315
cyka	-14.3151
denominator	-14.3155
▁twos	-14.3156
cycles	-14.3157
compute	-14.3157
combSort	-14.3158
cheapest	-14.3159
5001	-14.3161
tambah	-14.3162
toPurchase	-14.3163
saida	-14.3163
games	-14.3165
distinct	-14.3167
poz	-14.3171
bv	-14.3172
hpm	-14.3175
token	-14.318
DP	-14.3181
(1.0	-14.3182
wrong	-14.3182
Map	-14.3184
util	-14.3185
third	-14.3189
270	-14.3189
lasti	-14.3189
permu	-14.3189
rgraph	-14.3192
exam	-14.3194
yb	-14.3195
union	-14.3197
Calc	-14.3198
gover	-14.3202
full	-14.3205
delta	-14.3207
acumx	-14.3207
lks	-14.321
3[2]	-14.321
Lucky	-14.3211
menor	-14.3213
qq	-14.3216
▁grea	-14.3217
flush	-14.3226
Mid	-14.3227
*1.0	-14.323
tomas	-14.3237
dit	-14.324
lse	-14.3242
▁unit	-14.3244
09	-14.3246
xorr	-14.3247
mesto	-14.3251
siz	-14.3253
faken	-14.3254
ontrol	-14.3257
nrot	-14.3262
noob	-14.3267
loc	-14.3284
Palindrome	-14.3291
▁falsey	-14.3292
kupi	-14.3297
End	-14.33
ottle	-14.3301
lusive	-14.3305
desk	-14.3306
8)	-14.3315
quared	-14.3317
epth	-14.3321
▁users	-14.3322
nreplace	-14.3325
buy	-14.3326
▁9000	-14.3329
*60	-14.3344
▁2222	-14.3349
SE	-14.3353
+1]=	-14.3353
ector	-14.3354
loaded	-14.3355
▁15000	-14.3356
hela	-14.3356
▁888888	-14.3359
▁problem	-14.336
▁friend	-14.3361
▁stdou	-14.3363
▁9000000	-14.3365
▁stair	-14.3366
)*1.0	-14.3367
▁elem	-14.3369
WI	-14.3373
discounts	-14.338
nbiao	-14.3381
▁continu	-14.3383
▁inser	-14.3383
tb	-14.3387
nclose	-14.3387
angkat	-14.3387
nnumOf	-14.3388
multiple	-14.3388
/250)	-14.3388
wednesd	-14.339
987	-14.339
removeDuplicate	-14.339
6789	-14.339
[4010]	-14.339
eratosthenes	-14.339
tToPa	-14.339
TJQKA	-14.339
▁CountOne	-14.339
▁Numberofstones	-14.339
▁SecondMulti	-14.339
▁cclockwise	-14.339
▁goEither	-14.339
▁hasLarge	-14.339
▁nextBYear	-14.339
▁numType	-14.339
▁rearorder	-14.339
▁tempName	-14.339
123123	-14.339
2139062143	-14.339
▁FirstMulti	-14.339
▁Magic	-14.339
▁imprimir	-14.339
▁isCheck	-14.339
▁kachok	-14.339
▁middlePoint	-14.339
▁missingTemps	-14.339
▁onward	-14.339
▁palinoal	-14.339
▁primeFunction	-14.339
▁removals	-14.339
▁toastDueToSalt	-14.339
1_._3_._5_._7_._	-14.339
23:32	-14.339
BigMod	-14.339
JUDGE	-14.339
cambiables	-14.339
cessful	-14.339
nconnected	-14.339
nnumPairs	-14.339
numpacks	-14.339
nvertikal	-14.339
recorrer	-14.339
è	-14.339
▁-2147483648	-14.339
▁1}{-1	-14.339
▁6969	-14.339
▁CalculatePrimes	-14.339
▁FindNotFound	-14.339
▁IfHuiwen	-14.339
▁Judge	-14.339
▁LOVE	-14.339
▁ProduceCode	-14.339
▁angleofpolygon	-14.339
▁convierte	-14.339
▁cookie	-14.339
▁definition	-14.339
▁emtpy	-14.339
▁esPalindromo	-14.339
▁immediate	-14.339
▁isSubSequence	-14.339
▁matrices	-14.339
▁minCoinsToWin	-14.339
▁numOfLight	-14.339
▁quick	-14.339
▁trailing	-14.339
▁INFTY	-14.339
euclid	-14.339
hanako	-14.339
makeAString	-14.339
nsalir	-14.339
▁"444"	-14.339
▁continuous	-14.339
▁czysc	-14.339
▁euql	-14.339
▁getsolved	-14.339
▁reshala	-14.339
[2600]	-14.339
_._31_._30_._31	-14.339
ntheyareworking	-14.339
▁17576	-14.339
▁falseLine	-14.339
▁statmnts	-14.339
▁(201_._0)	-14.339
EQU	-14.339
[2048]	-14.339
nbrainfuck	-14.339
▁buhuiwen	-14.339
▁hasDigit	-14.339
▁sumcclock	-14.339
[110][110]	-14.339
ntransf	-14.339
▁isluck	-14.339
reSame	-14.339
▁binarySearch	-14.339
▁maxsecction	-14.3391
▁already	-14.3391
▁wolf	-14.3391
▁toBuy	-14.3391
▁pichone	-14.3391
▁sumofdigit	-14.3391
▁0.000001	-14.3391
^48	-14.3391
▁ratasi	-14.3391
▁sevenCount	-14.3391
nRoz	-14.3391
▁findNextPrime	-14.3391
mindiff	-14.3391
OfT	-14.3391
▁stuff	-14.3391
▁clockwise	-14.3391
=2000000007	-14.3391
epsilon	-14.3391
333333	-14.3391
[205]	-14.3391
▁hasSmall	-14.3391
eccion	-14.3391
▁"$"	-14.3391
▁toUpp	-14.3391
]-1]-1]-1	-14.3391
9876	-14.3391
nlinha	-14.3391
▁mulMod	-14.3391
▁minjumps	-14.3391
▁precompute	-14.3391
INP	-14.3391
_._0_._1_._-1	-14.3391
factores	-14.3391
6+7	-14.3391
OUT	-14.3391
nmasha	-14.3391
nisHome	-14.3391
▁precomp	-14.3392
▁marge	-14.3392
▁colortable	-14.3392
▁CountNum	-14.3392
ncomb	-14.3392
00006][2	-14.3392
▁initially	-14.3392
▁batas	-14.3393
1828	-14.3393
ginal	-14.3393
Hobe	-14.3393
▁getPo	-14.3393
▁precalc	-14.3393
/250)*	-14.3394
LIN	-14.3394
▁getPrime	-14.3394
[5050]	-14.3394
[8][8]	-14.3394
▁lewa	-14.3395
0=-1,	-14.3395
dulo	-14.3395
nqiu	-14.3395
]='#'	-14.3395
rickS	-14.3395
_._30_._31	-14.3395
failbit	-14.3396
9+9	-14.3396
▁zzzz	-14.3396
mulate	-14.3396
▁"23"	-14.3397
MOS	-14.3397
Column	-14.3397
▁777	-14.3397
nelevator	-14.3397
▁getMin	-14.3398
ough	-14.3398
nlikes	-14.3398
▁preincremented	-14.3398
nsrand	-14.3399
▁gems	-14.3399
oreP	-14.3399
▁unchanged	-14.3399
isFace	-14.3399
exception	-14.34
▁36001	-14.34
Roll	-14.34
▁hand	-14.34
-0.5	-14.34
▁10^18+	-14.3401
▁tiles	-14.3401
▁5555	-14.3402
nclos	-14.3404
▁"0011	-14.3405
[35]	-14.3405
*4+	-14.3406
[301]	-14.3406
nMI	-14.3407
▁4400	-14.3407
getpal	-14.3408
checkbottom	-14.3408
▁-5000000	-14.3409
palindromic	-14.3409
[51]	-14.3413
▁2700	-14.3414
▁caden	-14.3414
▁oldstr	-14.3414
*(2*	-14.3415
▁Greater	-14.3416
▁printString	-14.3416
▁putL	-14.3416
▁stolen	-14.3416
▁terminat	-14.3417
▁resolve	-14.3418
wynw	-14.3421
▁prawa	-14.3421
▁En	-14.3422
<10	-14.3422
Com	-14.3425
angka	-14.3425
▁'`	-14.3425
▁smallans	-14.3426
Null	-14.3427
▁units	-14.3427
▁rotz	-14.343
▁rotatez	-14.343
/2)+	-14.343
▁super	-14.3431
EI	-14.3434
▁2020	-14.3438
000-	-14.3438
nisU	-14.3438
▁ggg	-14.3438
▁isRow	-14.344
▁lent	-14.3441
▁ini	-14.3443
249	-14.3444
cation	-14.3445
▁flip	-14.3451
nisT	-14.3452
▁toLow	-14.3453
▁newpage	-14.3455
▁"10"	-14.3456
▁Ile	-14.3457
▁lhs	-14.3459
(97+	-14.3459
toup	-14.346
2[0]-'	-14.346
identi	-14.346
▁gys	-14.3463
▁employee	-14.3465
▁movew	-14.3466
▁totalMoves	-14.3468
▁-300	-14.3469
▁totalSalt	-14.3469
▁-99999	-14.3469
nihash	-14.347
▁reallyans	-14.3472
nccc	-14.3474
▁cbits	-14.3475
▁shai	-14.3475
preorder	-14.3477
ndivi	-14.3479
▁retrun	-14.3484
npause	-14.3484
nworkdays	-14.3485
bfs	-14.3485
5:5	-14.3485
+1000]	-14.3486
▁"<	-14.3488
puter	-14.3488
sidesI	-14.3488
▁sobuj	-14.349
▁galaxy	-14.349
▁employeenum	-14.349
▁shee	-14.3491
▁fourcount	-14.3491
%5	-14.3491
▁hlp	-14.3493
▁cityNo	-14.3494
prifac	-14.3495
poskupi	-14.3495
ndiry	-14.3495
▁nol	-14.3496
njoo	-14.3496
555	-14.3496
▁Oddz	-14.3499
maxa	-14.3499
▁3000000	-14.3501
LOG	-14.3501
/2)-	-14.3502
▁numWays	-14.3502
acter	-14.3503
▁numberOfLucky	-14.3503
nhorizontal	-14.3504
▁1_._2_._3	-14.3505
▁bByGame	-14.3505
▁yippee	-14.3505
▁banknotes	-14.3505
▁vvod	-14.3506
▁coupons	-14.3506
▁myFile	-14.3506
▁freefuel	-14.3506
▁LastoddPos	-14.3506
▁LastevenPos	-14.3507
▁123456	-14.3511
▁isDt	-14.3511
▁GT	-14.3514
▁zeroCount	-14.3515
[32]	-14.3516
Roo	-14.3517
)*8	-14.3523
NF	-14.3524
▁cheng	-14.3525
▁"..	-14.3527
▁rowe	-14.3528
beginat	-14.353
▁prazn	-14.3531
-2^	-14.3535
nidgr	-14.3535
▁RE	-14.3548
nesq	-14.3549
▁resultsquare	-14.355
▁nOp	-14.355
▁-2000	-14.3551
▁permu	-14.3554
[1][26]	-14.3554
▁rotatey	-14.3555
PS	-14.3556
body	-14.3556
▁[150]	-14.356
▁mesto	-14.356
▁250.	-14.356
▁setbit	-14.356
▁roty	-14.3561
▁dec	-14.3565
npus	-14.3565
▁(7-	-14.3565
▁266	-14.3565
wynb	-14.3566
ntoggle	-14.3566
▁isThere	-14.357
ncity	-14.3573
fers	-14.3575
nhighnum	-14.3576
▁andaw	-14.3576
atch	-14.3579
nsmall	-14.358
▁Main	-14.358
▁mystr	-14.3583
ndirx	-14.3584
▁-99999999	-14.3588
▁0.00001	-14.3589
▁hui	-14.3591
▁tempCount	-14.3592
sive	-14.3593
nrotate	-14.3594
][(	-14.3596
-50	-14.3597
-1])*	-14.3598
=0.00000000	-14.36
▁getit	-14.3602
5.00)	-14.3604
▁minson	-14.3605
▁passed	-14.3606
Jo	-14.3606
▁5010	-14.3609
▁605	-14.3611
▁isSub	-14.3612
ecz	-14.3614
▁dics	-14.3614
hori	-14.3616
nGRAPH	-14.3618
▁">	-14.3619
nhead	-14.3622
▁okay	-14.3624
▁upit	-14.3624
+1<=	-14.3627
+1]-'	-14.363
▁vecto	-14.363
nappen	-14.3635
▁paramet	-14.3639
▁isOK	-14.364
=10^9+	-14.3647
▁"05	-14.3648
▁plu	-14.3652
▁isRoot	-14.3654
_8,	-14.3654
primo	-14.3655
=99999999	-14.3655
▁bonus	-14.3662
posy	-14.3664
odPow	-14.3665
nincrem	-14.3665
▁getmax	-14.3669
▁ABC	-14.367
▁downloaded	-14.3672
▁Calc	-14.3677
▁dodec	-14.3679
▁1008	-14.3683
▁$	-14.3687
*2+1)	-14.3691
(6	-14.3691
▁fastExp	-14.3692
▁chocs	-14.3697
▁intpart	-14.3699
3)/	-14.37
+7	-14.3701
▁zeroNum	-14.3702
▁minima	-14.3702
nowp	-14.3702
▁rotatex	-14.3704
▁rotx	-14.3707
evel	-14.3708
1-0	-14.3709
▁cena	-14.3716
[1000	-14.3719
▁appen	-14.3721
OU	-14.3724
▁440	-14.3724
letters	-14.3725
ntc	-14.3726
nsums	-14.373
▁coB	-14.3735
minP	-14.3739
▁newS	-14.3742
argmini	-14.3742
10.00)	-14.3747
▁-999999999	-14.3751
13579"	-14.3754
545	-14.3755
kh	-14.3755
▁10^1	-14.3757
▁sifr	-14.3759
-1]+(	-14.376
▁isOdd	-14.3762
mintime	-14.377
imula	-14.3771
▁86	-14.3772
lift	-14.3776
▁MAXB	-14.3777
▁2500	-14.3779
Checking	-14.3781
nEx	-14.3784
lane	-14.3784
currdiv	-14.3785
append	-14.3786
▁{-	-14.3788
2=2*	-14.3789
BB	-14.379
=26	-14.3796
▁vsz	-14.3798
onto	-14.3802
▁'0')))	-14.3804
minDif	-14.3805
ON	-14.3808
▁reversed	-14.3809
nlft	-14.3811
Oc	-14.3813
000010	-14.3816
ntersectionsleft	-14.3817
▁npal	-14.3823
77	-14.3825
▁MaxN	-14.3827
ultiple	-14.3829
▁currentJoy	-14.3836
]=((	-14.3837
▁checa	-14.3842
2*10	-14.3844
nflaghs	-14.3847
▁11111	-14.3848
prod	-14.3848
nbul	-14.385
nhand	-14.385
[10000]	-14.3857
nnumedges	-14.3857
nwelfare	-14.3858
▁shela	-14.3882
▁1500	-14.3891
nsam	-14.3891
▁hits	-14.3892
cord	-14.3896
▁1000003)	-14.3899
tables	-14.3907
▁116	-14.3909
----	-14.391
nplus	-14.3927
nka	-14.3941
▁newli	-14.3942
mem	-14.3945
▁{1	-14.3945
▁IN	-14.3953
(2))	-14.3958
▁minsteps	-14.3962
▁couner	-14.3962
11111111111111	-14.3966
Fac	-14.3968
Tru	-14.3968
▁moveb	-14.3968
▁olds	-14.3982
▁lks	-14.3982
▁fth	-14.3992
1])_._	-14.3992
AL	-14.3993
nhighest	-14.3999
]-'0']=	-14.4002
gits	-14.4018
=101	-14.4028
=20	-14.4039
nAwin	-14.4045
▁jpar	-14.405
nmaxv	-14.4051
prims	-14.4053
▁basi	-14.4057
▁teams	-14.4057
2000	-14.4068
npl	-14.4077
nway	-14.4081
aps	-14.4081
nOdd	-14.4081
▁std	-14.4086
%2)	-14.4089
nstruct	-14.409
nxcost	-14.4098
dpback	-14.4113
']/	-14.412
idit	-14.4132
▁20))	-14.4137
nE	-14.4142
▁TE	-14.415
cd	-14.415
east	-14.4153
▁yd	-14.4163
nrest	-14.4165
▁Ok	-14.4175
continue	-14.4178
2*2	-14.418
NOK	-14.4184
uar	-14.4185
▁parta	-14.4189
]=(	-14.4195
+1000	-14.4197
97]	-14.42
nfr	-14.4233
npress	-14.4243
movy	-14.4243
▁yello	-14.4245
▁forbid	-14.4246
idxb	-14.4248
▁dst	-14.425
▁mnd	-14.4257
▁10000000005	-14.4267
▁Defin	-14.4273
rfind	-14.4281
gay	-14.4286
ration	-14.4298
▁gem	-14.4301
▁(-1))	-14.4302
▁wea	-14.4305
▁discount	-14.4307
▁divisors	-14.4309
▁dpback	-14.4313
nonly	-14.4319
+'0'	-14.4327
sx	-14.4338
▁Sieve	-14.4341
nacu	-14.4355
recursive	-14.4358
▁Or	-14.436
ncontador	-14.437
▁(1*	-14.4382
▁Eu	-14.4386
nalpha	-14.4393
rement	-14.4403
ml	-14.4417
▁xy	-14.4425
btr	-14.4426
ncc	-14.443
liz	-14.4432
---------+	-14.4434
▁miss	-14.444
▁maxd	-14.4469
nP	-14.4471
▁fit	-14.4473
[20]	-14.4476
300	-14.4482
▁numW	-14.4482
▁mapper	-14.4482
mmc	-14.4484
minind	-14.4494
rim	-14.4497
ndi	-14.4497
nisPrime	-14.4497
npar	-14.4498
1[1]-	-14.4507
])/2	-14.4515
-1)/(	-14.4516
>=3	-14.4527
tmo	-14.4528
ndr	-14.4541
4*	-14.4544
mak	-14.4546
▁strr	-14.4557
skills	-14.4562
Ar	-14.4578
;;	-14.458
▁ansA	-14.4587
▁divc	-14.459
10)	-14.4591
Sh	-14.4608
▁kt	-14.4611
teps	-14.4617
maxnum	-14.4622
▁Ca	-14.4637
nmaxk	-14.464
▁prin	-14.464
▁rand	-14.464
nflagh	-14.4643
5}	-14.4654
nlim	-14.4656
getline	-14.4663
▁(3-	-14.4695
6,	-14.4709
ncounts	-14.4712
▁fri	-14.473
[200	-14.4731
nfail	-14.4747
▁zs	-14.4755
resta	-14.4791
ngetchar	-14.4792
00000	-14.48
3;	-14.4807
▁666	-14.4829
▁cdy	-14.4849
............	-14.4887
▁sumblack	-14.4888
fy	-14.4923
-1]*2	-14.4944
_._0_._0	-14.4954
--------+"	-14.496
2=99999999	-14.4961
we	-14.4969
ncomp	-14.497
inha	-14.497
▁199	-14.4975
▁resb	-14.4988
)*2	-14.4995
[1]-0	-14.4995
remove	-14.5001
1][0]_._	-14.5003
ntem	-14.5007
nultimate	-14.5011
▁tmpB	-14.5018
▁bcnt	-14.5024
▁dois	-14.5024
viy	-14.5026
▁bef	-14.5031
200010	-14.5041
▁nope	-14.5048
idgr	-14.5055
evenPo	-14.506
sumw	-14.5089
over	-14.5117
dom	-14.512
(20	-14.5122
▁qbe	-14.5123
ned	-14.5128
movx	-14.513
umn	-14.5135
rework	-14.5164
ngood	-14.5178
oven	-14.5188
▁..	-14.5195
generate	-14.5201
-1]))	-14.5207
ticks	-14.5209
ig	-14.5223
un	-14.5265
1/	-14.5271
chk	-14.5272
tmpB	-14.5283
[4-	-14.5288
▁233	-14.5292
[2-	-14.5312
1],	-14.5326
tm	-14.5335
▁tg	-14.5344
333	-14.5346
nsheets	-14.535
whe	-14.5373
nzeros	-14.5387
kir	-14.5394
▁1]))]	-14.5394
#.#.#.|.|)"	-14.5394
il	-14.5402
etNext	-14.5409
1)+	-14.5413
sPer	-14.5421
nel	-14.5477
▁6*	-14.5482
nta	-14.5493
[3]))	-14.5509
(1)_._	-14.5523
)+1)	-14.5533
▁99999_._	-14.5533
po	-14.5544
minB	-14.5549
][2]=	-14.555
nsuf	-14.5594
▁2501]	-14.5621
zli	-14.5636
)->	-14.5647
▁markl	-14.5648
62	-14.5656
nth	-14.5659
1+1)	-14.5701
nRe	-14.5707
▁10.	-14.5717
nnumver	-14.5738
▁mpb	-14.5757
▁info	-14.5784
qm	-14.579
nsm	-14.5802
samex	-14.5805
6.	-14.5825
nDe	-14.5841
nstarted	-14.5846
▁gol	-14.5848
nbo	-14.5874
Run	-14.5878
▁lessonsn	-14.5885
say	-14.5892
[10	-14.591
rv	-14.5913
▁hast	-14.5925
nmemo	-14.5939
▁79	-14.5943
nff	-14.5949
▁kw	-14.5952
decrementing	-14.5956
teger	-14.5962
=500	-14.5973
00009	-14.6035
▁3;	-14.6041
ncry	-14.6043
checkright	-14.6048
prevc	-14.606
▁"22	-14.6083
nho	-14.6104
49	-14.6107
lu	-14.6122
9-	-14.6123
nhor	-14.6127
59	-14.6131
nrep	-14.6157
▁pnt	-14.6164
-2)/	-14.618
6)	-14.618
1=-1	-14.621
nintege	-14.6213
nner	-14.6219
▁chat	-14.6248
▁96]	-14.625
▁kir	-14.6275
flaghs	-14.628
otherwise	-14.6293
1.0	-14.6295
npo	-14.6315
checktop	-14.6315
idxa	-14.634
nisprime	-14.6364
"_._0	-14.6368
1:	-14.6371
)))))	-14.639
▁"0001	-14.6421
[3	-14.6429
Rem	-14.646
▁tes	-14.6463
▁fc	-14.6465
=0,	-14.6472
sa	-14.6499
*1000	-14.6509
▁tran	-14.651
▁hori	-14.6512
▁203	-14.6522
nsame	-14.6532
_4_._	-14.6538
▁-7	-14.6596
+1]=1	-14.6598
ntm	-14.6627
1000010	-14.6629
rray	-14.6667
nhd	-14.6677
2.0))	-14.6688
((2	-14.6712
ndos	-14.6732
1]_._	-14.6738
▁ttt	-14.6739
▁multipli	-14.6761
000000005	-14.6772
pend	-14.6778
cmn	-14.6816
▁dsum	-14.6821
opt	-14.6822
reverse	-14.685
▁lx	-14.6855
)/3	-14.6856
-1)+	-14.6857
▁tott	-14.686
0-	-14.6861
25*	-14.6863
nvect	-14.6864
]==0	-14.687
npresent	-14.6894
▁{0	-14.6905
der	-14.691
▁ord	-14.6914
nexp	-14.6932
nconst	-14.6954
.00	-14.6971
▁countN	-14.698
2]]	-14.7003
[0][3]	-14.7005
000005	-14.7015
umberOfStudents	-14.7049
ty	-14.7057
▁rel	-14.706
.............|"	-14.7062
nlef	-14.7073
*3)	-14.7075
-1]=1	-14.7093
][8]	-14.7099
narg	-14.7108
nLINF	-14.7112
)/60	-14.7116
%3	-14.7125
▁6][	-14.7128
following	-14.7131
pal	-14.7138
ansm	-14.7154
rase	-14.7189
checkleft	-14.7207
512	-14.7227
%2]	-14.7241
-1]*	-14.7255
nmmin	-14.7257
▁bic	-14.7273
lens	-14.7274
ii	-14.7294
▁nposi	-14.73
▁'_._-	-14.7314
3]_._	-14.7333
cntr	-14.7341
▁sim	-14.7348
▁icos	-14.7361
1>=	-14.7365
larger	-14.7377
ift	-14.7379
400	-14.7404
▁[10]	-14.7408
▁-100000	-14.7414
▁maxnn	-14.7414
2=(	-14.7433
nop	-14.7438
▁printed	-14.7444
initA	-14.7457
gum	-14.7484
stant	-14.749
outt	-14.7501
=4*	-14.7523
llow	-14.7535
nspec	-14.7541
▁Lo	-14.7593
▁Minn	-14.761
▁scores	-14.7614
3.	-14.763
range	-14.764
])+1	-14.7656
▁kx	-14.7662
34	-14.7668
▁811	-14.7672
3=0	-14.7679
[3][0]	-14.7726
isp	-14.7737
..............	-14.7756
..............|"	-14.7758
sb	-14.7759
kc	-14.7769
isprime	-14.78
▁<0	-14.7809
ref	-14.7838
38	-14.7848
▁Bn	-14.7866
nim	-14.7896
5]	-14.7919
▁70	-14.7977
1_._-1_._0_._	-14.7986
▁mak	-14.7989
99999999	-14.7997
▁isA	-14.8006
▁-4	-14.8006
cntc	-14.8009
▁decrements	-14.8027
'('	-14.8033
tring	-14.8046
▁they	-14.8072
ncan	-14.8099
▁newk	-14.8128
nque	-14.8135
bx	-14.8156
stance	-14.8174
ple	-14.821
nfingers	-14.8217
nju	-14.8233
tims	-14.8236
pas	-14.8254
▁ld	-14.8264
Subs	-14.8292
51	-14.8296
ht	-14.8299
bule	-14.8342
nprim	-14.8349
▁mnj	-14.8357
npapers	-14.8384
ood	-14.8449
resp	-14.8459
▁eleme	-14.8465
cant	-14.8478
▁7.0	-14.8489
nCount	-14.8494
▁+1)	-14.8497
............|"	-14.8498
]_._"	-14.8503
vect	-14.8508
=51	-14.8509
▁five	-14.8512
nhash	-14.852
▁flas	-14.8526
everse	-14.8562
Ha	-14.8573
60000	-14.859
nround	-14.8594
2;	-14.8595
▁mpa	-14.8599
sprime	-14.8673
[5	-14.8693
▁unin	-14.8742
+1))*	-14.8772
nba	-14.8808
▁lk	-14.8842
nrev	-14.8848
valp	-14.8862
ded	-14.8883
=5*1	-14.8885
250	-14.8891
▁ori	-14.8907
40	-14.8926
)/100	-14.8951
-11	-14.8952
2>=	-14.8956
▁newM	-14.9012
divide	-14.9019
0000000	-14.9048
#.#.#.#.#.#.#.|	-14.9066
xt	-14.9097
▁Se	-14.9136
ari	-14.9144
lst	-14.9158
--------+	-14.9175
nuse	-14.9215
&3	-14.9242
ttl	-14.9242
.............|	-14.9296
..............|	-14.9319
ack	-14.932
gcdd	-14.9346
uts	-14.9354
7-	-14.9362
▁_._(	-14.9367
pm	-14.9378
▁ispri	-14.9434
Go	-14.9437
reasing	-14.9461
▁dna	-14.9467
brr	-14.9475
000)	-14.9499
ye	-14.9502
^(	-14.9511
que	-14.9513
10*	-14.9517
228	-14.9529
gt	-14.9554
)^2	-14.9556
0;	-14.9567
00000000000000	-14.9567
ud	-14.9584
5/	-14.9588
▁ot	-14.9613
comp	-14.963
00)	-14.964
nnC	-14.9641
3)_._	-14.9669
▁ii	-14.9691
▁betwee	-14.9728
ngy	-14.9738
main	-14.9743
nmarks	-14.9744
best	-14.9747
]+(	-14.9753
ultimate	-14.976
rtion	-14.977
nmaximum	-14.9785
▁bm	-14.9794
-10)	-14.9803
write	-14.9808
spect	-14.9811
/2)+1)	-14.9835
▁cil	-14.9837
nso	-14.9849
err	-14.9854
ncharacter	-14.9893
terator	-14.9922
nvs	-14.994
pet	-14.9994
tx	-15.0015
datt	-15.0022
#.#.#.|	-15.0064
_3	-15.0067
ers	-15.0115
▁exclusiv	-15.0117
gx	-15.0119
▁cntm	-15.0127
▁*(	-15.0141
609	-15.0146
[2]]	-15.0153
▁wee	-15.0163
8979323846	-15.0163
org	-15.0173
br	-15.0177
▁px	-15.0196
arrays	-15.02
#.#.#.|.|"	-15.0215
pop	-15.0221
▁ip	-15.0223
asc	-15.0226
▁!=0	-15.0242
▁imn	-15.0271
00007	-15.0281
▁fst	-15.0291
fuel	-15.0301
007	-15.0304
▁sd	-15.0321
nels	-15.033
lim	-15.0369
alpha	-15.038
[5][2	-15.0385
666	-15.0406
nnegative	-15.0424
99999999999	-15.0483
nvc	-15.0513
[*	-15.0526
2/	-15.0575
du	-15.0593
▁mint	-15.0609
other	-15.0619
pped	-15.0634
status	-15.0662
vet	-15.0689
contador	-15.0747
hasil	-15.0752
235	-15.0791
nva	-15.0796
100)	-15.0799
▁et	-15.0803
fr	-15.0812
]-1]	-15.0813
npres	-15.0833
▁chm	-15.0851
▁vB	-15.0859
...........|"	-15.0864
▁tou	-15.0873
dam	-15.0891
har	-15.0953
▁exclus	-15.0953
fun	-15.0957
beginning	-15.0963
summ	-15.0968
ill	-15.0975
▁sett	-15.098
uu	-15.099
ndefin	-15.0998
▁fal	-15.1002
jw	-15.1021
▁myS	-15.1022
ncntr	-15.1034
=360	-15.1043
bk	-15.1062
xc	-15.1067
maxs	-15.1098
2=10	-15.1157
▁wy	-15.1161
"0"	-15.118
pposi	-15.1182
............|	-15.1192
][1]][	-15.1228
▁agu	-15.1233
(7	-15.1251
eeded	-15.1267
bo	-15.1276
▁-1000000000000	-15.1278
▁af	-15.1287
inv	-15.1305
"+	-15.1322
▁iterati	-15.1322
▁spe	-15.1342
▁tru	-15.1343
360	-15.1351
aj	-15.1359
▁shif	-15.1366
▁3.0	-15.1376
rowa	-15.1395
100000000	-15.1423
rep	-15.1433
nbst	-15.1439
fuck	-15.1445
ey	-15.1459
3)+	-15.1468
9,	-15.1475
buf	-15.1475
rguments	-15.1495
▁800	-15.1512
▁readin	-15.1513
201_._	-15.152
20_._	-15.1553
vert	-15.1555
▁ending	-15.1558
▁rp	-15.1597
highest	-15.1602
nbig	-15.1614
▁nas	-15.1623
▁tur	-15.1664
sums	-15.1692
▁whi	-15.1705
▁('0'	-15.1729
cters	-15.1744
▁mnb	-15.1753
▁flage	-15.1777
dicate	-15.1789
maxm	-15.1796
freopen	-15.1799
1/3	-15.181
ux	-15.1835
▁-3000	-15.1865
000000000000	-15.187
nMIN	-15.1893
^3	-15.1895
'#'	-15.1908
1])	-15.1947
▁.|.|	-15.1947
welfare	-15.196
Digit	-15.1964
numedges	-15.1974
48	-15.1986
nmo	-15.1988
97	-15.2005
degree	-15.202
nrecur	-15.2035
▁1111111111111	-15.2047
(100000	-15.2058
#.#.#.#.#.#.|.|	-15.2074
000000007	-15.2091
italize	-15.2103
'+'	-15.2125
shit	-15.2163
wei	-15.2175
▁ming	-15.2175
Multipl	-15.2175
▁flo	-15.2177
ord	-15.2188
totalS	-15.2188
9+10	-15.2191
mnm	-15.2217
▁>=1	-15.2229
#.#.#.#.#.|.|	-15.2258
hui	-15.2266
solu	-15.2281
nac	-15.2289
initialize	-15.2292
ping	-15.2294
lft	-15.2301
acc	-15.2318
▁bj	-15.2331
][26]	-15.2375
tank	-15.2378
#.#.#.#.#.#.|.|)	-15.2384
|.|)	-15.2412
▁pich	-15.2414
▁ob	-15.2415
bul	-15.2425
IO	-15.2426
reference	-15.2432
steps	-15.2432
/2+	-15.2433
Integer	-15.2435
cry	-15.2461
#.#.#.#.#.|.|)	-15.2464
13	-15.2471
▁Increme	-15.2484
si	-15.2492
▁ns	-15.2519
)+1)*	-15.2528
study	-15.2541
_8=	-15.2575
banyak	-15.2578
more	-15.2588
qx	-15.2608
360-	-15.2614
nwh	-15.2619
<=10	-15.262
▁361	-15.2625
▁In	-15.2647
sheet	-15.2674
▁(36	-15.2711
▁fals	-15.2714
ength	-15.272
11111	-15.273
keyboard	-15.2731
▁inpu	-15.2743
1)+(	-15.2747
column	-15.2748
rounded	-15.2748
0005]	-15.2749
▁wc	-15.2758
_0_._	-15.276
▁les	-15.2762
cho	-15.2772
Otherwise	-15.2776
nbottle	-15.2781
WINS	-15.2791
1>=0	-15.2821
=1000000000000	-15.2836
isPref	-15.2837
sdfghjkl	-15.2843
nap	-15.2849
▁kan	-15.2878
▁decreme	-15.2878
=0.000000	-15.288
ncon	-15.2881
)<	-15.2882
oolean	-15.289
56	-15.2894
condition	-15.2899
ndecremen	-15.2917
method	-15.2918
contains	-15.2919
ix	-15.2923
zzzzzzzzzz	-15.2924
udmoves	-15.2926
rlmoves	-15.2927
Solve	-15.2961
▁[150][1	-15.2971
largest	-15.2982
▁chil	-15.3
dodec	-15.3006
GCD	-15.3008
2147483647	-15.3011
spyke	-15.3024
0122	-15.3025
nsx	-15.3029
curlower	-15.3034
Need	-15.3045
0.00001	-15.3047
riangle	-15.3048
binary	-15.305
social	-15.3054
choc	-15.3056
candidates	-15.306
chess	-15.3061
lphabet	-15.3064
simon	-15.3066
▁10050	-15.3067
process	-15.307
DFS	-15.3072
primeFactures	-15.3073
32767	-15.3073
▁mu	-15.3075
indefinitely	-15.3075
3.14159	-15.3076
interval	-15.3077
ganjil	-15.3081
criba	-15.3083
jumlahgenap	-15.3087
powmod	-15.309
ndecr	-15.309
query	-15.3093
biaoji	-15.3093
people	-15.3094
ALPH	-15.3094
▁12345678	-15.3097
single	-15.3097
jumlahganjil	-15.3099
LastevenPos	-15.3099
Orange	-15.3099
LastoddPos	-15.31
nearest	-15.31
posiciones	-15.3101
Vector	-15.3101
heap	-15.3101
freefuel	-15.3101
coupons	-15.3102
banknotes	-15.3103
yippee	-15.3103
bByGame	-15.3104
army	-15.3106
PhoneArray	-15.3106
myFile	-15.3107
numberOfLucky	-15.3107
gcdofarray	-15.3107
][0]][	-15.3108
mirror	-15.3109
MODULUS	-15.3109
numWays	-15.311
123456	-15.311
clock	-15.3111
▁0.000	-15.3112
employee	-15.3114
zheng	-15.3116
findfa	-15.3117
nbill	-15.3118
"0123456789"	-15.3118
qingkuang	-15.3118
dependency	-15.3119
blank	-15.3119
walk	-15.3119
except	-15.3119
ivmind	-15.3119
lastZero	-15.312
textVolume	-15.312
minimal	-15.312
wincandidate	-15.3121
kiekis	-15.3121
curDay	-15.3121
qoutplayers	-15.3121
helper	-15.3121
refrence	-15.3122
javob	-15.3122
ranks	-15.3122
reports	-15.3122
0.25)	-15.3122
kvbox	-15.3122
secondPointer	-15.3122
zuida	-15.3122
[101][101]	-15.3123
48620	-15.3123
numOfNet	-15.3123
visitado	-15.3123
unfortunate	-15.3123
dryer	-15.3123
actual	-15.3123
mayor	-15.3124
minbitcoins	-15.3124
Smith	-15.3125
passou	-15.3125
numberOfMove	-15.3125
occurrences	-15.3125
javab	-15.3125
dragon	-15.3126
bohlam	-15.3126
minson	-15.3126
outdeg	-15.3126
bvoric	-15.3127
basura	-15.3127
bhoric	-15.3127
=1000	-15.3127
maohao	-15.3127
mierda	-15.3128
numerador	-15.3128
watched	-15.3128
Pedy	-15.3129
arrSorted	-15.3129
shengyu	-15.313
oroban	-15.313
numhours	-15.313
username	-15.313
menorB	-15.3131
12870	-15.3131
"8<"	-15.3132
lastValid	-15.3132
Data	-15.3134
split	-15.3134
coord	-15.3135
lastrowa	-15.3135
fristOven	-15.3135
wordLen	-15.3135
shelves	-15.3136
reqNo	-15.3137
awal	-15.3137
chore	-15.3139
diamond	-15.3139
pearl	-15.314
galaxy	-15.314
sobuj	-15.3141
jokes	-15.3141
height	-15.3141
studentsRate	-15.3142
qwe	-15.3143
vvod	-15.3145
getNum	-15.3145
cadena	-15.3145
curMin	-15.3145
▁differen	-15.3145
employeenum	-15.3147
links	-15.3148
remaind	-15.3148
perRowColor	-15.3148
nomer	-15.3148
numerator	-15.3148
women	-15.3149
cambio	-15.315
particpant	-15.315
faktori	-15.315
raices	-15.3151
Vcost	-15.3151
searchres	-15.3152
esPrimo	-15.3152
inicial	-15.3155
divisores	-15.3155
nilai	-15.3156
isok	-15.3157
somaPoli	-15.3157
complexity	-15.3157
studentTS	-15.3158
previousConte	-15.3159
chrColor	-15.316
difficulty	-15.3161
isPrimeRoot	-15.3162
qplayers	-15.3164
numero	-15.3165
shap	-15.3166
inilahhasilnya	-15.3166
product	-15.3166
isTwo	-15.3166
zeroCount	-15.3167
fourcount	-15.3168
divUp	-15.3168
MaxNum	-15.3169
gotodown	-15.3169
secnumbs	-15.3172
duplicate	-15.3172
selectionSort	-15.3174
secretaryNum	-15.3174
refused	-15.3174
denominador	-15.3175
programming	-15.3175
ncasos	-15.3176
isThere	-15.3179
3432	-15.318
hcf	-15.3181
reallyans	-15.3184
Wsp	-15.3185
cityNo	-15.3185
newnut	-15.3187
thisChar	-15.3189
modpow	-15.3192
Mcost	-15.3192
totalSalt	-15.3193
xclusive	-15.3194
totalMoves	-15.3194
▁debu	-15.3195
hlp	-15.3197
soroban	-15.3198
massiv	-15.32
digui	-15.3201
defcos	-15.3205
fastio	-15.3206
ofstream	-15.3208
realR	-15.3209
isvowel	-15.3212
=10^1	-15.3214
chocs	-15.3214
maxWord	-15.3214
indpar	-15.3215
testcases	-15.3218
akes	-15.322
satu	-15.3221
tempSame	-15.3222
▁900000000	-15.3229
negativos	-15.3231
segment	-15.3233
leaf	-15.3238
hush	-15.3241
clones	-15.3242
sizeedge	-15.3242
256	-15.3244
relax	-15.3248
sequence	-15.3248
isdigit	-15.3249
onerun	-15.3249
atkm	-15.3249
▁characte	-15.3251
closest	-15.3253
olidays	-15.3255
xecute	-15.3258
isFound	-15.3259
bitcount	-15.3265
invfact	-15.3266
sitch	-15.3272
quare	-15.3273
nstud	-15.3276
lmin	-15.3285
psg	-15.3289
ncontinu	-15.3293
atky	-15.3293
817	-15.3295
lasteven	-15.3296
lastodd	-15.3296
tplays	-15.3299
coty	-15.3306
divisors	-15.3306
uisve	-15.3307
usive	-15.3308
▁9999999999999	-15.3312
kpk	-15.3314
prawa	-15.3322
There	-15.3324
▁execut	-15.3327
curY	-15.3328
nslice	-15.3328
mpty	-15.3329
200001	-15.333
4;	-15.3334
osition	-15.3336
Oddz	-15.3338
▁firs	-15.3342
▁charact	-15.3346
▁writ	-15.3347
move	-15.3353
sisa	-15.3359
sdiag	-15.336
▁primeFacture	-15.336
ncaso	-15.3361
ntermina	-15.3362
▁amo	-15.3366
▁zzzzzzzzzzz	-15.3372
▁1234567	-15.3372
▁reduc	-15.3377
2])	-15.3379
eft	-15.3382
▁respecti	-15.3383
arena	-15.3385
Bwin	-15.3386
▁reflect	-15.3386
▁searc	-15.3387
mainder	-15.3387
odecahedron	-15.3388
nindefinite	-15.3388
▁MODPRIM	-15.3388
ctahedron	-15.3388
etrahedron	-15.3388
▁214748364	-15.3389
nsecretary	-15.3389
glace	-15.3389
jolte	-15.3389
nOtherwi	-15.3389
cosahedron	-15.339
555555555	-15.339
nreflect	-15.339
impossib	-15.339
tialize	-15.339
NextPrime	-15.339
▁Vasili	-15.339
444444444	-15.339
###	-15.339
BYW	-15.339
OfMon	-15.339
ndPointer	-15.339
nvertical	-15.339
▁minCoins	-15.339
▁selection	-15.339
�	-15.339
FFFFFF	-15.339
▁throu	-15.339
ionsDistance	-15.339
▁origin	-15.3391
ninitial	-15.3391
drome	-15.3391
flip	-15.3392
567	-15.3393
▁original	-15.3393
[5002][	-15.3393
GN	-15.3393
1415	-15.3393
locate	-15.3394
ffffffffffffff	-15.3394
ould	-15.3394
▁"0123	-15.3395
nLast	-15.3395
POS	-15.3395
numOfteam	-15.3396
floating	-15.3398
▁respectiv	-15.3398
▁precis	-15.3398
▁55555	-15.3399
signal	-15.3404
feet	-15.3405
ulate	-15.3406
control	-15.3407
▁370	-15.3408
=200000	-15.3411
llest	-15.3413
200005	-15.3413
▁heig	-15.3414
▁betwe	-15.3415
343	-15.3415
ieve	-15.3418
istinct	-15.3418
▁"11111	-15.3419
▁-9	-15.3419
▁esP	-15.342
3276	-15.342
inder	-15.3421
▁setprec	-15.3423
nsides	-15.3425
victim	-15.3427
erce	-15.3427
rused	-15.3428
Test	-15.3429
nrecu	-15.3429
606	-15.343
lute	-15.3431
+0.0	-15.3432
▁follo	-15.3433
nborder	-15.3433
1000*1000	-15.3433
CE	-15.3436
▁tiemp	-15.3436
<=5	-15.3437
360)	-15.344
bills	-15.3444
▁inclus	-15.3444
stexp	-15.3449
GH	-15.3453
notherw	-15.3458
▁rever	-15.3459
11112	-15.3459
1_._0_._0	-15.346
newY	-15.3461
Valid	-15.3465
Hand	-15.3466
8888888	-15.347
cprice	-15.3471
oubles	-15.3473
ncyc	-15.3478
2501	-15.3482
cluisve	-15.3483
aaaab	-15.3486
uck	-15.3486
/6"	-15.3489
toast	-15.349
▁"111111	-15.349
EF	-15.3491
nempt	-15.3494
triangle	-15.3494
0737	-15.3495
nnear	-15.3509
sav	-15.3513
▁[101][1	-15.3515
1-1	-15.352
▁"00:00	-15.3523
▁1234	-15.3525
Gra	-15.3532
5][5]	-15.3532
LE	-15.3533
newX	-15.3535
ugh	-15.3539
Infin	-15.3542
89"	-15.3543
123456789	-15.3544
,0	-15.355
mindist	-15.355
0000][2	-15.3557
▁2333	-15.3561
nterm	-15.3564
▁buck	-15.3564
RAND	-15.3566
cute	-15.3568
months	-15.357
MAXall	-15.3571
▁Dani	-15.3578
▁chai	-15.3578
prevI	-15.3579
"<"	-15.358
drinks	-15.3583
thur	-15.3586
156	-15.3592
njumps	-15.3596
Pol	-15.3596
Ga	-15.3598
nrod	-15.3606
201	-15.3608
▁.|	-15.3615
maap	-15.3616
nnumW	-15.3617
disk	-15.3619
65]	-15.3628
22222	-15.3631
▁decremen	-15.3632
60-	-15.3633
78	-15.3635
▁mnx	-15.3636
levl	-15.3636
00*	-15.3647
ocka	-15.3647
checkdouble	-15.3648
▁argu	-15.3648
ndecl	-15.3651
">"	-15.3653
given	-15.3654
vowels	-15.3679
ug	-15.368
▁mink	-15.3685
▁lexi	-15.3693
boox	-15.3695
osible	-15.3697
▁incl	-15.3702
[0]=5	-15.3705
▁myC	-15.3706
moud	-15.3715
olid	-15.3716
-30	-15.3716
maxim	-15.3726
difB	-15.3729
passed	-15.3731
▁ansa	-15.3732
000006	-15.3741
▁tempr	-15.3749
oard	-15.375
07"	-15.3753
del	-15.3759
mina	-15.3767
posR	-15.3778
Rea	-15.3779
tstudy	-15.3785
eaten	-15.3789
geek	-15.3805
nOp	-15.381
ose	-15.3811
zcost	-15.3814
differ	-15.3816
]-1)*	-15.3847
▁zzzzzzzzzz	-15.3856
lvl	-15.3856
[100001	-15.3858
hot	-15.3859
BW	-15.3866
finder	-15.3869
prazn	-15.3871
prevlen	-15.3872
nchris	-15.3877
▁boo	-15.3881
'3'	-15.3883
TB	-15.3884
▁-999999	-15.3885
RP	-15.3888
build	-15.3892
▁remn	-15.3897
ferent	-15.3897
cha	-15.3901
nmass	-15.3911
600	-15.3919
fpow	-15.3919
lev	-15.3925
maxC	-15.3926
▁betw	-15.3936
1[0]-	-15.3937
06"	-15.3939
veces	-15.3939
7))	-15.3943
4005	-15.3943
ntry	-15.3944
hangx	-15.3946
rings	-15.3947
lowar	-15.3952
5000000	-15.3953
▁seco	-15.3962
('-'	-15.3966
blocks	-15.3977
PR	-15.3979
INFL	-15.3982
%4]	-15.3982
charnum	-15.3984
95	-15.3987
ratios	-15.3996
maxind	-15.3999
OW	-15.4006
▁-10000000	-15.4008
TA	-15.4012
'#	-15.4017
▁111111111	-15.4019
▁frac	-15.4019
GR	-15.4022
▁"...	-15.4032
rimeFactors	-15.4041
LM	-15.4041
Car	-15.4046
shoes	-15.4055
link	-15.4062
flog	-15.407
ank	-15.4077
[10000	-15.4077
▁leve	-15.408
▁mon	-15.408
ything	-15.4083
▁1111111	-15.4089
allA	-15.4099
myv	-15.4103
▁close	-15.4105
multi	-15.4117
ncha	-15.4119
%2=	-15.4123
arya	-15.4131
ndown	-15.4132
▁kle	-15.4134
▁followin	-15.4144
difA	-15.4157
824	-15.4159
ork	-15.4161
20000000	-15.4181
_._0_._1_._1_._	-15.4188
▁imx	-15.4191
ST	-15.4194
▁qa	-15.4195
"[]"	-15.4197
▁group	-15.4199
loss	-15.4205
CB	-15.4216
576	-15.4219
...........|	-15.4224
goal	-15.4242
sh	-15.4246
8-	-15.4247
inpp	-15.4253
clo	-15.4259
tempCount	-15.4259
*6	-15.4268
1222	-15.4271
▁Sa	-15.4281
join	-15.4304
cards	-15.4309
2)%	-15.4315
▁Sta	-15.4325
▁bitsh	-15.4351
did	-15.4357
▁74	-15.4358
qsort	-15.4362
▁hd	-15.4378
isplay	-15.4382
tlen	-15.4382
uper	-15.4409
..........|"	-15.4411
][2]))	-15.4413
▁-500	-15.4419
▁diffe	-15.4421
1000000)	-15.4428
hist	-15.4431
aft	-15.4431
▁11111111	-15.4453
cto	-15.4453
eturn	-15.4457
iterat	-15.4461
^^	-15.4471
▁255	-15.4477
cman	-15.4478
▁squ	-15.4487
▁flagh	-15.4488
3,3	-15.4491
unit	-15.4493
Abs	-15.4493
▁sat	-15.4494
strr	-15.4496
';	-15.4499
CA	-15.4501
▁im	-15.4527
nremain	-15.4537
1)/(	-15.4541
▁-9999	-15.4544
98	-15.4556
cum	-15.456
bt	-15.4561
Ile	-15.4564
▁hex	-15.4566
wen	-15.4573
>10	-15.4573
ast	-15.4577
salt	-15.458
tcases	-15.4583
MO	-15.4584
▁ches	-15.4596
nexe	-15.4598
blep	-15.4609
nhui	-15.4617
cws	-15.4643
vc	-15.4646
maxV	-15.4662
1010	-15.4663
Was	-15.467
▁intp	-15.4683
▁204	-15.4704
nhack	-15.471
▁followi	-15.4721
▁facto	-15.4724
▁252	-15.4727
jmin	-15.4727
▁10004	-15.4754
=-10	-15.4776
ntotalS	-15.4779
▁sav	-15.4786
((-1	-15.479
+1)-	-15.4793
▁border	-15.4795
▁kl	-15.4865
nposR	-15.4867
))/2	-15.4877
nes	-15.4886
ntota	-15.4896
]=5*	-15.49
aria	-15.4901
ec	-15.4902
noff	-15.4903
igned	-15.4915
(3)	-15.4932
divN	-15.4932
▁(1.	-15.4958
sol	-15.4964
_2_._	-15.4977
65358979323846	-15.4977
=200	-15.4992
▁3))	-15.5006
▁instr	-15.5009
emps	-15.5016
▁22_._	-15.502
SC	-15.5066
minD	-15.5067
▁istrue	-15.5074
1[10	-15.5074
jmax	-15.508
▁county	-15.5092
.|.|)	-15.5103
nwhi	-15.5106
▁mnts	-15.5125
30000	-15.5137
▁555	-15.5138
fl	-15.5152
8+	-15.5162
ove	-15.5173
▁64_	-15.5177
]=100	-15.5184
RS	-15.5186
coin	-15.5231
▁sch	-15.5235
nfuck	-15.5237
wr	-15.524
▁nnl	-15.5244
nminv	-15.5244
=50	-15.5253
icates	-15.5272
sqr	-15.5291
]/2)	-15.5322
6+	-15.5329
getprime	-15.5345
cmd	-15.5347
PA	-15.5357
nloaded	-15.5368
▁1020	-15.5373
{1	-15.5373
▁2-	-15.5379
ncard	-15.5384
nwei	-15.5392
-20	-15.5395
ycost	-15.5397
nwas	-15.541
79	-15.5412
▁minv	-15.5414
901	-15.5416
ccws	-15.5426
hashi	-15.5429
nyth	-15.5443
norg	-15.5466
=10000000	-15.5479
127	-15.55
▁alphabet	-15.5501
sudah	-15.5502
"()"	-15.5559
▁whic	-15.5583
nbot	-15.5588
nsumx	-15.5615
olds	-15.5618
890	-15.5645
▁As	-15.565
ides	-15.5667
99_._	-15.5697
esq	-15.5716
eSort	-15.5726
iv	-15.5732
qi	-15.5744
▁((10	-15.5748
countE	-15.5761
5/6	-15.5772
tract	-15.5795
▁))	-15.5815
-1]=	-15.5817
codes	-15.5841
sc	-15.5861
nbus	-15.587
▁!"	-15.5891
qbe	-15.5895
cz	-15.591
Result	-15.591
ost	-15.5912
ob	-15.5912
1]<	-15.5953
1*1	-15.5973
OfEratosthenes	-15.5973
nfa	-15.5982
2-1	-15.5991
▁recurs	-15.6007
▁lu	-15.6024
di	-15.6028
ncy	-15.6044
inary	-15.6082
▁tables	-15.609
maxd	-15.6094
nslen	-15.6112
▁totalS	-15.6114
nothe	-15.6116
sumz	-15.6129
tra	-15.6129
2)*	-15.6132
ope	-15.6149
nsec	-15.6161
▁2.	-15.6176
▁arx	-15.6182
000007)	-15.6183
couting	-15.6191
_64_	-15.6199
nkt	-15.6234
▁10002	-15.6275
▁97)	-15.6281
▁100000001	-15.6281
▁-99	-15.6298
327	-15.6327
▁alen	-15.6332
1][26]	-15.6339
minval	-15.6342
926	-15.6356
▁conta	-15.6422
▁ston	-15.6429
sym	-15.6447
20001	-15.6467
factors	-15.6471
mcd	-15.6473
nchan	-15.6511
sumD	-15.6535
▁1999	-15.6548
how	-15.655
umberOfElements	-15.6551
▁'9')	-15.6584
[1]=0	-15.6586
ncaptain	-15.6597
nite	-15.6617
]/3	-15.6629
▁isit	-15.6657
nsw	-15.6663
":	-15.6686
Bu	-15.6689
lay	-15.6709
▁2003	-15.6715
0"_._	-15.6751
_._0)	-15.6751
rease	-15.6763
1][1])	-15.681
▁tempo	-15.6837
"^	-15.6853
=-1,	-15.6857
[2][2	-15.6881
reme	-15.6882
▁setI	-15.6913
▁82	-15.6914
zz	-15.6918
Co	-15.6944
Minv	-15.6946
▁MA	-15.6955
1023	-15.698
;"	-15.7005
miss	-15.7014
arguments	-15.7019
▁sL	-15.7028
suma	-15.7033
▁90000	-15.7036
npage	-15.7039
nlc	-15.704
osi	-15.7051
▁Fin	-15.7071
▁nM	-15.7075
▁aend	-15.7088
(!	-15.7125
924	-15.7172
▁rou	-15.7179
82	-15.7213
nxor	-15.7227
▁3001	-15.7229
ats	-15.7233
720	-15.724
(1.	-15.7257
ray	-15.7316
▁,	-15.7372
coA	-15.7376
▁":	-15.738
▁"32	-15.7404
ui	-15.7418
▁tw	-15.7431
-10000	-15.7433
~	-16.7246
