<pad>	0
<s>	0
</s>	0
<unk>	0
\	-2.11457
n	-3.07383
;	-3.12012
▁=	-3.38483
▁(	-3.63583
i	-3.66158
▁	-3.75544
}	-3.79031
▁i	-3.8453
▁{	-3.87771
▁<<	-3.93407
=	-4.06795
▁<	-4.09684
[	-4.14274
▁0;	-4.26003
▁>>	-4.2688
_._	-4.31156
▁n	-4.42457
nif	-4.4843
nint	-4.49104
▁+	-4.64899
)	-4.68644
ncout	-4.69505
nfor	-4.70549
int	-4.7355
▁a	-4.76693
]	-4.80963
▁-	-4.81073
(	-4.83004
++)	-4.87642
▁endl	-4.90235
ncin	-4.92763
>	-5.04238
nreturn	-5.15396
▁1;	-5.16367
▁j	-5.20266
▁s	-5.22499
▁main	-5.23563
#	-5.23696
▁std	-5.24026
pace	-5.24167
ude	-5.24229
▁names	-5.24231
ostream	-5.24493
▁"	-5.26048
▁b	-5.26406
ncl	-5.36079
a	-5.37122
▁int	-5.40938
▁long	-5.41324
▁x	-5.49479
long	-5.52535
▁m	-5.53224
▁*	-5.55267
j	-5.5854
▁k	-5.59678
.	-5.61345
()	-5.63612
▁>	-5.66449
▁c	-5.68546
];	-5.7207
(){	-5.76467
s	-5.78083
ing	-5.82132
▁0)	-5.82747
nus	-5.82791
1	-5.82995
▁%	-5.85301
"	-5.85749
▁/	-5.87185
);	-5.88237
▁&	-5.90418
&	-5.90913
▁else	-5.92237
nelse	-5.92865
++;	-5.92922
▁ans	-5.93661
==	-5.93912
x	-5.99965
▁y	-6.01767
2	-6.02062
nu	-6.02206
sing	-6.05876
▁t	-6.10378
▁1)	-6.12127
ile	-6.18589
nwh	-6.19547
▁'	-6.24706
▁0	-6.2697
_	-6.28638
▁1	-6.30696
▁!	-6.31263
▁d	-6.35711
▁}	-6.38579
▁if	-6.42558
▁2	-6.42915
t	-6.46574
b	-6.48206
,	-6.48711
▁p	-6.50032
][	-6.50978
nstring	-6.51215
";	-6.54956
▁l	-6.57555
size	-6.59758
();	-6.61498
▁sum	-6.63465
▁v	-6.67587
k	-6.6952
▁r	-6.70773
▁2;	-6.7094
nans	-6.78396
▁1]	-6.84104
▁min	-6.84724
1_._	-6.84928
<	-6.86098
▁max	-6.86182
])	-6.86737
c	-6.87931
▁cin	-6.88196
0_._	-6.8864
▁cout	-6.92101
||	-6.94134
l	-6.95972
▁arr	-6.97296
[0]	-7.00213
y	-7.00871
m	-7.00943
▁++	-7.01541
NO	-7.02757
▁2)	-7.08167
▁cnt	-7.13286
YES	-7.14466
nbreak	-7.15301
na	-7.18602
p	-7.18981
')	-7.24193
▁str	-7.24918
nc	-7.25497
r	-7.25719
f	-7.27295
';	-7.28093
▁f	-7.28346
--)	-7.33809
▁true	-7.37011
3	-7.372
nchar	-7.39619
ans	-7.40865
--;	-7.4121
nsum	-7.41333
bool	-7.41947
cin	-7.43335
▁num	-7.44099
2;	-7.44492
e	-7.4475
[1]	-7.45754
▁q	-7.45892
push	-7.45901
v	-7.46083
▁false	-7.48655
nx	-7.49561
'	-7.50005
▁return	-7.5064
back	-7.51682
▁res	-7.54151
ns	-7.54171
▁count	-7.57266
length	-7.58033
▁((	-7.59108
▁temp	-7.59859
d	-7.60429
nb	-7.61219
nvector	-7.63626
nsort	-7.65483
cl	-7.65682
arr	-7.68038
str	-7.70616
▁z	-7.71155
2)	-7.72553
▁abs	-7.74262
▁3;	-7.75337
▁10;	-7.77093
in	-7.78183
▁flag	-7.78236
))	-7.78525
▁h	-7.82426
sum	-7.82939
▁w	-7.8313
end	-7.83521
nt	-7.85042
▁(!	-7.85902
begin	-7.86058
]);	-7.89748
▁len	-7.90048
▁1);	-7.92294
▁10	-7.93228
1;	-7.94507
▁-1	-7.99799
u	-8.0027
char	-8.02171
A	-8.0338
")	-8.04036
▁:	-8.04836
▁break	-8.05231
?	-8.05323
▁N	-8.05724
nm	-8.06026
ontinue	-8.06337
cnt	-8.06669
▁1])	-8.07436
▁mod	-8.07833
ncons	-8.07887
].	-8.0968
[2]	-8.10416
));	-8.10526
flag	-8.10817
▁'\	-8.10828
++	-8.1265
void	-8.1358
ncnt	-8.16421
ny	-8.17252
▁3	-8.17442
1)	-8.18495
string	-8.20838
nk	-8.21557
▁e	-8.2273
1[	-8.22989
▁4;	-8.24213
());	-8.2454
nflag	-8.24813
set	-8.24902
▁dp	-8.25686
▁ch	-8.26023
▁-1;	-8.26649
▁A	-8.27274
num	-8.27841
▁4	-8.28526
▁"\	-8.30265
np	-8.30275
())	-8.32866
▁5;	-8.3288
▁g	-8.33044
▁tmp	-8.34798
nd	-8.34798
▁gcd	-8.3632
N	-8.36541
▁1];	-8.38317
nr	-8.38356
h	-8.38478
▁sizeof	-8.39471
▁u	-8.40209
o	-8.4028
q	-8.4124
len	-8.42025
▁3)	-8.42175
nmem	-8.42411
nv	-8.42442
z	-8.43825
▁1][	-8.44535
D	-8.44537
nl	-8.46924
temp	-8.47228
2[	-8.47868
▁mx	-8.50562
("	-8.52222
second	-8.54607
abs	-8.5476
");	-8.55554
nres	-8.56292
max	-8.57296
▁st	-8.58204
first	-8.61726
count	-8.62053
[3]	-8.62363
R	-8.62736
]++;	-8.62753
insert	-8.63007
ch	-8.63155
▁7;	-8.63963
nf	-8.6483
S	-8.66478
ncount	-8.6832
0	-8.68376
▁get	-8.69294
pos	-8.70553
min	-8.70592
maxn	-8.71037
nmap	-8.71661
B	-8.72748
O	-8.74159
inc	-8.75713
nputs	-8.75754
▁5	-8.78453
▁mp	-8.81323
w	-8.8201
▁1))	-8.82537
▁S	-8.82941
find	-8.83683
▁8;	-8.83754
g	-8.84129
▁mid	-8.84671
double	-8.84683
▁-1)	-8.87355
[0];	-8.88298
res	-8.89813
ntemp	-8.90286
1.	-8.90747
▁MOD	-8.91385
L	-8.91729
▁'0')	-8.93307
▁pos	-8.94298
nst	-8.95831
nnum	-8.95908
▁'0';	-8.96486
9	-8.98369
▁M	-8.98381
▁ar	-8.98582
nset	-8.98874
▁7	-8.98919
MAX	-8.99118
][0]	-8.99177
']	-8.9945
substr	-8.9955
narr	-9.00148
▁'0'	-9.00548
ne	-9.02049
▁{0}	-9.02372
▁B	-9.03983
T	-9.04652
"_._	-9.04666
nco	-9.04752
▁solve	-9.04812
st	-9.0495
▁2);	-9.05905
ni	-9.06152
▁T	-9.06778
▁6;	-9.087
▁10)	-9.0965
<<	-9.1012
dp	-9.10151
1++;	-9.10914
[4]	-9.10932
vis	-9.11591
LL	-9.11787
▁val	-9.13046
ndp	-9.13207
3;	-9.13731
(0);	-9.14317
▁5)	-9.18276
--	-9.18342
▁double	-9.18758
C	-9.19945
mp	-9.20211
▁2]	-9.20368
▁and	-9.20577
Yes	-9.20777
▁4)	-9.20995
check	-9.21279
No	-9.22076
▁total	-9.22816
▁L	-9.23421
▁check	-9.24158
▁result	-9.24669
-	-9.24855
nmp	-9.25096
[5]	-9.26239
[105]	-9.27108
2);	-9.27405
tmp	-9.28311
[0])	-9.29656
▁'-')	-9.30587
▁7)	-9.30653
▁cur	-9.31649
I	-9.31993
]]	-9.32337
▁'1')	-9.32615
▁swap	-9.33245
nq	-9.33665
▁"-1"	-9.348
▁INT	-9.35082
4	-9.35275
[1])	-9.35898
"]	-9.35979
▁dfs	-9.3646
signed	-9.37374
▁vis	-9.37909
▁"0"	-9.37988
M	-9.38655
][1]	-9.38813
0;	-9.39313
['	-9.39508
▁"";	-9.39745
▁ok	-9.39751
U	-9.40151
▁ret	-9.42014
▁|	-9.42054
3)	-9.42312
cur	-9.42797
▁ss	-9.43264
3_._	-9.43888
ng	-9.44201
++]	-9.45882
▁P	-9.46424
▁"*";	-9.47242
▁100;	-9.47284
2++;	-9.47814
▁R	-9.47938
▁name	-9.48951
pair	-9.49063
((	-9.49333
▁C	-9.49607
▁prime	-9.49899
erase	-9.50078
▁sqrt	-9.50943
▁now	-9.52007
▁counter	-9.52077
▁last	-9.53333
["	-9.55208
gcd	-9.55245
ok	-9.56191
[100]	-9.56309
nw	-9.57112
nmax	-9.58865
G	-9.59567
nz	-9.59952
▁it	-9.60751
▁vec	-9.60871
2.	-9.61073
▁xx	-9.61203
it	-9.61314
nh	-9.61395
▁maxx	-9.62416
1);	-9.62614
now	-9.6286
▁'9')	-9.63404
mx	-9.63556
▁K	-9.63766
▁"#";	-9.65245
▁o	-9.6607
▁ma	-9.666
▁1000;	-9.6678
▁INF	-9.67717
nj	-9.68194
▁'+')	-9.6843
pop	-9.68541
K	-9.68716
X	-9.68884
[101]	-9.68911
ar	-9.69304
[6]	-9.69792
▁tot	-9.70355
[1];	-9.71846
start	-9.72015
[10]	-9.72267
if	-9.724
5	-9.7272
MAXN	-9.73261
▁26;	-9.73483
▁input	-9.7358
▁'*')	-9.73745
1[0]	-9.74693
]))	-9.75156
ngetli	-9.76026
prime	-9.76047
▁cont	-9.7634
▁ceil	-9.76494
▁row	-9.7652
▁aux	-9.76947
▁dy	-9.76973
▁"1"	-9.77847
cout	-9.77855
nmin	-9.78101
out	-9.78143
▁new	-9.78213
iterator	-9.78412
▁6	-9.79763
>::	-9.80902
▁(2	-9.81719
{	-9.82273
[3];	-9.82769
nreverse	-9.82794
]]++;	-9.82825
line	-9.83649
W	-9.8436
top	-9.84822
▁(1)	-9.8485
▁left	-9.85638
▁100	-9.8572
[1000]	-9.86119
▁1000000007;	-9.87296
▁'.')	-9.87516
ntotal	-9.87896
index	-9.88041
nch	-9.8813
F	-9.88549
ntmp	-9.88685
▁^	-9.89004
▁12;	-9.89459
P	-9.90117
▁second	-9.91035
empty	-9.91115
▁start	-9.91202
▁yy	-9.91268
npos	-9.91817
->	-9.92265
▁__	-9.92271
▁minn	-9.92551
▁read	-9.92833
ndfs	-9.92867
cmp	-9.93015
nmx	-9.93061
▁cost	-9.94067
▁index	-9.9455
▁MAX	-9.94728
[1005]	-9.94759
▁time	-9.94859
▁maxi	-9.95152
nvis	-9.95354
▁8	-9.95483
[2])	-9.95793
▁right	-9.98126
[110]	-9.98306
+	-9.98581
at	-9.98888
1[1]	-9.98896
▁9;	-9.99466
idx	-9.99472
▁col	-9.99787
▁ara	-10.0045
Z	-10.0132
▁6)	-10.0133
▁inf	-10.014
▁answer	-10.0162
▁pow	-10.0192
mid	-10.0212
[100005]	-10.0248
nstr	-10.0272
▁maxn	-10.0274
val	-10.0321
(2	-10.0354
▁number	-10.0406
V	-10.041
▁".";	-10.0429
▁60	-10.0501
▁mn	-10.0521
[0][0]	-10.0531
]--;	-10.0545
true	-10.0579
ron	-10.0656
▁8)	-10.0661
▁'1'	-10.0695
Y	-10.0717
hed	-10.0731
nswap	-10.0732
▁'#')	-10.0826
row	-10.0921
▁string	-10.0937
▁1]);	-10.096
Q	-10.0995
▁X	-10.1011
▁(1	-10.11
Friendship	-10.1131
▁lcm	-10.1188
cos	-10.1343
[2];	-10.1347
name	-10.1377
xx	-10.1386
[0][	-10.139
▁'#';	-10.1396
▁(((	-10.1431
1]	-10.1442
nresult	-10.1558
▁first	-10.1582
▁co	-10.1592
9;	-10.1596
nnow	-10.1673
▁D	-10.1698
▁dist	-10.1712
▁diff	-10.1737
▁pre	-10.1903
▁ct	-10.1931
clea	-10.1992
mark	-10.2109
Second	-10.2117
nok	-10.2144
▁find	-10.2169
mod	-10.2296
▁"-1	-10.2298
ncur	-10.233
First	-10.2348
▁idx	-10.2369
::	-10.2389
last	-10.2391
▁step	-10.2396
▁word	-10.2402
[4];	-10.2486
▁base	-10.2493
▁0))	-10.2524
▁2))	-10.2631
▁G	-10.269
float	-10.2733
make	-10.2744
-|	-10.2803
col	-10.2815
▁value	-10.2843
▁prev	-10.2875
nget	-10.2887
time	-10.2899
▁'(')	-10.2935
64_	-10.2949
day	-10.2962
!"	-10.2979
RIGHT	-10.2984
▁my	-10.3028
2]	-10.3042
return	-10.3061
▁'*';	-10.3128
rock	-10.3131
2))	-10.3134
▁power	-10.3166
no	-10.3196
is	-10.3198
'_._	-10.3203
▁'\0';	-10.3238
[0][1]	-10.3247
digit	-10.325
▁char	-10.3299
▁one	-10.33
npair	-10.3302
▁20;	-10.3305
nsolve	-10.3312
▁curr	-10.3331
▁"-	-10.3372
▁mm	-10.3404
▁'1';	-10.3406
paper	-10.3442
▁V	-10.3464
le	-10.3591
maxx	-10.3658
input	-10.3665
▁H	-10.3767
▁end	-10.3775
0)	-10.3793
▁'0');	-10.3798
');	-10.3802
▁dif	-10.3813
or	-10.3816
[100000]	-10.3841
ss	-10.3866
▁dx	-10.3867
▁'.';	-10.3873
[1001]	-10.3938
tolower	-10.3954
nval	-10.3967
pow	-10.4015
▁100)	-10.4055
▁Max	-10.4132
front	-10.4148
*	-10.416
[26]	-10.4163
get	-10.4247
▁1000	-10.4257
precision	-10.4338
LEFT	-10.4338
ntot	-10.4349
[1][	-10.4437
nA	-10.4475
value	-10.4492
SEGMENT	-10.4539
▁9)	-10.4544
left	-10.4587
ngets	-10.4619
▁sz	-10.462
PRINT	-10.4641
OOOO	-10.4644
Time	-10.4651
▁bb	-10.4654
[8]	-10.468
nline	-10.4713
▁mark	-10.4739
]])	-10.4743
DOWN	-10.4745
UP	-10.4746
▁rem	-10.4763
ue	-10.4767
▁price	-10.4777
▁mini	-10.4822
▁div	-10.4827
▁9	-10.4859
nlast	-10.4926
ncounter	-10.4934
[3])	-10.4961
▁26	-10.4984
']++;	-10.5002
▁cmp	-10.5068
nret	-10.5149
re	-10.5175
ncon	-10.518
▁3);	-10.5221
|	-10.5225
▁'4'	-10.5245
▁data	-10.5272
[7]	-10.5276
▁11;	-10.5278
else	-10.528
6	-10.5284
▁(!(	-10.5337
▁or	-10.5357
▁200;	-10.5381
diff	-10.5411
[]	-10.5438
▁10);	-10.5462
('	-10.5469
][1];	-10.548
vec	-10.5588
ret	-10.5618
▁Y	-10.5626
visited	-10.5648
▁'8')	-10.5688
element	-10.5698
sors	-10.5741
id	-10.5754
▁dis	-10.5803
total	-10.5818
puts	-10.5885
ncheck	-10.5888
▁tb	-10.5892
[3][3]	-10.5915
nn	-10.5921
▁'4')	-10.5968
▁test	-10.5971
▁fb	-10.5984
nexit	-10.6009
ara	-10.6038
ma	-10.6049
▁low	-10.6052
▁1));	-10.6104
▁adj	-10.6107
▁mi	-10.6112
▁'7')	-10.6132
ntinue	-10.6145
▁998244353	-10.618
TRIANGLE	-10.6191
fa	-10.6219
▁ex	-10.6292
▁(0);	-10.6298
4;	-10.6303
2[0]	-10.6344
▁12	-10.6351
▁day	-10.6383
OO	-10.6386
▁"|";	-10.6386
▁"0";	-10.6433
nmaxx	-10.6491
▁table	-10.653
▁high	-10.6561
open	-10.6573
▁next	-10.6574
number	-10.6636
▁0);	-10.6682
OOO	-10.6682
es	-10.6699
ndo	-10.6714
2(	-10.6715
▁top	-10.6742
▁(180	-10.6771
▁15)	-10.6799
▁4);	-10.6808
counter	-10.6827
aux	-10.6837
nS	-10.6847
7	-10.685
▁two	-10.6868
ear	-10.6881
▁'?')	-10.6884
▁to	-10.6899
▁line	-10.6921
▁"0	-10.6936
ncont	-10.7007
tot	-10.7077
nlen	-10.7142
][2]	-10.7144
ios	-10.7217
▁";	-10.7244
▁score	-10.7261
right	-10.7262
[0]);	-10.7262
▁pr	-10.732
reg	-10.7331
▁60;	-10.7335
result	-10.7349
[200]	-10.7353
ind	-10.7375
nindex	-10.7425
▁primes	-10.7463
black	-10.747
▁ind	-10.7494
curr	-10.7508
nma	-10.7515
[1][0]	-10.7553
of	-10.7594
red	-10.7595
Correct	-10.7604
▁hh	-10.7627
[1][1]	-10.7686
▁judge	-10.774
▁minx	-10.7769
up	-10.7773
for	-10.7775
▁size	-10.7805
▁tt	-10.7808
▁fast	-10.7816
co	-10.782
exp	-10.7824
MIN	-10.7826
▁cal	-10.7849
[10000]	-10.7867
(1	-10.7881
ncost	-10.7887
▁output	-10.7924
▁W	-10.7925
▁tc	-10.7939
▁fa	-10.7961
▁30	-10.7971
▁ty	-10.7971
win	-10.7991
▁--	-10.8009
nanswer	-10.8014
IMPOSSIBLE	-10.8027
▁add	-10.8052
ll	-10.8086
head	-10.8107
vector	-10.8177
▁':')	-10.8198
chest	-10.8224
▁vv	-10.8266
op	-10.8284
▁31	-10.8329
▁da	-10.8333
▁E	-10.835
▁"/"	-10.8354
][1])	-10.8364
TE	-10.8403
E	-10.8429
▁qm	-10.8446
upper	-10.8451
sqrt	-10.8452
▁12)	-10.8497
▁1][0]	-10.8498
cpy	-10.8505
txt	-10.8534
(3	-10.8534
▁32;	-10.8566
▁op	-10.8567
[2	-10.8599
sci	-10.8613
dif	-10.8632
(0	-10.8738
▁id	-10.8739
▁(360	-10.8772
io	-10.8795
▁out	-10.88
▁48;	-10.8802
▁')')	-10.8811
▁mat	-10.8815
▁sol	-10.8882
nday	-10.8911
data	-10.892
0];	-10.892
nprev	-10.896
[100001]	-10.896
blue	-10.8987
nque	-10.9012
▁freq	-10.9037
nM	-10.9045
▁Min	-10.9058
[30]	-10.9074
>>	-10.91
▁Q	-10.9112
▁20)	-10.9112
stream	-10.9117
ncurr	-10.9128
▁"2"	-10.9194
▁2])	-10.9351
▁fixed	-10.9385
▁inp	-10.9407
nmn	-10.9412
3);	-10.9417
)(	-10.9419
[0].	-10.9442
[1]);	-10.946
nar	-10.9467
▁eps	-10.9471
biceps	-10.9492
ntime	-10.95
step	-10.9503
▁100000;	-10.9554
ALMOST	-10.958
PS	-10.9586
[5][5]	-10.9588
▁15	-10.9601
cost	-10.9609
▁go	-10.9611
▁magic	-10.9614
tr	-10.9615
][0];	-10.9623
3))	-10.9631
[11]	-10.9632
▁-1}	-10.969
▁25	-10.9695
18;	-10.9707
▁WINS	-10.9761
cw	-10.9765
AM	-10.9766
▁1][1]	-10.9827
▁5]	-10.9844
found	-10.9848
▁np	-10.9853
nss	-10.9853
getli	-10.9863
▁init	-10.9885
(0)	-10.9891
▁pq	-10.9891
ninit	-10.991
Mahmoud	-10.9922
Mishka	-10.9922
Ehab	-10.9922
Chris	-10.9922
[1010]	-10.993
▁'+';	-10.9941
[51]	-10.9949
1};	-10.9954
nfast	-11.0017
2[1])	-11.0068
ccw	-11.0083
rat	-11.0084
map	-11.0086
▁win	-11.0136
[++	-11.014
▁250)	-11.0151
▁cc	-11.016
▁1]))	-11.0199
▁qr	-11.0206
▁is	-11.0206
▁cek	-11.0209
[2][1]	-11.0209
bound	-11.0212
low	-11.0215
npr	-11.0231
next	-11.026
("-1")	-11.0278
pt	-11.0283
pre	-11.0286
toupper	-11.0287
one	-11.0304
Power	-11.0327
▁match	-11.0356
green	-11.0412
iste	-11.0433
▁calc	-11.0433
used	-11.0435
[105][105]	-11.0463
visit	-11.0469
nin	-11.0481
▁current	-11.0511
▁need	-11.053
▁30;	-11.0559
▁nums	-11.0583
color	-11.0583
ation	-11.0611
[20]	-11.0622
White	-11.0643
▁kol	-11.0723
5;	-11.0745
▁kk	-11.0746
▁db	-11.0806
▁lo	-11.0809
Akshat	-11.0832
▁keyboard	-11.0845
[0][2]	-11.0845
▁greater	-11.0861
▁MAXN	-11.0886
yes	-11.0891
▁2];	-11.091
[100010]	-11.0929
▁'9'	-11.0941
▁father	-11.0957
▁1].	-11.096
Black	-11.1024
[9]	-11.1037
et	-11.1053
(1);	-11.1054
:	-11.1077
ct	-11.1097
woman	-11.1104
()));	-11.1111
▁48	-11.1122
child	-11.1129
cont	-11.1163
yy	-11.1199
isprime	-11.121
Malvika	-11.122
(-1.0	-11.1223
!^^"	-11.1225
RU	-11.123
▁ql	-11.1233
▁color	-11.1248
▁digit	-11.1274
names	-11.1293
▁the	-11.1295
▁array	-11.1329
▁sub	-11.1378
nprint	-11.1435
nfre	-11.1446
▁"1	-11.1453
Oh	-11.1457
lo	-11.1478
[55]	-11.1482
▁'<')	-11.1499
▁"|	-11.1532
Max	-11.1537
▁'?'	-11.1537
▁{-1	-11.1553
▁distance	-11.1553
hi	-11.1565
nmark	-11.1579
prev	-11.1591
▁brr	-11.1608
▁grid	-11.1621
Impossible	-11.1624
Incorrect	-11.1624
▁hate	-11.1655
que	-11.1688
▁50	-11.1718
▁dig	-11.172
turn	-11.1762
]));	-11.1777
nrow	-11.1789
H	-11.1807
▁fin	-11.1809
CHA	-11.1834
nminn	-11.1841
6;	-11.1847
1))	-11.1851
▁ed	-11.1879
▁re	-11.1919
▁resp	-11.1946
rem	-11.1953
minn	-11.1968
▁'.'	-11.1973
▁best	-11.199
ac	-11.2012
ntest	-11.2022
▁make	-11.2026
graph	-11.2045
▁work	-11.2049
UL	-11.2056
▁'/')	-11.211
▁level	-11.215
DR	-11.2173
ex	-11.2177
ceil	-11.2179
[12]	-11.2187
[2][0]	-11.2198
[1][2]	-11.222
LU	-11.2232
npre	-11.2253
Danik	-11.2263
Grades	-11.2263
Anton	-11.2263
[101][101]	-11.2265
▁dir	-11.2268
LD	-11.2278
▁lower	-11.2279
mymap	-11.2285
RD	-11.229
▁point	-11.2296
ngoto	-11.23
(-1);	-11.2313
▁Arr	-11.2339
RE	-11.2353
▁'|'	-11.2376
Oct	-11.238
(10	-11.2392
};	-11.2414
]];	-11.2418
▁10000;	-11.2431
▁points	-11.2435
[50]	-11.2438
▁gu	-11.2448
▁up	-11.2457
position	-11.2476
▁1000000007	-11.2484
de	-11.2488
nput	-11.2488
][0])	-11.2489
etra	-11.2504
▁'5')	-11.2509
nleft	-11.2512
▁yu	-11.2522
half	-11.2524
▁cy	-11.2529
▁1.0	-11.2548
▁log	-11.2554
"\	-11.2574
▁"5"	-11.2591
▁1000000;	-11.2597
▁pref	-11.2623
come	-11.2629
2[0])	-11.2641
judge	-11.2656
▁suma	-11.2671
▁mult	-11.2695
▁MIN	-11.2698
Reality	-11.2712
Soul	-11.2712
IG	-11.2717
HER	-11.2718
Mind	-11.2722
unique	-11.2745
[10][10]	-11.2766
▁isprime	-11.2768
▁floor	-11.2794
][2];	-11.2796
10	-11.2804
▁11)	-11.2839
▁'*'	-11.2881
white	-11.2888
Div	-11.289
word	-11.2892
▁10]	-11.2915
Ans	-11.2915
▁cou	-11.2931
short	-11.2948
nmaxi	-11.2951
▁letter	-11.2956
1][	-11.297
▁sb	-11.2976
-9	-11.2982
us	-11.2986
▁(*	-11.3004
IM	-11.3027
▁used	-11.3037
[2][2]	-11.3046
Ron	-11.3047
sz	-11.3047
▁zero	-11.3055
▁sy	-11.3055
▁br	-11.3062
▁mas	-11.3069
▁found	-11.3074
cis	-11.3087
▁"?"	-11.3115
[102]	-11.3125
▁Number	-11.3135
days	-11.3149
8	-11.3182
Karen	-11.3183
Penny	-11.3183
Howard	-11.3183
▁arg	-11.3193
nB	-11.3207
▁1000000007)	-11.3219
▁book	-11.3224
maxi	-11.3225
▁"#.	-11.3225
▁po	-11.323
orange	-11.3242
▁can	-11.3247
on	-11.3248
Vasya	-11.3259
▁1]++;	-11.3284
▁coun	-11.3288
▁fl	-11.3288
nidx	-11.3299
sp	-11.3306
Misha	-11.3323
][3]	-11.3346
▁wh	-11.3399
Leonard	-11.3427
Rajesh	-11.3427
Sheldon	-11.3427
mat	-11.3467
se	-11.3478
yellow	-11.3506
nrem	-11.353
Space	-11.3533
sort	-11.3537
dx	-11.356
nct	-11.3571
nmid	-11.3577
1];	-11.3625
log	-11.3639
J	-11.364
▁fact	-11.3646
▁48);	-11.365
▁'8'	-11.3658
purple	-11.3677
▁con	-11.3677
▁mul	-11.3704
▁F	-11.3717
ndis	-11.3738
▁sieve	-11.3742
lower	-11.3746
table	-11.3758
mini	-11.3773
!	-11.3806
▁blue	-11.3843
▁hi	-11.3873
.";	-11.3892
[1].	-11.3898
▁ay	-11.3906
▁upper	-11.3915
▁big	-11.3929
[1000005]	-11.3933
Tie	-11.3935
nstep	-11.3936
▁valid	-11.3967
▁'[')	-11.3981
[2][	-11.3986
▁joy	-11.3993
▁tp	-11.3995
[60]	-11.4005
level	-11.4007
nlo	-11.4029
▁'>')	-11.4029
[201]	-11.4042
▁visit	-11.4051
▁isPrime	-11.4058
▁"+";	-11.4073
captain	-11.4111
▁tam	-11.4131
ITH	-11.4157
nread	-11.417
▁48)	-11.4182
▁dem	-11.4195
ck	-11.42
▁aa	-11.4205
▁1000000009;	-11.4245
▁13)	-11.4254
▁"+	-11.4269
naux	-11.4272
▁year	-11.4287
▁print	-11.4297
noutput	-11.4311
endl	-11.4316
rr	-11.4319
▁pw	-11.4348
▁length	-11.4355
▁days	-11.4356
▁maximum	-11.4358
cek	-11.4379
odec	-11.4395
▁22)	-11.4415
undefined	-11.4467
score	-11.4491
home	-11.4497
act	-11.4499
price	-11.4502
ta	-11.4508
points	-11.4516
▁ele	-11.4543
hash	-11.4553
freq	-11.4585
sign	-11.4592
[2]))	-11.4595
rlen	-11.4609
odd	-11.4612
er	-11.4618
▁"#	-11.4629
2[1]	-11.4662
Sum	-11.467
▁var	-11.4681
▁pri	-11.4681
."	-11.469
▁rec	-11.4701
▁tx	-11.4706
Alice	-11.4744
Equal	-11.4744
Bob	-11.4745
▁times	-11.4757
chair	-11.4759
buil	-11.4761
ncol	-11.477
▁lb	-11.4772
▁":"	-11.4792
▁tem	-11.4798
npriority	-11.4807
▁love	-11.4826
nvec	-11.4836
father	-11.4841
▁97;	-11.4846
nstack	-11.4846
▁def	-11.4866
▁comp	-11.4882
▁'7'	-11.4888
▁fun	-11.4892
plus	-11.4893
▁5);	-11.4905
mm	-11.4915
▁has	-11.4946
▁I	-11.4952
ncek	-11.4986
nprog	-11.4987
array	-11.4998
la	-11.5032
npq	-11.5033
dist	-11.5067
▁factor	-11.5075
nL	-11.5105
▁pic	-11.5109
pa	-11.5135
mn	-11.5185
compare	-11.5189
ed	-11.5226
▁good	-11.5251
▁even	-11.5253
solve	-11.5266
isPrime	-11.5271
nstringstream	-11.5273
▁ctr	-11.5279
▁head	-11.5279
nused	-11.529
▁'<'	-11.5306
Color	-11.5328
▁15;	-11.5336
▁no	-11.5353
[1]++;	-11.5374
)]	-11.5379
alpha	-11.5381
lol	-11.539
▁16)	-11.5403
▁1001;	-11.5408
[15]	-11.5408
test	-11.5411
4)	-11.5414
nmini	-11.5414
▁rep	-11.5443
nind	-11.5445
board	-11.5446
tream	-11.5451
9)	-11.5452
wh	-11.5453
tc	-11.5471
nfirst	-11.5507
▁be	-11.5515
myset	-11.5528
▁ff	-11.5541
▁med	-11.5541
▁se	-11.5543
nci	-11.5545
2));	-11.5546
nstart	-11.5556
▁dm	-11.5578
▁spf	-11.5579
▁unique	-11.5583
olve	-11.5593
Dasha	-11.5627
Masha	-11.5627
[55][55]	-11.5627
nright	-11.5652
nscore	-11.5666
▁1000000000;	-11.5671
▁down	-11.5688
to	-11.5718
base	-11.5771
backward	-11.5777
nmm	-11.5778
man	-11.5794
▁exp	-11.5794
▁180	-11.5809
fuel	-11.5869
)((	-11.587
3++;	-11.5875
till	-11.5887
▁25)	-11.5914
nbase	-11.5917
▁ta	-11.5941
major	-11.5941
▁'('	-11.5945
▁gap	-11.5954
minor	-11.5961
▁tree	-11.5963
[25]	-11.5963
gap	-11.5975
nMax	-11.5984
▁goal	-11.5988
team	-11.6001
▁240	-11.6007
To	-11.6019
▁"#"	-11.6033
▁'#'	-11.6035
▁green	-11.6039
▁rs	-11.6056
▁put	-11.6085
nums	-11.6088
par	-11.6103
tab	-11.6118
).	-11.6119
Arr	-11.6121
forward	-11.6122
power	-11.6133
▁msk	-11.6144
type	-11.6167
nprime	-11.6203
▁'-';	-11.6211
nfound	-11.6225
match	-11.6235
▁position	-11.6238
CD	-11.6243
▁22;	-11.6247
▁97	-11.6269
en	-11.6272
▁weak	-11.6272
1(	-11.6275
▁cod	-11.6284
valid	-11.6292
▁'>'	-11.6295
root	-11.6361
▁2));	-11.6366
▁odd	-11.6374
▁'['	-11.6375
▁set	-11.6377
▁move	-11.6406
'])	-11.6428
▁3])	-11.6433
▁items	-11.645
▁60)	-11.6455
Hermione	-11.6504
that	-11.6512
3[	-11.6515
▁store	-11.6522
letter	-11.6589
TIE	-11.6596
contest	-11.6597
[100][100]	-11.6599
2];	-11.6606
▁ll	-11.6624
▁'\0'	-11.6661
nC	-11.6672
po	-11.668
lucky	-11.6685
edge	-11.6697
▁cup	-11.6719
▁psum	-11.6735
▁ada	-11.6752
ndiff	-11.6768
nG	-11.6773
▁lim	-11.6773
▁map	-11.6783
break	-11.6795
rs	-11.6818
8;	-11.6827
node	-11.6848
un	-11.6852
ut	-11.6858
both	-11.6859
ube	-11.6871
digits	-11.6885
nex	-11.6885
▁cap	-11.6899
nQ	-11.6917
tp	-11.6918
moves	-11.6922
[200005]	-11.6941
ra	-11.6943
[2005]	-11.6947
FS	-11.6956
nfill	-11.6971
nadj	-11.6973
current	-11.698
▁Find	-11.698
▁lenb	-11.6981
DP	-11.6985
▁tar	-11.7012
[2001]	-11.7025
▁24;	-11.7034
flg	-11.7051
▁req	-11.7053
▁numbers	-11.7073
need	-11.7084
nR	-11.7092
nT	-11.7096
[500]	-11.7112
▁change	-11.7129
▁key	-11.7153
▁goto	-11.718
▁cad	-11.7185
▁7);	-11.7186
▁winner	-11.7188
can	-11.7188
(4);	-11.7191
▁all	-11.7215
▁pi	-11.7224
[1	-11.7225
fl	-11.7232
jj	-11.7242
joy	-11.7246
▁cot	-11.7269
▁1000000009	-11.7276
▁itr	-11.7294
▁su	-11.7294
vowel	-11.73
[4])	-11.7305
▁Rozdil	-11.7307
UR	-11.7312
▁100001;	-11.7316
[200001]	-11.7337
▁101;	-11.7351
▁"="	-11.7351
zero	-11.7353
ngcd	-11.7358
permut	-11.7375
[4][2]	-11.7387
▁fi	-11.7392
▁lucky	-11.74
▁menor	-11.7401
▁flg	-11.7407
ncou	-11.7436
tu	-11.7451
down	-11.7452
▁bit	-11.7463
)))	-11.7468
1));	-11.7503
main	-11.7505
[2].	-11.753
)));	-11.7539
oo	-11.7542
Par	-11.7549
▁visited	-11.7549
gets	-11.7561
▁from	-11.7581
hitung	-11.7587
▁sqr	-11.7592
div	-11.7605
▁list	-11.7623
nfather	-11.7626
▁dat	-11.763
▁hash	-11.7643
▁dep	-11.7645
strange	-11.767
▁tab	-11.7679
ntrans	-11.7685
▁3]	-11.7687
▁sumb	-11.7747
▁en	-11.775
sub	-11.7755
nhash	-11.7766
am	-11.7776
▁rl	-11.7808
NG	-11.7808
▁month	-11.7821
book	-11.7828
kol	-11.7835
▁flog	-11.7843
▁plus	-11.7855
▁par	-11.7878
▁tim	-11.7895
Number	-11.7909
▁dd	-11.7918
▁ck	-11.792
▁26)	-11.7922
▁28	-11.7932
mxm	-11.7945
um	-11.7949
▁25;	-11.7975
nsol	-11.7981
▁txt	-11.7993
10;	-11.7994
std	-11.8003
TESTS	-11.8007
nfreq	-11.8028
PH	-11.8054
lfp	-11.808
ce	-11.8107
▁105;	-11.8113
(8	-11.8119
[111]	-11.8121
▁"3"	-11.8124
▁sq	-11.8126
▁92	-11.8129
nway	-11.8152
output	-11.8152
2])	-11.8162
▁gr	-11.8164
dy	-11.8169
ndist	-11.8173
mi	-11.8181
nkol	-11.8211
▁jj	-11.822
▁md	-11.8227
pri	-11.823
spf	-11.8238
▁poww	-11.8246
dg	-11.8247
▁21)	-11.8249
▁100);	-11.8277
nre	-11.8284
▁side	-11.83
▁86400	-11.8305
nmatch	-11.8312
▁hasil	-11.8326
(*	-11.8328
▁red	-11.8328
▁la	-11.8356
▁rat	-11.8364
whichPosn	-11.8422
fantasy	-11.8453
Ciel	-11.8453
[110][110]	-11.8455
list	-11.8458
mber	-11.8476
]][	-11.8493
err	-11.8494
▁TESTS	-11.85
▁'3')	-11.8504
▁three	-11.8518
▁cx	-11.8547
▁lca	-11.8553
▁matches	-11.857
nse	-11.8596
▁myset	-11.8623
▁iter	-11.864
[200000	-11.8644
▁65	-11.8652
▁moves	-11.8654
vv	-11.8677
ore	-11.8677
▁cr	-11.8679
▁board	-11.8701
▁20	-11.8701
nvalid	-11.8701
▁save	-11.8725
▁pt	-11.8726
▁1000000000	-11.8745
INF	-11.8758
▁Z	-11.8763
answer	-11.8767
exist	-11.877
7;	-11.8775
Min	-11.882
▁minimum	-11.8844
[27]	-11.8863
Hanako	-11.8869
▁!(	-11.888
mask	-11.888
ava	-11.8897
nsy	-11.8897
nit	-11.8899
dep	-11.8931
[100000	-11.8938
tial	-11.8945
ign	-11.896
▁pp	-11.896
(5	-11.8988
all	-11.9004
▁cycle	-11.9034
app	-11.9043
'))	-11.9043
rest	-11.9065
[2]++;	-11.9107
here	-11.9113
▁xay	-11.9144
▁mins	-11.915
▁nl	-11.915
▁chest	-11.917
ssor	-11.9175
nsm	-11.9197
nun	-11.9199
▁'/'	-11.92
▁96	-11.9202
▁97)	-11.9242
▁dr	-11.9246
▁10000000;	-11.9265
▁Count	-11.9266
udmoves	-11.928
rlmoves	-11.9286
notes	-11.9288
[1000006]	-11.9293
HARD	-11.9304
EASY	-11.9304
zxcvbnm	-11.9304
sdfghjkl	-11.9305
impossible	-11.9309
search	-11.9313
ncurrent	-11.9315
▁"|#.	-11.9319
▁999999	-11.9331
18	-11.9339
Int	-11.9343
▁divis	-11.9345
▁50)	-11.9351
▁item	-11.9374
▁"25	-11.9375
ada	-11.9382
▁divisor	-11.9391
go	-11.9394
▁fy	-11.9396
tri	-11.9407
▁both	-11.9411
▁Vas	-11.9413
▁mov	-11.9438
▁hy	-11.9441
▁weight	-11.945
▁clock	-11.9453
be	-11.946
adj	-11.9468
▁le	-11.9473
▁extra	-11.9485
▁prices	-11.9505
▁"2	-11.9509
yu	-11.953
fs	-11.9533
satu	-11.9545
high	-11.9581
▁fx	-11.959
▁parent	-11.9604
dem	-11.9623
▁final	-11.9625
((3	-11.9626
grid	-11.964
ff	-11.9653
pr	-11.9682
[0]]	-11.9687
▁'+'	-11.9694
ter	-11.9696
▁36	-11.9697
▁edges	-11.9708
ha	-11.9736
ay	-11.9744
diag	-11.9756
qwertyuiop	-11.9759
[205]	-11.9759
▁"1/1"	-11.9781
▁LCM	-11.9785
▁men	-11.9786
minimum	-11.9786
▁rot	-11.979
static	-11.9792
nsoroban	-11.9803
light	-11.9804
▁'!')	-11.9816
▁'2')	-11.9827
▁'=')	-11.983
▁lead	-11.9834
▁100000000	-11.9841
nadd	-11.9852
[120]	-11.9852
▁123;	-11.9866
ary	-11.9873
▁root	-11.9889
▁atoi	-11.9891
▁Ans	-11.9919
25	-11.9928
nlow	-11.9933
▁1000000)	-11.9941
▁coins	-11.9981
▁soma	-11.9986
mo	-11.9993
nneed	-11.9997
▁path	-12.0001
▁biceps	-12.0008
[5]);	-12.0023
▁rest	-12.0023
gu	-12.0028
▁done	-12.003
][0][	-12.006
su	-12.0081
▁el	-12.0081
▁180)	-12.0081
▁pm	-12.009
cons	-12.0093
▁atk	-12.0106
▁pass	-12.0112
▁500;	-12.0123
▁360	-12.0125
▁"-";	-12.0151
7)	-12.0172
▁pro	-12.0175
▁oo	-12.0181
AB	-12.0221
so	-12.0224
add	-12.0225
os	-12.0228
Nikita	-12.0235
Olya	-12.0235
Danil	-12.0235
▁"***"	-12.0242
nD	-12.0243
▁1000000	-12.0244
▁"1/2"	-12.0257
status	-12.0259
▁search	-12.0259
▁90)	-12.0273
nsx	-12.029
▁"<"	-12.0308
|)"	-12.0309
isok	-12.0309
▁contador	-12.0311
▁'^')	-12.0326
▁game	-12.0338
primes	-12.0354
▁in	-12.0368
▁"4"	-12.0393
▁">"	-12.041
▁bound	-12.042
▁seq	-12.0435
nflg	-12.0447
iz	-12.0449
0);	-12.0453
▁hor	-12.0455
▁exit	-12.0471
▁pl	-12.0476
▁Next	-12.0479
▁mai	-12.0483
[505]	-12.0488
▁nCr	-12.0494
▁_	-12.0499
▁'|')	-12.0506
▁23)	-12.0559
dig	-12.0561
▁slen	-12.0564
▁1000)	-12.0572
▁tm	-12.0574
▁money	-12.0591
▁100000	-12.06
▁lena	-12.0606
▁1)));	-12.0632
[100	-12.0648
▁limit	-12.0657
nMin	-12.0668
dest	-12.0683
ver	-12.0684
▁isok	-12.069
▁ones	-12.069
best	-12.0722
isgro	-12.0746
▁'0']	-12.0747
▁"1/3"	-12.0758
▁"2/3"	-12.0758
▁"5/6"	-12.0758
▁gl	-12.0767
subtractions	-12.0785
none	-12.0786
nbb	-12.0786
▁Input	-12.0802
▁lol	-12.0811
▁122)	-12.0817
[2000]	-12.083
ndem	-12.0832
poly	-12.0842
▁rta	-12.0852
▁fuel	-12.0853
()))	-12.0854
▁31;	-12.0876
eat	-12.0884
▁type	-12.0887
gr	-12.089
[3][	-12.09
nodd	-12.0907
3.	-12.091
sx	-12.0962
▁hp	-12.0967
▁alpha	-12.0971
nhi	-12.0975
▁sign	-12.0979
▁vs	-12.0987
(1.0	-12.0989
ite	-12.1012
loc	-12.1065
▁ry	-12.1068
nsuma	-12.1084
|";	-12.109
▁(3	-12.1092
▁letters	-12.1117
far	-12.1128
iter	-12.1159
_1	-12.1164
▁qy	-12.117
▁360;	-12.1171
▁1.0)	-12.1173
▁numOf	-12.1173
▁qq	-12.1201
('-')	-12.1207
▁lessons	-12.1209
Bulbasaur	-12.1261
▁exist	-12.1274
thur	-12.1279
▁mask	-12.1285
▁students	-12.1287
fri	-12.1288
nX	-12.13
cup	-12.1303
Len	-12.1307
cr	-12.1308
fact	-12.1314
▁blyat	-12.1314
[1000	-12.1318
▁solution	-12.1336
npar	-12.134
ajout	-12.1348
▁hb	-12.1349
byte	-12.1351
▁box	-12.1364
▁nex	-12.1396
BA	-12.1397
▁MN	-12.1399
▁inv	-12.1402
▁that	-12.1404
▁500	-12.1427
ous	-12.1432
▁cards	-12.1445
4);	-12.1457
calc	-12.1465
nplayers	-12.1468
ndays	-12.147
[400]	-12.1484
[10005]	-12.1488
ad	-12.1488
dfs	-12.1498
▁target	-12.1502
▁ori	-12.1515
▁((1	-12.1531
numbers	-12.1535
numberOfStudents	-12.1536
Num	-12.1538
▁24	-12.1546
sy	-12.1555
(360	-12.1562
▁200	-12.1568
▁bl	-12.157
nara	-12.1588
nvisit	-12.159
▁curlower	-12.1591
▁(__	-12.1594
isa	-12.1595
▁colors	-12.1609
▁MX	-12.1634
Ju	-12.1642
▁(1);	-12.1679
nhave	-12.1688
▁'_._'	-12.1703
tt	-12.1718
▁pa	-12.1735
(4	-12.1777
▁250	-12.1784
(7	-12.1795
ve	-12.1811
[5005]	-12.1817
[128]	-12.1822
popcount	-12.1841
']['	-12.1843
_._./"	-12.1844
▁slogan	-12.1847
ms	-12.1852
▁Qr	-12.1867
nyu	-12.1878
▁star	-12.1908
▁ac	-12.191
fixed	-12.1916
▁remove	-12.1927
▁(7	-12.193
]].	-12.194
▁mo	-12.1941
square	-12.1943
▁6);	-12.1944
prog	-12.1951
inp	-12.1951
mas	-12.1951
edges	-12.1954
big	-12.1964
rday	-12.1968
▁shu	-12.1981
▁atkm	-12.1982
from	-12.1983
▁cell	-12.1986
▁banyak	-12.1987
▁levels	-12.1989
abc	-12.2
dd	-12.2007
▁"")	-12.2018
pw	-12.2029
▁hm	-12.203
▁11	-12.2033
[200000]	-12.204
-"	-12.2047
al	-12.2049
nsz	-12.2059
hh	-12.2062
ate	-12.2064
▁qua	-12.2064
rt	-12.2082
false	-12.2083
▁maxy	-12.2084
▁maxm	-12.2084
nlol	-12.2091
LO	-12.2101
▁area	-12.2106
▁chk	-12.2108
tem	-12.2147
'];	-12.2155
(10)	-12.2184
]]--;	-12.2205
as	-12.2213
10);	-12.2238
▁1][0])	-12.226
ial	-12.2291
read	-12.2299
nfuck	-12.2304
npass	-12.2307
startx	-12.2308
ab	-12.2327
▁status	-12.2347
lessons	-12.2364
my	-12.2375
Ann	-12.2381
mmap	-12.2381
-6	-12.2386
-1	-12.2401
Elephant	-12.2405
Bear	-12.2409
erate	-12.2409
("0")	-12.2409
sert	-12.2416
("1")	-12.2418
[210]	-12.2424
▁toggle	-12.2452
▁rows	-12.2469
[20	-12.2481
(8);	-12.2489
nInput	-12.2491
nxx	-12.2499
▁capacity	-12.2515
req	-12.2531
numb	-12.2537
nresp	-12.2538
even	-12.2569
dir	-12.2574
ndata	-12.2575
money	-12.2578
skill	-12.2583
newdp	-12.2584
nsieve	-12.259
store	-12.2598
good	-12.2609
50	-12.2616
neo	-12.2621
[150]	-12.2626
)1	-12.2633
buff	-12.2633
▁light	-12.2638
▁pot	-12.2639
ER	-12.264
nuts	-12.2648
▁begin	-12.2659
tstep	-12.2674
▁pe	-12.2676
▁write	-12.2714
▁posy	-12.2716
▁30)	-12.2724
[20000]	-12.2725
atk	-12.2737
▁round	-12.2753
▁siz	-12.2769
▁-2;	-12.2776
▁sm	-12.2785
nbr	-12.2801
-";	-12.2826
[1]))	-12.2829
▁"4	-12.2832
bb	-12.2833
neven	-12.284
]]]	-12.2859
▁asd	-12.2867
minx	-12.287
nsu	-12.2895
marks	-12.2899
(3);	-12.2909
▁99999999	-12.2911
▁same	-12.2915
▁(4	-12.2916
than	-12.2919
ur	-12.292
fb	-12.2937
▁mymap	-12.2973
nmy	-12.299
It	-12.3001
▁0.5	-12.3009
][4]	-12.3011
ctr	-12.3015
▁exe	-12.3021
npic	-12.3021
BigInteger	-12.303
Koyomi	-12.303
pwr	-12.303
Found	-12.3032
▁dot	-12.3033
[1][2])	-12.3042
ULL	-12.3048
▁1005;	-12.3051
("")	-12.3052
▁del	-12.3057
▁loss	-12.3059
▁200000)	-12.3059
(12)	-12.3066
nrotate	-12.3068
▁answ	-12.3078
dis	-12.3092
nnumberOf	-12.3095
hor	-12.3103
criba	-12.3134
▁'^'	-12.3142
▁buf	-12.3148
▁password	-12.315
▁old	-12.3165
▁vetor	-12.317
nhitung	-12.3189
3372036854775807	-12.319
ly	-12.3194
nall	-12.3197
nlike	-12.3209
nzero	-12.3211
(((	-12.3212
[10010]	-12.3219
owel	-12.3231
▁32)	-12.3234
colom	-12.3245
parent	-12.3249
nvalue	-12.3258
[1000000]	-12.3266
▁trees	-12.3285
raw	-12.3292
bit	-12.3295
▁dim	-12.33
nstarty	-12.3305
nprimes	-12.331
winner	-12.3322
pass	-12.3334
nP	-12.3339
curlower	-12.334
hasil	-12.3344
nstate	-12.3365
have	-12.337
remainder	-12.3377
save	-12.3383
▁endy	-12.3403
rd	-12.3407
bs	-12.3413
asphalt	-12.3413
cy	-12.3435
▁raw	-12.3442
cc	-12.3448
▁sec	-12.3452
▁ab	-12.3454
▁9999999	-12.3457
▁clo	-12.3471
-8	-12.349
1_	-12.3506
▁half	-12.3528
nlist	-12.3529
▁sc	-12.3532
▁nuts	-12.3541
aa	-12.3579
bak	-12.358
ncolor	-12.3591
▁act	-12.3593
nwork	-12.3597
▁"4";	-12.3602
▁minus	-12.3607
counts	-12.3609
▁gc	-12.3624
2["	-12.3633
nN	-12.3643
we	-12.365
il	-12.3654
nstartx	-12.3656
ncal	-12.3658
▁**	-12.3681
▁jumlah	-12.3683
▁yes	-12.3685
▁pv	-12.3691
NEITHER	-12.3697
Alien	-12.3697
Sort	-12.3697
Factor	-12.3698
licz	-12.3699
possible	-12.3701
searchres	-12.3703
▁'-'	-12.3704
slot	-12.3713
nV	-12.3718
18)	-12.3727
▁sup	-12.3728
nboo	-12.3729
▁loct	-12.3732
eaten	-12.374
ls	-12.3744
▁whichPosn	-12.3748
ndir	-12.3751
[11][11]	-12.3758
▁'6')	-12.3769
TO	-12.3773
▁salt	-12.3773
▁220;	-12.3773
tam	-12.3777
[4][	-12.3779
pp	-12.3791
▁Ql	-12.3794
▁lst	-12.3794
▁player	-12.3803
▁'}')	-12.3804
pal	-12.3804
nhigh	-12.3813
▁huiwen	-12.3818
nmi	-12.3825
nface	-12.3831
kk	-12.3832
▁loc	-12.3854
nada	-12.3855
▁card	-12.3883
[1000001]	-12.3884
▁110;	-12.3885
▁miny	-12.3889
lcm	-12.389
Colo	-12.3892
▁bills	-12.3892
▁atky	-12.3893
▁(-1	-12.3922
▁pal	-12.3924
nore	-12.3929
▁nam	-12.3942
▁sw	-12.3948
86400	-12.3951
distance	-12.3959
active	-12.3962
MX	-12.3965
currnum	-12.3971
2[0];	-12.3976
[4][4]	-12.3986
npo	-12.3989
cap	-12.4009
▁matriz	-12.4012
▁10000	-12.4013
[2][1])	-12.4014
▁palindrome	-12.402
▁summ	-12.4035
cx	-12.4048
ones	-12.4048
▁starty	-12.4057
▁gg	-12.4069
▁(8	-12.4075
64	-12.4078
ud	-12.4083
▁zz	-12.4099
GR	-12.4099
▁1][2])	-12.4106
chr	-12.4108
point	-12.411
▁ha	-12.4117
1["	-12.4128
nchange	-12.414
ong	-12.4149
ax	-12.415
nsup	-12.4156
nid	-12.4159
gh	-12.416
[10	-12.4197
▁have	-12.4199
nfo	-12.4206
nfun	-12.4233
vs	-12.4235
th	-12.4258
WBWBWBW	-12.4275
ya	-12.4276
[10001]	-12.4294
Way	-12.4299
▁sheets	-12.4307
encont	-12.433
▁team	-12.4331
lu	-12.4339
▁endx	-12.4344
▁sumr	-12.4362
▁'2'	-12.4372
▁1.0))	-12.4377
[35]	-12.4381
layer	-12.4385
med	-12.4391
▁let	-12.4401
Delete	-12.4411
aeiou	-12.4411
[1001][1001]	-12.4413
nmaxn	-12.4414
Alex	-12.4417
(2);	-12.4446
▁amount	-12.445
esp	-12.4459
qmarks	-12.4465
[1100]	-12.4467
▁numberOf	-12.4473
▁qpow	-12.4492
XXX	-12.4499
nkk	-12.4499
▁0}	-12.4504
▁skills	-12.4505
[40]	-12.451
▁bottles	-12.451
▁jum	-12.4511
urs	-12.452
▁Pi	-12.4529
▁"7";	-12.4529
▁poss	-12.4534
▁CUR	-12.4544
▁edge	-12.4549
Prime	-12.4554
0.0)	-12.4564
▁counts	-12.4569
▁tabl	-12.4573
▁ci	-12.4586
▁tag	-12.4587
▁node	-12.4589
▁bottom	-12.4612
beg	-12.462
▁2000;	-12.462
njudge	-12.462
▁'9';	-12.4628
▁speed	-12.4647
▁ver	-12.4649
▁((2	-12.4653
1[2]	-12.4664
nbanyak	-12.467
ame	-12.4675
▁by	-12.4677
▁sh	-12.4685
ncoun	-12.4698
notup	-12.4709
maximum	-12.4711
▁ganjil	-12.4716
round	-12.4738
▁votes	-12.4738
▁fre	-12.4747
▁participants	-12.475
[3]++;	-12.4751
nred	-12.4752
▁'0'))	-12.4764
▁hang	-12.4768
▁18	-12.4773
▁spec	-12.4775
dot	-12.4791
▁nxt	-12.4802
▁steps	-12.4833
[300]	-12.4846
"))	-12.4846
▁captain	-12.4873
rand	-12.4879
▁(9	-12.4887
sec	-12.4892
▁(-1)	-12.4904
▁32	-12.4919
][1][	-12.4924
▁neg	-12.4925
#.#.#.#.#.#.	-12.4935
nrest	-12.4956
▁vet	-12.4968
▁"-"	-12.497
asd	-12.4972
nZ	-12.498
[5])	-12.4983
letters	-12.4998
▁words	-12.5029
▁rx	-12.5047
▁pair	-12.5056
nstore	-12.5102
key	-12.5107
[5001]	-12.5124
▁indx	-12.5146
ello	-12.5152
▁tr	-12.5166
▁acc	-12.5172
▁di	-12.5176
maxs	-12.5177
fffffff	-12.518
zhuangtai	-12.518
showpoint	-12.518
klmnopqrstuvwxyz	-12.518
[8][8]	-12.5182
[200][200]	-12.5183
▁1000003;	-12.5191
lose	-12.5194
▁59)	-12.5197
hel	-12.5198
▁pause	-12.5199
(':')	-12.5199
[13]	-12.5205
]]);	-12.5228
▁person	-12.5235
▁ms	-12.5242
▁te	-12.5246
▁dc	-12.5262
▁vowels	-12.5262
▁27)	-12.5271
▁120;	-12.5274
▁NULL	-12.5291
▁large	-12.53
▁1}_._	-12.53
▁inches	-12.5304
[2002]	-12.5305
▁bob	-12.5311
nmulti	-12.5317
▁qtb	-12.5327
▁off	-12.5344
▁games	-12.5349
da	-12.536
▁200001	-12.5362
▁(0)	-12.5368
▁angle	-12.5372
pd	-12.5372
▁(26	-12.5386
▁chris	-12.5392
nprevious	-12.5393
nike	-12.5403
▁lens	-12.5403
_0	-12.5428
nup	-12.5433
▁way	-12.5436
▁posx	-12.5449
▁ope	-12.5455
▁numb	-12.5459
▁crew	-12.5468
nout	-12.5503
command	-12.552
br	-12.5526
▁ca	-12.5541
▁maxl	-12.5542
▁depth	-12.5544
Hash	-12.5549
▁ad	-12.5549
Home	-12.5554
fingers	-12.5554
nmonth	-12.5559
Possib	-12.5569
gesture	-12.5574
path	-12.5579
▁rank	-12.5579
4++;	-12.558
compute	-12.559
▁compute	-12.5591
Primes	-12.5592
isV	-12.5595
▁dos	-12.5596
ca	-12.5603
ope	-12.5611
stu	-12.5613
▁home	-12.5614
▁values	-12.5614
msk	-12.5623
nno	-12.5638
el	-12.5642
▁1][1])	-12.5643
cad	-12.565
9);	-12.5658
▁mxv	-12.5662
XX	-12.5668
nhas	-12.567
--])	-12.5682
con	-12.5682
RA	-12.569
Count	-12.5716
▁-1);	-12.5719
sol	-12.5732
ames	-12.574
nas	-12.5758
▁50;	-12.577
▁palin	-12.5776
(6)	-12.5778
ntop	-12.578
nnumber	-12.5784
wt	-12.5791
▁cp	-12.5808
rend	-12.5826
nupdate	-12.5839
ntwo	-12.584
▁ysum	-12.5844
[1][0])	-12.585
chess	-12.586
maxN	-12.5862
▁va	-12.5889
fix	-12.589
njj	-12.5893
nyy	-12.5893
fail	-12.5904
[1000][100	-12.5911
spec	-12.5934
taken	-12.5939
vet	-12.5941
ndif	-12.5946
▁maxa	-12.5957
▁forward	-12.5982
▁bal	-12.5987
ol	-12.5994
side	-12.6005
rado	-12.6009
nedges	-12.601
nCount	-12.6011
▁2]);	-12.6013
TOWARDS	-12.6013
[27000]	-12.6013
Posution	-12.6013
[100007]	-12.6014
[50][50]	-12.6014
▁center	-12.6014
Letter	-12.6015
currcase	-12.6015
.0	-12.6017
verse	-12.6018
▁towels	-12.6018
Stone	-12.6022
mili	-12.6026
00005;	-12.6026
brr	-12.6028
▁foo	-12.6035
▁29	-12.6039
ndiag	-12.6041
▁'3'	-12.6042
ncap	-12.6047
▁4]	-12.6047
-7	-12.605
▁decrypt	-12.6053
Mul	-12.6056
▁rotate	-12.606
▁cntb	-12.606
▁ansy	-12.6065
[5000]	-12.6072
ped	-12.6083
pq	-12.6083
[100100]	-12.6083
▁jumlahg	-12.6085
▁fill	-12.609
nfact	-12.609
nbest	-12.61
8")	-12.6108
▁column	-12.6115
npp	-12.6117
▁wt	-12.6119
chars	-12.6128
ap	-12.613
▁(~	-12.6136
neg	-12.6138
▁dia	-12.6141
eight	-12.6153
(1)	-12.616
Str	-12.6161
cond	-12.6168
▁file	-12.6172
IN	-12.6177
numberOfElements	-12.6196
▁modd	-12.6197
▁Cmp	-12.6199
▁offset	-12.6212
▁previous	-12.6223
▁1]]++;	-12.6226
▁stone	-12.6226
▁was	-12.6236
▁wei	-12.6246
▁deg	-12.6248
(((3	-12.6249
▁spyke	-12.6249
▁cakes	-12.6251
▁19	-12.6256
▁pairt	-12.6262
Au	-12.6264
▁cel	-12.6289
▁{}	-12.6308
Pos	-12.6343
▁"1/6"	-12.6347
▁record	-12.6353
▁ctx	-12.6359
[0]['	-12.636
▁bisa	-12.6366
('0')	-12.6369
floor	-12.6375
tar	-12.6383
[15000	-12.6399
▁misha	-12.6403
terkecil	-12.6403
100	-12.6408
nsecond	-12.642
▁numOps	-12.6422
(180	-12.6423
]++	-12.643
1[3]	-12.6437
primeFactures	-12.6438
▁jarak	-12.6451
NE	-12.6453
jarak	-12.6465
▁do	-12.6472
[7	-12.6475
sushu	-12.6486
items	-12.6495
_8	-12.6497
▁take	-12.6503
▁ep	-12.6504
▁dest	-12.6506
rank	-12.6511
[0]][0]	-12.6511
palindrome	-12.6513
cha	-12.6515
igu	-12.6518
NS	-12.6523
ndeg	-12.6524
▁sumA	-12.6524
▁func	-12.6534
▁ww	-12.6538
game	-12.6548
▁remainder	-12.6559
▁yf	-12.6564
▁5))	-12.6566
nfr	-12.6573
per	-12.6584
nimpar	-12.6588
flog	-12.6592
mult	-12.6603
▁1)))	-12.6621
501;	-12.6623
nCr	-12.6631
stones	-12.6636
ace	-12.6639
▁ats	-12.664
3]	-12.6643
▁24)	-12.6644
▁fr	-12.6669
▁comb	-12.6671
▁1][2]	-12.6676
[1][1])	-12.6701
ele	-12.6711
[-1]	-12.6714
eg	-12.6716
1000001;	-12.6725
▁pas	-12.6729
▁U	-12.6731
dat	-12.6776
nfix	-12.6785
ep	-12.6792
5)	-12.6797
▁(-	-12.6812
▁sumB	-12.6824
opt	-12.6826
▁bool	-12.6831
])]++;	-12.6832
▁1][2]))	-12.6836
[(	-12.685
narg	-12.6851
nsoma	-12.6854
done	-12.6854
▁modex	-12.6865
sorted	-12.6871
▁dg	-12.6883
pple	-12.6897
che	-12.6901
7);	-12.6901
Mina	-12.6911
▁32767)	-12.6922
Contest	-12.6923
require	-12.6923
Finite	-12.6923
Gym	-12.6923
Union	-12.6923
road	-12.6924
nam	-12.6924
▁127)	-12.6925
function	-12.6926
ci	-12.6927
ostringstream	-12.6927
[1005][1005]	-12.6929
▁2000000;	-12.6931
started	-12.6939
ulate	-12.694
▁97]++;	-12.6941
nY	-12.6944
[100009]	-12.6948
▁'_')	-12.6964
ost	-12.6965
nrlmoves	-12.6966
[2][0])	-12.6971
nudmoves	-12.6975
▁2147483647)	-12.6979
rot	-12.6985
nspf	-12.6986
▁']')	-12.6997
OT	-12.7001
▁query	-12.7006
▁occ	-12.7016
mul	-12.7019
▁16	-12.7024
▁lc	-12.7033
▁linha	-12.7048
coun	-12.705
▁fastexp	-12.7052
▁tims	-12.7052
▁discounts	-12.7061
▁vest	-12.7071
▁conv	-12.7073
item	-12.7084
and	-12.7087
▁ways	-12.7101
ncontador	-12.7102
▁distanc	-12.7112
32	-12.7113
▁19)	-12.7128
nes	-12.7134
▁newsum	-12.7137
▁1000000000)	-12.7143
▁ssj	-12.7188
▁999999999	-12.7198
▁fim	-12.7214
▁oven	-12.7221
eque	-12.7232
▁1]]	-12.7235
ou	-12.7237
▁plen	-12.7238
▁'6'	-12.7238
▁dict	-12.724
▁present	-12.7246
cod	-12.7246
nedge	-12.7248
frest	-12.725
sh	-12.7254
▁Cnt	-12.7258
▁Blue	-12.7266
▁ref	-12.7268
has	-12.7268
▁lie	-12.728
arg	-12.73
nsb	-12.7311
▁cmd	-12.7321
IO	-12.7324
bus	-12.7348
ement	-12.7348
▁zy	-12.7356
▁compare	-12.7366
8"	-12.7367
xxx	-12.7372
▁stones	-12.7389
gl	-12.7397
Next	-12.7402
▁fff	-12.7411
▁state	-12.7411
▁(-1);	-12.7414
3[0]	-12.7414
▁chess	-12.7432
▁cycles	-12.7434
Ma	-12.7438
bacterias	-12.7445
pointer	-12.7454
matriz	-12.7459
participants	-12.746
gov	-12.7463
depth	-12.7463
prefix	-12.7467
mishka	-12.7469
numOps	-12.7471
poww	-12.7473
misha	-12.7475
▁8);	-12.7483
01	-12.7486
SS	-12.749
target	-12.7491
'6'	-12.7491
minus	-12.7493
_4	-12.7495
Md	-12.7511
interval	-12.7519
▁3.14159	-12.7525
sm	-12.7527
▁active	-12.7531
Sub	-12.7532
8)	-12.7534
▁fac	-12.7534
indx	-12.7541
boxes	-12.7563
▁currnum	-12.757
tx	-12.7574
Now	-12.758
----------	-12.7587
▁pb	-12.7587
()]	-12.7598
▁xmax	-12.7601
over	-12.7607
cdays	-12.7614
ganjil	-12.7618
coins	-12.762
qta	-12.7621
▁alt	-12.7624
te	-12.7632
▁numer	-12.7638
colors	-12.7646
nnext	-12.7648
trees	-12.7654
fgh	-12.7661
[6	-12.7663
2337203685477580	-12.769
▁square	-12.7703
▁den	-12.7703
▁47	-12.7704
mode	-12.7712
▁sta	-12.7725
tim	-12.7731
nbook	-12.7742
rla	-12.7747
he	-12.7757
fo	-12.7794
▁(--	-12.7803
▁64	-12.7813
%	-12.782
post	-12.782
cycle	-12.7837
nrs	-12.7873
etter	-12.7892
change	-12.7897
▁small	-12.7902
▁ey	-12.7903
alph	-12.7907
Mod	-12.7908
nvv	-12.7909
MOD	-12.7913
▁cha	-12.7913
INPUT	-12.7922
OUTPUT	-12.7922
Infinite	-12.7922
▁DELTA	-12.7923
[305]	-12.7923
▁least	-12.7923
▁1000010;	-12.7924
state	-12.793
▁INFF	-12.7934
segment	-12.7938
[1]]	-12.7938
▁4000000	-12.7943
Pre	-12.7944
▁lg	-12.7944
[19]	-12.7948
▁220)	-12.7949
▁remain	-12.7953
nmerge	-12.7954
ive	-12.7958
amounts	-12.7958
(97	-12.7966
carry	-12.7977
[10000000]	-12.798
[200010]	-12.7981
tmo	-12.7982
ncomp	-12.7987
▁"8"	-12.7991
cycles	-12.7998
[1002]	-12.8005
▁ite	-12.801
▁inicio	-12.8012
▁reqrec	-12.8014
▁Counter	-12.802
ts	-12.8024
▁shit	-12.8029
occur	-12.8032
ak	-12.8033
▁100005;	-12.8033
block	-12.8033
▁emm	-12.8036
splay	-12.8039
1--	-12.8039
Dist	-12.8044
▁pod	-12.8047
▁55;	-12.8059
[31]	-12.8059
▁quotient	-12.8064
qq	-12.8065
▁timr	-12.8066
▁tail	-12.8068
file	-12.8069
times	-12.8075
▁coord	-12.8081
[3].	-12.8082
▁difference	-12.8083
nansw	-12.8088
▁Move	-12.8093
▁Dy	-12.8093
15;	-12.8093
▁9999999999	-12.8095
▁leaf	-12.8097
(26);	-12.81
▁myMap	-12.811
▁(10	-12.8111
nfinall	-12.8115
▁height	-12.8134
nside	-12.8137
hur	-12.8139
maxNum	-12.8168
sPalindrom	-12.817
(5);	-12.8174
nmove	-12.8179
▁sir	-12.8186
7(	-12.8194
▁{"	-12.8202
▁memo	-12.8204
▁appear	-12.8208
▁Sentence	-12.8211
▁bs	-12.8212
ber	-12.8218
▁2.0);	-12.8227
▁ccw	-12.8231
nwrite	-12.8234
▁backward	-12.8251
▁hotels	-12.8258
nMAX	-12.8259
▁"+")	-12.8261
erator	-12.8268
▁convert	-12.8284
▁23;	-12.8285
▁0.5);	-12.8311
▁205	-12.8315
▁maks	-12.8321
▁digits	-12.8331
ndown	-12.8338
▁lines	-12.8341
▁alph	-12.8342
▁binary	-12.8347
▁QAQ	-12.835
▁Set	-12.8351
[--	-12.8366
▁players	-12.8377
▁que	-12.8388
seq	-12.8393
▁mishka	-12.8398
99;	-12.8402
nhit	-12.8403
▁"+"	-12.8404
me	-12.8406
answers	-12.8414
mem	-12.842
▁carry	-12.8421
▁sushu	-12.8429
nmins	-12.8437
▁bad	-12.8441
hang	-12.8452
▁vect	-12.8456
▁Cb	-12.846
/	-12.8463
▁inve	-12.8464
▁command	-12.8465
▁'1'))	-12.847
'+')	-12.8476
-----------	-12.8476
ndig	-12.8501
▁xop	-12.8506
▁3))	-12.8513
bru	-12.8514
44	-12.8523
Ja	-12.8525
▁mie	-12.8525
nSet	-12.853
Total	-12.8561
▁"15	-12.8567
'9'	-12.8571
extra	-12.8578
QAQ	-12.8579
binary	-12.8585
votes	-12.859
locg	-12.8596
▁maxim	-12.8597
larger	-12.8602
cmd	-12.8612
▁run	-12.8626
▁skill	-12.8627
ndone	-12.8638
maks	-12.8638
nys	-12.864
nindx	-12.864
arrent	-12.865
Palindrom	-12.8659
▁tlen	-12.866
▁not	-12.8682
[3]))	-12.8702
>('	-12.8718
suff	-12.8722
▁';	-12.8739
▁bak	-12.8774
▁sumy	-12.8795
▁32);	-12.8834
def	-12.8836
▁update	-12.884
▁J	-12.8842
++];	-12.8867
▁poly	-12.8869
▁sss	-12.8871
▁cond	-12.8898
pref	-12.8901
▁maxcount	-12.8909
▁'!'	-12.8909
▁ymin	-12.8916
Flag	-12.8924
▁10))	-12.8926
nlst	-12.8949
hp	-12.8953
resta	-12.8955
tep	-12.8967
pe	-12.8979
estCases	-12.8981
ending	-12.8984
2002]	-12.8985
pic	-12.899
earch	-12.9002
▁black	-12.9005
▁diag	-12.9033
ZerosOnes	-12.9034
▁"00:00	-12.9034
▁numPairs	-12.9034
PhoneArray	-12.9034
eevee	-12.9034
nuevo	-12.9034
ALPH	-12.9034
spykeId	-12.9034
[5001][5001]	-12.9034
malloc	-12.9034
isp	-12.9034
ogan	-12.9034
reduce	-12.9034
▁ziro	-12.9035
Read	-12.9035
0:0	-12.9036
▁trump	-12.9037
outfile	-12.9037
▁removeZero	-12.9038
Ids	-12.9039
minmum	-12.9042
▁mindis	-12.9042
▁31)	-12.9061
▁4))	-12.907
▁taken	-12.9072
▁rotasi	-12.9075
[1111]	-12.9076
▁numero	-12.9078
▁friends	-12.9091
▁rub	-12.9094
▁turns	-12.9098
maxm	-12.9099
exam	-12.91
▁danik	-12.91
nneg	-12.9111
▁character	-12.9116
)(1	-12.9119
Value	-12.912
1")	-12.9124
▁only	-12.9126
▁cadena	-12.9135
[103]	-12.9141
25.	-12.9146
▁chr	-12.9147
▁loop	-12.9149
rx	-12.9149
▁~	-12.915
String	-12.9153
▁57)	-12.9162
1]++;	-12.9165
record	-12.9166
umm	-12.9175
▁stu	-12.9179
▁maxv	-12.9181
▁wait	-12.9182
▁groups	-12.9185
rec	-12.9188
▁spect	-12.9189
▁marks	-12.9194
▁rd	-12.9199
▁prevlen	-12.9207
▁dragon	-12.9209
kanan	-12.9211
▁maxnum	-12.9212
▁suf	-12.9215
▁ne	-12.9221
nrot	-12.9224
nver	-12.9225
cp	-12.9229
▁80;	-12.9229
ntable	-12.923
njum	-12.9233
bal	-12.9234
▁lzl	-12.9234
[1]][1]	-12.9241
▁arya	-12.9241
▁mole	-12.9249
▁tou	-12.9254
njumlah	-12.9255
▁rate	-12.9256
sup	-12.9257
Pow	-12.9263
lim	-12.9271
XL	-12.9272
nop	-12.9273
▁err	-12.9275
▁csx	-12.9278
dsa	-12.9286
od	-12.9286
▁998244353)	-12.9294
▁liter	-12.9298
▁maps	-12.93
nsteps	-12.9329
ndua	-12.9337
▁lsum	-12.934
▁kkk	-12.9345
uck	-12.9375
▁Map	-12.9391
▁mode	-12.9402
▁qx	-12.9407
▁20000;	-12.9408
nbit	-12.9436
▁cant	-12.9443
▁")";	-12.9444
chat	-12.9457
▁vid	-12.9457
▁vasya	-12.9461
let	-12.9462
nspeed	-12.947
▁nowp	-12.947
▁99999;	-12.9475
ntem	-12.9489
▁14)	-12.949
[32]	-12.95
▁hur	-12.9516
mL	-12.9533
▁zx	-12.9544
▁2][	-12.9547
▁prefix	-12.9574
"6"	-12.9596
nwin	-12.9598
▁andd	-12.9611
▁opt	-12.962
two	-12.9649
nfl	-12.9652
▁""	-12.9663
AQ	-12.9667
fin	-12.9673
▁oy	-12.9685
▁fingers	-12.969
▁900	-12.9697
naa	-12.9712
▁inch	-12.9722
#.#.#.#.#.#.#.	-12.9728
▁cmax	-12.973
De	-12.9738
▁((360	-12.9738
▁10000000000	-12.9764
rows	-12.9772
sylveon	-12.9776
jolteon	-12.9777
leafeon	-12.9778
flareon	-12.9778
glaceon	-12.9779
umbreon	-12.978
▁eat	-12.9782
▁LO	-12.9785
maxy	-12.9789
------------	-12.9798
xgcd	-12.98
▁xb	-12.9812
▁ev	-12.9819
location	-12.982
vasya	-12.9821
"1/6"	-12.9822
crew	-12.9822
Blue	-12.9822
maxSize	-12.9822
nlower	-12.9826
amazing	-12.9836
delta	-12.9845
nsumb	-12.985
convert	-12.985
▁3.1415926535	-12.9855
mins	-12.9855
▁colom	-12.9864
▁999	-12.9868
#.#.#.#.#.	-12.9894
28	-12.9915
nK	-12.9923
▁reverse	-12.9938
▁((3	-12.9942
▁((((	-12.995
(26	-12.995
▁maxr	-12.9955
▁drink	-12.9962
dict	-12.9965
ncpy	-12.9968
▁od	-12.9973
#"	-12.9991
▁201	-12.9992
lt	-12.9998
ount	-13.0006
1])	-13.0012
▁fix	-13.0017
tin	-13.0018
mmin	-13.0028
1[0])	-13.0029
xt	-13.0033
▁per	-13.0052
▁To	-13.0053
▁zsum	-13.0056
▁maxsum	-13.007
nlevel	-13.0072
comp	-13.0076
nmat	-13.0076
▁122	-13.0085
▁ox	-13.0085
▁40;	-13.0103
nms	-13.0105
tree	-13.012
--------------+"	-13.0123
▁62	-13.013
hanges	-13.0148
))))	-13.0157
npoints	-13.0162
Maxn	-13.0167
lah	-13.0169
)]++;	-13.0176
basis	-13.018
Open	-13.0187
ndos	-13.0194
5]	-13.0195
▁':'	-13.0196
▁lat	-13.0213
ndom	-13.022
zeros	-13.0227
▁may	-13.0229
(2.0	-13.0232
ength	-13.0235
xay	-13.0246
stringstream	-13.025
npossible	-13.0254
▁ys	-13.0257
▁an	-13.0257
nvotes	-13.0266
▁1][3]	-13.0272
lastSoldier	-13.0284
▁destination	-13.0284
esPrimo	-13.0284
restaurantsJoys	-13.0284
▁cross	-13.0284
equalto	-13.0284
zheng	-13.0284
▁negro	-13.0284
lIdx	-13.0284
▁blanco	-13.0284
Array	-13.0284
▁tramp	-13.0285
banyakganjil	-13.0285
▁nilai	-13.0285
chance	-13.0285
▁boost	-13.0286
tuple	-13.0286
[5002]	-13.0286
▁minRow	-13.0286
track	-13.0286
▁maxRow	-13.0286
[5050]	-13.0286
▁minCol	-13.0287
▁maxCol	-13.0288
qkids	-13.0288
▁1000005;	-13.029
momo	-13.0293
not	-13.0294
rowCount	-13.03
▁differ	-13.0302
salir	-13.0303
tttt	-13.0304
▁tira	-13.0307
nblocked	-13.0308
MP	-13.0308
nrepeat	-13.0311
▁merge	-13.032
▁99	-13.0322
▁lowest	-13.0324
section	-13.0326
('.'	-13.0328
▁radius	-13.0334
▁killed	-13.0336
▁300;	-13.0343
▁(100	-13.0355
▁xmin	-13.0358
▁isp	-13.0359
▁94	-13.036
▁part	-13.0364
▁given	-13.0368
rework	-13.037
▁"|.|)"	-13.0376
nNeed	-13.0376
maze	-13.0377
▁gets	-13.0377
▁yb	-13.0378
nloss	-13.0378
▁10000007;	-13.0379
▁"|.|"	-13.038
▁mius	-13.0384
▁izq	-13.0387
▁buy	-13.0389
▁largest	-13.039
▁cols	-13.0391
▁smR	-13.0393
▁0.5)	-13.0394
▁perColor	-13.0397
▁buffer	-13.0397
[301]	-13.0398
npoint	-13.0399
"[]"	-13.0401
jumps	-13.0404
▁grest	-13.0405
nger	-13.0408
▁MODUL	-13.041
sa	-13.0419
cou	-13.0423
(3)	-13.0426
ncounta	-13.0429
▁choose	-13.0441
▁nextPrime	-13.0441
Cu	-13.0447
Set	-13.0453
KE	-13.0453
999	-13.0455
▁text	-13.0455
▁prod	-13.0457
▁prohibited	-13.046
▁walk	-13.0462
▁10001;	-13.0463
month	-13.0472
soma	-13.0477
▁End	-13.0483
nseen	-13.0488
▁na	-13.0489
▁keep	-13.0489
sta	-13.0492
IT	-13.0497
▁page	-13.0501
2]++;	-13.0502
▁remaining	-13.0511
fun	-13.0511
nvalues	-13.0517
▁enemy	-13.0517
▁matrix	-13.0519
▁tedad	-13.0519
▁distinct	-13.052
▁people	-13.0521
▁simon	-13.0525
nhero	-13.0527
Ho	-13.053
▁')	-13.0533
▁ppow	-13.0534
limits	-13.0536
▁stop	-13.0536
▁solx	-13.0545
][2])	-13.0546
▁fake	-13.0549
(15)	-13.0553
▁biaoji	-13.0556
nmaxsum	-13.0566
trig	-13.0572
▁Init	-13.0574
▁mapp	-13.0575
▁amigos	-13.0584
seg	-13.0599
memo	-13.0603
▁maxle	-13.0605
▁odds	-13.0617
▁vct	-13.0622
nto	-13.0624
▁primos	-13.0631
▁ston	-13.0631
nwas	-13.0635
like	-13.0639
▁soldier	-13.0642
▁prevc	-13.0642
▁dic	-13.0647
▁lft	-13.0648
ntp	-13.0653
ry	-13.0654
▁lef	-13.0659
[3][2]	-13.0659
▁28)	-13.066
▁(!((	-13.066
load	-13.0662
▁gmax	-13.0664
nom	-13.0664
sq	-13.0665
MAXT	-13.0689
MA	-13.0689
▁normal	-13.0703
▁maxlen	-13.0707
▁highest	-13.0711
▁palabra	-13.0712
▁numver	-13.0714
▁seg	-13.072
atob	-13.0723
[0]))	-13.0724
vote	-13.073
▁suff	-13.0737
nshu	-13.074
qm	-13.0742
ncards	-13.0743
[3000]	-13.0744
'^'	-13.0747
nrun	-13.0748
▁amazing	-13.0752
▁10000000000;	-13.0761
▁un	-13.0764
ndep	-13.0767
▁LC	-13.0777
words	-13.0809
▁36)	-13.0812
1"	-13.0825
▁tmo	-13.084
▁interval	-13.0842
▁tow	-13.0846
10)	-13.0847
[2][2])	-13.0854
ww	-13.086
unt	-13.0864
▁49	-13.0865
nwords	-13.0871
nlucky	-13.0914
bule	-13.0928
npri	-13.0931
ty	-13.0937
▁amounts	-13.0943
asc	-13.0947
nletter	-13.0957
▁doi	-13.0959
▁gov	-13.096
7]++;	-13.0966
▁pd	-13.0973
nhap	-13.0981
-------------+"	-13.0982
1[1]++;	-13.0986
nmmax	-13.0989
▁1000000000000	-13.0994
nmul	-13.0995
▁nneg	-13.1
▁isV	-13.1025
▁cas	-13.1043
npa	-13.1046
lights	-13.1055
npen	-13.1056
▁divs	-13.1057
new	-13.1061
▁resta	-13.1081
ntm	-13.1087
▁flagA	-13.1087
▁63	-13.109
hase	-13.11
12;	-13.111
impar	-13.1121
order	-13.1134
ninput	-13.1135
posibles	-13.1149
gg	-13.1165
shel	-13.1168
awalx	-13.1184
--]	-13.1209
card	-13.1213
Index	-13.1222
dor	-13.1224
▁'='	-13.1226
'8'	-13.1227
Vector	-13.1234
'7'	-13.1237
awaly	-13.1238
palabra	-13.124
hotels	-13.1242
highest	-13.1242
▁1]));	-13.1246
normal	-13.1249
piso	-13.1251
weight	-13.1252
rides	-13.1256
itr	-13.1261
Start	-13.1263
▁'8'))	-13.1265
hush	-13.1266
nof	-13.1277
bv	-13.1286
▁-1000	-13.1305
urantsLunchTimes	-13.1311
answ	-13.1314
240	-13.1315
numver	-13.1316
nsw	-13.1323
chris	-13.1334
▁pB	-13.1364
oven	-13.1378
Char	-13.1399
▁16;	-13.1406
▁(0	-13.1428
lft	-13.1453
etr	-13.1458
har	-13.1458
▁hj	-13.1469
▁era	-13.1476
[10000	-13.148
minP	-13.1495
ba	-13.1505
ngh	-13.1507
ro	-13.1513
nome	-13.1518
▁des	-13.1523
▁ptr	-13.1531
hm	-13.1537
▁gcdd	-13.1546
qua	-13.1556
ngo	-13.1561
star	-13.1563
xsum	-13.1567
-------------	-13.1576
ngood	-13.1588
▁100000)	-13.1596
sir	-13.1622
▁2147483647	-13.1623
npoly	-13.1624
npower	-13.1625
▁rtn	-13.1633
nprice	-13.1633
ncr	-13.1638
ang	-13.1663
uts	-13.1667
!^^	-13.1677
Temp	-13.1699
State	-13.1712
▁NumOf	-13.1712
debug	-13.1712
important	-13.1712
wheniEndFromLeft	-13.1712
▁"0123456789"	-13.1712
[52][52]	-13.1712
tercer	-13.1712
▁width	-13.1712
dryer	-13.1712
[200100]	-13.1712
[35][35]	-13.1712
[30010]	-13.1712
[15][15]	-13.1713
SEC	-13.1713
[60][60]	-13.1713
[1009]	-13.1715
chk	-13.1716
starCount	-13.1716
▁99999999999	-13.1718
"8<"	-13.1721
nextprev	-13.1721
later	-13.1725
[1003]	-13.1726
999999999	-13.1732
▁righ	-13.1733
▁create	-13.1733
▁feet	-13.1742
▁possible	-13.1744
▁goo	-13.1748
▁foot	-13.1749
▁colCount	-13.1758
[100003]	-13.1758
▁damage	-13.1761
nremaining	-13.1764
▁"..............	-13.1766
finishy	-13.1768
▁full	-13.177
▁iskom	-13.177
links	-13.1771
mapper	-13.1771
▁4000	-13.1778
▁other	-13.1786
▁blockb	-13.1787
ey	-13.1795
printC	-13.1796
▁kpk	-13.1797
▁chars	-13.1799
▁100.0)	-13.1799
nds	-13.1803
▁'5'	-13.1803
▁patt	-13.1811
▁mohi	-13.1822
nmk	-13.184
▁norm	-13.1842
▁disC	-13.1843
▁cyc	-13.1857
▁passengers	-13.1858
▁2]))	-13.1859
ffers	-13.1862
▁inicial	-13.1868
▁less	-13.1873
▁Check	-13.1873
▁diamond	-13.1875
nposition	-13.1889
▁blocka	-13.189
▁city	-13.1898
▁shengyu	-13.1902
poz	-13.1904
acu	-13.1911
▁abc	-13.1912
nme	-13.1914
org	-13.1914
▁profits	-13.1915
▁posiciones	-13.1916
▁pangkat	-13.1916
the	-13.1919
▁org	-13.1921
nxs	-13.1934
95	-13.1937
nfile	-13.1941
nbo	-13.1944
▁'0']++;	-13.1945
▁copy	-13.1947
stack	-13.1947
[5	-13.1953
▁7))	-13.1955
▁vector	-13.1959
nupper	-13.1966
▁horizontal	-13.1966
▁wb	-13.1971
▁Da	-13.1975
▁xorr	-13.198
▁18;	-13.1996
ig	-13.1997
vl	-13.2015
12	-13.2015
▁stud	-13.2017
▁fives	-13.2019
00	-13.202
▁1000000001	-13.202
▁compa	-13.2039
nhuiwen	-13.2041
▁negativos	-13.2055
0000;	-13.2063
▁numedges	-13.207
▁factors	-13.2087
▁27;	-13.2096
Val	-13.2097
▁Cal	-13.2106
ted	-13.2107
▁degree	-13.211
▁frest	-13.211
isit	-13.2111
▁cons	-13.2114
nOven	-13.2116
OfT	-13.2129
▁ops	-13.213
▁fir	-13.2133
palin	-13.2136
present	-13.2139
func	-13.2146
hess	-13.2147
▁amt	-13.2157
4[	-13.216
way	-13.2164
old	-13.2164
alt	-13.2168
cul	-13.2171
0"	-13.2182
▁-2)	-13.2186
▁ymax	-13.2189
pro	-13.2189
ea	-13.2193
do	-13.2208
(6	-13.2215
TH	-13.2217
nori	-13.222
speed	-13.222
▁bits	-13.2238
perm	-13.2243
2[100005]	-13.2251
anton	-13.2253
nmen	-13.2259
uf	-13.2261
masuk	-13.2263
▁Minb	-13.2266
------------+"	-13.2269
nmenor	-13.227
pet	-13.227
▁load	-13.227
▁4)]	-13.2284
lett	-13.2288
▁maxSize	-13.2293
off	-13.2296
tCo	-13.2299
bisa	-13.23
▁Sum	-13.2316
▁mmp	-13.2318
▁wi	-13.2332
Left	-13.2334
{0}	-13.2334
nan	-13.2346
maxval	-13.235
2[1000]	-13.2351
▁tdiff	-13.2359
duo	-13.2375
area	-13.2382
11][111]	-13.2382
nSum	-13.239
nkanan	-13.2391
starty	-13.2399
▁prim	-13.2412
▁mot	-13.2421
npas	-13.2467
▁tep	-13.2472
▁rb	-13.2472
▁primer	-13.2479
[105	-13.248
▁qta	-13.2483
▁sheet	-13.2483
▁62;	-13.2485
▁minP	-13.2487
▁stack	-13.2521
nya	-13.2523
ncarry	-13.2535
▁gesture	-13.254
lock	-13.2549
bao	-13.2552
▁his	-13.2559
mind	-13.2564
0000000005	-13.2567
ndx	-13.2567
[25	-13.2571
ndeq	-13.2576
15"	-13.2605
1[1000]	-13.2612
nsorted	-13.2626
▁nadj	-13.2633
▁orange	-13.2638
▁tra	-13.2651
tdiff	-13.2652
ark	-13.2654
ai	-13.2654
ke	-13.2661
hero	-13.267
hit	-13.2695
deg	-13.2695
▁prea	-13.2698
▁14;	-13.2723
▁cum	-13.2726
bc	-13.2728
nrat	-13.2731
prim	-13.2739
▁desk	-13.2742
▁-10;	-13.2769
ala	-13.277
Size	-13.2771
cal	-13.2794
ratio	-13.2802
CHR	-13.2813
uest	-13.2815
▁bx	-13.2818
emp	-13.2818
▁neo	-13.2826
pascal	-13.2829
▁vl	-13.2835
npd	-13.2838
qClose	-13.285
split	-13.2866
▁":	-13.288
hole	-13.288
maxsalary	-13.2881
dom	-13.2881
curInd	-13.2891
numa	-13.2892
nineteen	-13.2892
Yellow	-13.2894
▁satu	-13.2898
gcdofarray	-13.2898
nones	-13.2899
Sentence	-13.2901
HI	-13.2901
bottom	-13.2903
toalha	-13.2904
spyke	-13.2905
appear	-13.2906
▁countb	-13.2909
soldier	-13.291
voters	-13.2913
clock	-13.2915
ush	-13.2917
▁'}'	-13.2919
npref	-13.2923
love	-13.2924
degree	-13.293
Map	-13.2937
pearls	-13.2941
nthree	-13.2942
atky	-13.2943
.........|"	-13.2948
cakes	-13.2949
atkm	-13.295
hangx	-13.295
resp	-13.2954
▁10000000	-13.2964
atoi	-13.2966
lg	-13.2968
echo	-13.297
bills	-13.2971
commands	-13.2976
nasd	-13.2979
▁recur	-13.2981
use	-13.2982
seed	-13.3
tempm	-13.3001
▁29;	-13.301
]][1]	-13.3017
primos	-13.3025
works	-13.3028
forw	-13.3038
▁cw	-13.3043
Up	-13.3083
▁"|"	-13.3136
▁"|.|	-13.3152
10(	-13.3153
-10;	-13.3161
1[105]	-13.3168
▁inter	-13.3176
nmaxm	-13.3193
▁rev	-13.3194
coord	-13.3201
coty	-13.3208
▁cntr	-13.322
'0');	-13.322
remainings	-13.3221
var	-13.3223
same	-13.3228
▁somaP	-13.323
rgt	-13.3233
▁bo	-13.3233
inf	-13.3234
▁subtraction	-13.3241
▁bc	-13.3242
▁2.0)	-13.3255
move	-13.3263
1[5]	-13.3266
[4	-13.3271
nmultipl	-13.3272
Po	-13.3274
ities	-13.3277
ncntr	-13.328
▁'{'	-13.3287
[3	-13.3287
td	-13.3301
fff	-13.3301
initi	-13.3303
vest	-13.332
bra	-13.3325
▁answers	-13.3328
▁"|.|)	-13.3352
pol	-13.3372
Star	-13.3372
ntab	-13.3377
correct	-13.3379
Person	-13.3379
esVocal	-13.3379
firstPointer	-13.3379
▁Output	-13.3379
▁lunchBreakTime	-13.3379
cheapest	-13.3379
guiones	-13.3379
▁connected	-13.3379
▁maohao	-13.3379
▁thisChar	-13.3379
bohlam	-13.3379
negative	-13.3379
positive	-13.3379
▁direcciones	-13.3379
SIZE	-13.3379
▁edits	-13.3379
[300][300]	-13.3379
6744073709551615	-13.3379
▁lastValid	-13.3379
▁ndmny	-13.3379
[150][150]	-13.3379
[500005]	-13.3379
colunas	-13.3379
totalSec	-13.3379
▁chrColor	-13.3379
MashaCount	-13.3379
▁144)	-13.3379
CASE	-13.3379
[2100]	-13.3379
carryFlag	-13.3379
(":")	-13.338
termina	-13.338
▁1000006;	-13.3381
▁MODULO	-13.3381
beforeP	-13.3381
wincandidate	-13.3381
testcases	-13.3382
▁alfa	-13.3383
strgro	-13.3387
▁songs	-13.339
▁avg	-13.339
signal	-13.3392
▁takeoff	-13.3397
▁geek	-13.3402
vocale	-13.3404
cursor	-13.3405
isFound	-13.3405
ngeek	-13.3406
▁repeat	-13.3413
Temps	-13.3418
▁minm	-13.3419
▁four	-13.3422
ncer	-13.3424
sections	-13.3425
▁girl	-13.3426
ttle	-13.3428
▁agua	-13.3428
eek	-13.3432
npermute	-13.3432
▁masha	-13.3435
▁bshu	-13.3435
pb	-13.3437
rea	-13.3438
▁permute	-13.3439
sinoutput	-13.3439
▁Long	-13.344
▁insect	-13.3441
flagee	-13.3441
▁sl	-13.3445
▁CityCode	-13.3447
▁modulo	-13.3447
ajo	-13.3454
isTrue	-13.3455
replaced	-13.3458
▁maxJ	-13.346
(1000	-13.3469
▁denominator	-13.3471
▁bef	-13.3477
▁2005]	-13.3478
▁1000000005	-13.3478
ndy	-13.3484
Cle	-13.3491
▁army	-13.3491
iso	-13.3492
imak	-13.3493
▁nrod	-13.3493
sumb	-13.3495
an	-13.3496
nmass	-13.3496
▁17	-13.3497
▁Need	-13.3499
▁cambio	-13.3506
(20	-13.3506
▁choc	-13.3507
▁adder	-13.3509
sisa	-13.351
▁Ar	-13.351
sag	-13.3512
▁woch	-13.3513
ngiven	-13.3514
▁caso	-13.3515
▁woman	-13.3516
[501]	-13.3518
▁PE	-13.3521
aexc	-13.3523
▁Red	-13.3524
▁salida	-13.3525
▁nogover	-13.3528
▁maxExcl	-13.3529
▁Green	-13.353
▁100010;	-13.3531
▁btoa	-13.3531
sides	-13.3531
▁10.0)	-13.3532
ndivis	-13.3532
▁li	-13.3534
▁problems	-13.3536
▁zer	-13.3537
▁math	-13.3541
▁jav	-13.3552
▁"."	-13.3553
▁minimun	-13.3558
{}	-13.3566
▁Hy	-13.3567
▁minA	-13.3567
▁ntc	-13.3567
disk	-13.357
▁Add	-13.3571
▁elements	-13.3571
npow	-13.3581
ptr	-13.3583
▁oranges	-13.3584
▁candies	-13.3584
ended	-13.3584
liter	-13.3587
itung	-13.3591
▁cyka	-13.3593
▁sumc	-13.3594
▁2.0;	-13.3594
valu	-13.3594
▁wrong	-13.3597
wp	-13.3598
▁slice	-13.3601
▁5.0)	-13.3605
▁trunc	-13.3606
suma	-13.3607
▁ave	-13.3608
Minb	-13.3608
Cha	-13.3611
nposs	-13.3613
▁nearest	-13.3613
▁after	-13.3613
▁valori	-13.3617
▁digitm	-13.3619
▁acum	-13.3631
[1007]	-13.3631
▁characters	-13.3632
▁before	-13.3633
▁seat	-13.3638
▁deq	-13.3641
nremain	-13.3642
▁lang	-13.3644
▁free	-13.3649
▁dua	-13.365
▁WI	-13.3657
▁blep	-13.3659
▁niz	-13.3659
ncntfloat	-13.3659
nhh	-13.3665
▁real	-13.3666
tm	-13.3672
rev	-13.3676
▁hol	-13.3684
▁"-")	-13.369
nmas	-13.3693
▁eC	-13.3697
▁wrkdsz	-13.3703
▁busca	-13.3705
▁beginat	-13.3706
nhorizontal	-13.3719
▁mindiff	-13.3724
▁biao	-13.374
▁equal	-13.3743
ndim	-13.3755
Calc	-13.3756
▁coty	-13.376
ncounts	-13.376
bo	-13.3769
▁backw	-13.377
▁pen	-13.3778
nactual	-13.3782
▁src	-13.3791
▁sx	-13.3798
ngame	-13.3801
nats	-13.3805
geo	-13.381
[100002]	-13.3815
▁maxsec	-13.382
▁more	-13.3821
▁fp	-13.3825
▁Mod	-13.3831
Trol	-13.3838
▁1000);	-13.3849
3_1	-13.3849
ndivisor	-13.385
▁nega	-13.385
[11111	-13.3852
nsame	-13.3859
--------------	-13.386
▁voters	-13.3868
▁endpos	-13.387
)*	-13.3872
▁87	-13.3877
▁toalha	-13.3878
▁seed	-13.3878
▁sym	-13.388
▁pearls	-13.3881
nvetor	-13.3887
.0);	-13.3887
grest	-13.3887
demy	-13.3898
_2	-13.3914
▁Db	-13.3918
sumeven	-13.3925
▁bao	-13.3928
▁Hm	-13.3931
▁basis	-13.3935
▁hangx	-13.3936
▁201;	-13.3936
cmx	-13.3946
▁commands	-13.3951
ssj	-13.3952
ncan	-13.3954
▁Start	-13.3961
▁vm	-13.3962
▁MA	-13.3963
pl	-13.3968
▁sisa	-13.3979
)];	-13.3979
nbox	-13.398
rprev	-13.3982
▁ant	-13.3986
ymax	-13.3986
factor	-13.3988
▁numD	-13.3988
▁Index	-13.3989
▁gb	-13.399
rep	-13.3991
ogo	-13.3995
▁4])	-13.3998
▁like	-13.4006
-----------+"	-13.4007
[30000	-13.4009
▁gra	-13.401
menor	-13.4022
▁Size	-13.4025
Same	-13.4026
nmov	-13.4027
three	-13.4027
▁block	-13.4029
matches	-13.403
noven	-13.4032
▁delta	-13.4033
nish	-13.4038
most	-13.4044
arya	-13.4046
banyak	-13.4051
cell	-13.4058
summ	-13.407
▁maxC	-13.4074
ncell	-13.4093
tou	-13.4098
20	-13.4099
▁band	-13.4106
('0'	-13.4107
▁locg	-13.411
(30	-13.4112
lat	-13.4118
npresent	-13.4118
▁minr	-13.412
_2(	-13.4126
("4	-13.4133
▁lenp	-13.4136
ipe	-13.4138
▁rnum	-13.4154
▁Hs	-13.4158
cards	-13.4168
lena	-13.4177
drink	-13.4194
▁101)	-13.4196
ev	-13.4197
welfare	-13.4203
▁Dm	-13.4207
▁user	-13.4217
][2	-13.4223
nclock	-13.4231
▁hc	-13.4251
imal	-13.4251
▁lent	-13.4256
nNow	-13.4256
pairt	-13.4259
▁mex	-13.4259
swap	-13.4267
bl	-13.427
ser	-13.4274
1110	-13.4283
▁10000)	-13.4283
npl	-13.4286
()->	-13.429
▁maxs	-13.4293
pm	-13.4298
▁sag	-13.4306
stone	-13.4309
nalt	-13.4314
▁arra	-13.4321
tag	-13.4341
▁th	-13.435
medal	-13.4358
qx	-13.4366
▁dsa	-13.437
▁100002	-13.4382
nrec	-13.4388
nstar	-13.4401
plica	-13.4403
ntag	-13.4411
▁Home	-13.4412
▁rc	-13.4414
)])	-13.4423
▁Div	-13.4435
ncycle	-13.4445
ld	-13.4446
ali	-13.446
amt	-13.4475
Mar	-13.4476
▁An	-13.4477
bad	-13.4495
nArr	-13.4525
▁rh	-13.4533
▁"5";	-13.4535
9999;	-13.4539
▁bus	-13.4549
▁ust	-13.4551
▁0.0)	-13.4564
▁ls	-13.4567
▁17;	-13.4576
ntol	-13.4578
▁{100	-13.4603
▁won	-13.4604
bulb	-13.4616
ata	-13.462
▁ru	-13.4627
syl	-13.463
▁note	-13.4646
▁he	-13.4647
45	-13.4658
▁kq	-13.4664
9999999999	-13.4672
▁asphalt	-13.4685
90	-13.4703
del	-13.4716
plen	-13.4723
#.#.#.#.#.|.|)"	-13.4727
Exp	-13.4738
▁yt	-13.4747
reverse	-13.4758
▁cor	-13.476
mima	-13.4792
▁cm	-13.4795
▁"*"	-13.4796
demx	-13.4799
▁Num	-13.4801
▁newdp	-13.4812
▁gh	-13.4816
Ay	-13.483
_.	-13.4831
Dm	-13.4831
cum	-13.4836
sameSocks	-13.4847
▁tC	-13.4848
▁xxx	-13.4855
('1')	-13.4856
myString	-13.4861
dishes	-13.4863
[10005	-13.4865
▁hr	-13.4865
maxLen	-13.4867
(!	-13.4868
Ca	-13.4868
forbid	-13.4871
angle	-13.4872
mic	-13.4877
▁'@'	-13.4878
segun	-13.488
▁bk	-13.4881
discount	-13.4883
▁maxb	-13.489
0));	-13.489
minimal	-13.4896
sc	-13.4897
offset	-13.4898
amigos	-13.4899
maxsec	-13.4908
candidates	-13.4911
shap	-13.4912
zeroes	-13.4913
shapes	-13.492
cases	-13.4922
negativos	-13.4924
vict	-13.4925
▁')'	-13.4926
Init	-13.4927
nsumz	-13.4927
yelo	-13.4932
nsave	-13.4942
nctr	-13.4942
▁ph	-13.4943
▁ro	-13.495
by	-13.4968
floors	-13.4971
▁"0")	-13.4976
540	-13.4985
sw	-13.4987
numedges	-13.5005
▁Get	-13.5009
lef	-13.5012
nhasil	-13.5023
lift	-13.5026
▁tstep	-13.5027
tipe	-13.5027
39	-13.5041
▁7]	-13.5059
mCount	-13.5064
nwinner	-13.5071
narray	-13.5079
6)	-13.508
hr	-13.5081
▁sa	-13.5084
ast	-13.5086
[7])	-13.5089
'][	-13.509
▁rt	-13.5093
twoPow	-13.51
nlessons	-13.5108
uy	-13.5111
▁13;	-13.5112
▁jwb	-13.5121
ncoins	-13.513
▁1222	-13.5131
_1(	-13.5138
]][0]	-13.5149
atur	-13.515
nchk	-13.5163
medals	-13.517
▁ye	-13.518
NA	-13.5182
riba	-13.5189
bk	-13.52
0.0	-13.5203
nH	-13.5205
andd	-13.5219
▁cntc	-13.5229
▁97]	-13.5239
ob	-13.5243
nso	-13.5244
nfrom	-13.526
▁face	-13.5278
ninch	-13.5285
▁Len	-13.5288
▁lmax	-13.5297
▁"1/1	-13.5307
players	-13.5311
cess	-13.5329
ize	-13.5338
Player	-13.5339
isited	-13.5342
ndiv	-13.5342
▁getNum	-13.5356
▁getPr	-13.5367
cz	-13.5371
$	-13.5378
schedule	-13.5379
Diamond	-13.5379
▁occurrences	-13.5379
[300300]	-13.5379
currentJoy	-13.5379
needPrezent	-13.5379
secondPointer	-13.5379
▁denomina	-13.5379
▁extreme	-13.5379
▁jawab	-13.5379
▁numFour	-13.5379
▁occurances	-13.5379
8979323846264338	-13.5379
qoutplayers	-13.5379
[501][501]	-13.5379
borderPoints	-13.5379
cumple	-13.5379
[200007]	-13.5379
gotValue	-13.5379
[3005]	-13.5379
RAND	-13.5379
[100004]	-13.5379
[256]	-13.5379
[150005]	-13.538
nrsel	-13.538
▁MaxNum	-13.538
[310]	-13.538
massiv	-13.538
Multi	-13.538
[109]	-13.5381
▁1023;	-13.5381
PRI	-13.5381
[2010]	-13.5381
(1001);	-13.5384
[300000]	-13.5384
▁seconddata	-13.5388
▁nEven	-13.539
▁reversed	-13.5391
(*(	-13.5392
fast	-13.5393
▁pjg	-13.5393
▁indG	-13.5394
▁wynik	-13.5395
maxmum	-13.5395
('=')	-13.5397
sym	-13.5401
[6][6]	-13.5405
▁mmap	-13.5407
setIt	-13.5407
▁65]++;	-13.541
▁myC	-13.541
room	-13.5416
yeet	-13.5416
njav	-13.5416
▁ce	-13.5417
satuan	-13.5418
▁blocked	-13.5418
▁fpb	-13.5418
ceils	-13.5419
Take	-13.542
▁"92	-13.5422
berOfRestaurants	-13.5422
▁0.001	-13.5424
gover	-13.5424
13579"	-13.5428
▁hpy	-13.543
ute	-13.5433
marked	-13.5434
empo	-13.5436
▁equ	-13.5439
▁plans	-13.5439
▁gas	-13.5441
ank	-13.5442
[30005]	-13.5445
Big	-13.5445
games	-13.5445
bob	-13.5449
▁secretar	-13.5449
▁reflect	-13.5453
cmn	-13.5457
▁perlas	-13.5458
▁notebooks	-13.5458
▁revStr	-13.5459
▁numOfteams	-13.5459
▁noOfprizes	-13.5459
▁javab	-13.5459
▁numofelements	-13.5459
▁secnumbs	-13.546
▁secretaryNum	-13.5461
▁binaryCode	-13.5461
▁phnum	-13.5461
▁Ncoins	-13.5467
▁pack	-13.5468
▁1010;	-13.5469
▁secretary	-13.547
maxa	-13.5471
▁newY	-13.548
▁10005;	-13.5482
nstatus	-13.5484
qplayers	-13.5496
▁kids	-13.5497
▁chores	-13.5498
▁winA	-13.5499
▁vertikal	-13.5501
)('	-13.5501
▁'{')	-13.5503
▁Ay	-13.551
nacum	-13.5513
▁increment	-13.5518
▁hot	-13.5518
|)	-13.5521
narmy	-13.5521
dasha	-13.5522
▁lime	-13.5527
▁bra	-13.5529
lie	-13.5534
▁"\0"	-13.5539
[24]	-13.5544
prize	-13.5544
1]);	-13.5548
▁Roz	-13.5553
▁added	-13.5555
▁bill	-13.5555
nshit	-13.5556
▁-1000000000	-13.5557
▁boy	-13.5557
ado	-13.5558
17;	-13.5559
exit	-13.5562
▁bucket	-13.5563
▁positivos	-13.5565
▁initial	-13.5565
▁smallest	-13.5566
nsss	-13.5567
▁cake	-13.5568
▁FB	-13.5573
▁SC	-13.5584
00;	-13.5597
▁ttem	-13.56
▁divisores	-13.5601
▁chay	-13.5602
▁ke	-13.5602
nupd	-13.5604
▁MD	-13.5606
(100001	-13.561
nsc	-13.561
(100000	-13.5614
integer	-13.5617
▁hpm	-13.562
divs	-13.563
▁chore	-13.5631
(1.5)	-13.5633
nact	-13.5635
lumn	-13.5638
▁vol	-13.5643
2[0]])	-13.5653
▁float	-13.5657
▁mayor	-13.5667
▁bulbs	-13.5669
▁maskY	-13.5674
▁cCount	-13.5677
nfa	-13.5682
ecuti	-13.5682
▁safe	-13.5686
ntim	-13.5688
▁rgt	-13.5689
nfla	-13.5693
▁limak	-13.5694
ntimes	-13.5697
▁cube	-13.5708
1000000000000000	-13.5709
▁-(-	-13.5709
▁orgStr	-13.5714
▁minnum	-13.5716
▁sim	-13.5718
nbra	-13.5724
▁270	-13.5724
▁gy	-13.5737
▁app	-13.5739
▁texto	-13.5739
▁dollar	-13.5756
▁letterx	-13.5762
▁sel	-13.5762
▁OK	-13.5768
▁most	-13.5768
--")	-13.5769
▁encrypt	-13.5773
2[1];	-13.5776
▁mcd	-13.5777
[{	-13.5781
▁minute	-13.5783
74	-13.5784
▁fla	-13.5786
▁cities	-13.5792
▁packs	-13.5794
▁bul	-13.5796
▁81;	-13.5798
ake	-13.5798
▁disc	-13.5799
nansy	-13.58
di	-13.5802
inder	-13.5814
▁ratios	-13.5818
▁ee	-13.5818
▁candidate	-13.5819
▁teste	-13.5821
▁got	-13.5822
xmax	-13.5824
▁Ex	-13.5824
Digit	-13.5836
▁myv	-13.5838
[200	-13.5843
▁100000001	-13.5845
nlevels	-13.5845
▁viii	-13.5848
808	-13.5853
Ch	-13.5862
Am	-13.5867
▁sho	-13.5867
▁medals	-13.5874
▁pntr	-13.5875
(2)))	-13.5875
▁zeroes	-13.5887
elv	-13.5889
ag	-13.5897
▁minimal	-13.5901
1(0)	-13.5921
4];	-13.5926
Se	-13.5929
[0]])	-13.593
▁welfare	-13.5936
ti	-13.5938
▁station	-13.594
miniw	-13.5948
▁cn	-13.595
▁-100	-13.5953
subs	-13.5982
orty	-13.5985
▁stat	-13.5997
▁Yellow	-13.6004
ngrid	-13.6004
strc	-13.6023
2++	-13.603
npot	-13.6034
▁ho	-13.6036
cash	-13.6041
nnom	-13.605
▁100005	-13.605
▁lett	-13.607
3_2	-13.6077
▁minval	-13.6078
▁newk	-13.6083
▁ten	-13.6102
▁sides	-13.6102
nml	-13.6106
▁Vector	-13.6111
boo	-13.6116
▁dq	-13.6116
seen	-13.6118
nlef	-13.6118
nremainder	-13.6132
▁perm	-13.6137
sig	-13.6151
▁128	-13.6152
nmaxval	-13.6154
▁"--	-13.6167
_7	-13.6178
▁1.0);	-13.618
jol	-13.6185
remove	-13.6191
arch	-13.6194
▁location	-13.6201
▁lastm	-13.6211
▁rr	-13.6213
mov	-13.6227
nconti	-13.6238
15	-13.6239
ida	-13.624
----------+"	-13.6242
nmatches	-13.6243
alindromic	-13.6245
nload	-13.6253
cun	-13.6263
nproc	-13.6265
▁mima	-13.6279
7]	-13.628
(-1	-13.6298
noff	-13.6298
[201][2	-13.6304
zhi	-13.6324
▁wal	-13.6326
ect	-13.6329
▁child	-13.633
▁Total	-13.6336
4]	-13.6338
▁larger	-13.6344
odo	-13.6368
▁LL	-13.6372
nboxes	-13.6373
"}	-13.6382
oc	-13.6383
maxsub	-13.6395
▁auxl	-13.641
▁ds	-13.6426
nsumm	-13.644
(100	-13.6445
▁pointer	-13.645
000020;	-13.6455
year	-13.646
▁bacterias	-13.6464
final	-13.647
Odd	-13.6471
nalpha	-13.6492
10000000[	-13.6493
cent	-13.6495
▁anses	-13.6499
▁fuck	-13.6503
nmult	-13.6533
previous	-13.6547
usa	-13.6549
maxcol	-13.6577
▁coin	-13.6578
vetor	-13.6583
distanc	-13.6591
▁sorted	-13.6591
height	-13.6601
drinks	-13.6602
▁wz	-13.6603
nuser	-13.6613
▁mina	-13.6634
▁!((	-13.6637
reset	-13.6656
31	-13.6662
ncycles	-13.6665
dic	-13.6666
[100010	-13.6666
candidate	-13.6668
▁Hash	-13.6671
rim	-13.6679
fake	-13.6681
fre	-13.6682
biaoji	-13.6686
actual	-13.6687
▁bol	-13.6687
page	-13.6694
fives	-13.6695
roll	-13.6705
▁lane	-13.6708
nmaxs	-13.6711
primo	-13.6718
nfail	-13.6726
1[10]	-13.6733
biao	-13.6734
▁fail	-13.6738
▁mmax	-13.6739
gra	-13.6755
▁1]])	-13.6763
ment	-13.6766
nega	-13.677
---------------	-13.6775
nnxt	-13.6777
mal	-13.6788
ntep	-13.6803
was	-13.6804
isplay	-13.6811
pntr	-13.6812
20]	-13.6827
noth	-13.6833
▁23	-13.6845
maxrow	-13.6845
2[1]))	-13.685
[100001	-13.6868
nvar	-13.6874
▁(-1))	-13.6874
[0	-13.6879
ates	-13.689
▁ft	-13.6896
'*')	-13.6898
fim	-13.6909
nfff	-13.6911
▁ord	-13.6924
des	-13.6941
ncond	-13.6955
3];	-13.6968
100010	-13.6978
nlose	-13.6981
xd	-13.6993
nmod	-13.6994
hab	-13.6998
nrows	-13.6999
stat	-13.7003
▁yellow	-13.7014
band	-13.7016
▁(*(	-13.7023
hela	-13.7025
2[105]	-13.7028
>(	-13.7028
▁buff	-13.7028
fuck	-13.7043
50.	-13.7044
▁10000000000000	-13.7047
Bu	-13.7048
nce	-13.705
▁cd	-13.7066
wz	-13.7068
whi	-13.7092
000000	-13.7092
▁mbs	-13.7092
mie	-13.7108
500;	-13.7122
ecom	-13.7131
arra	-13.7136
rez	-13.7136
bits	-13.7139
itch	-13.7142
▁on	-13.7143
▁jjj	-13.7171
case	-13.7183
▁rv	-13.7187
cot	-13.72
▁fu	-13.7219
▁ky	-13.7222
nAns	-13.7231
yello	-13.7244
▁SS	-13.725
▁jump	-13.7252
▁oc	-13.7277
▁blu	-13.7277
toPurchase	-13.7278
va	-13.7279
ulo	-13.7288
#.#.#.#.|.|)"	-13.7306
reports	-13.7322
equal	-13.7334
newX	-13.7338
▁96)	-13.7342
denied	-13.7344
heap	-13.7344
inite	-13.7347
▁qs	-13.7347
isLucky	-13.735
▁99999	-13.735
feature	-13.7357
▁imax	-13.7362
pasos	-13.7364
vocal	-13.7365
password	-13.7367
maxSections	-13.7369
ick	-13.7369
180.0	-13.7373
sheet	-13.7378
parity	-13.7378
capacity	-13.738
maskX	-13.7381
finishx	-13.7382
rIdx	-13.7383
▁che	-13.7386
IsM	-13.7388
minute	-13.7388
simon	-13.7389
busca	-13.739
replace	-13.7391
wrkdsz	-13.7391
people	-13.7392
myMap	-13.7392
tedad	-13.7394
matrix	-13.7395
encrypt	-13.7395
enemy	-13.7398
distinct	-13.74
insertion	-13.7401
▁fans	-13.7402
▁minb	-13.7405
CUR	-13.7411
mole	-13.7412
xorr	-13.7413
dollar	-13.7416
bexc	-13.7417
nbits	-13.7426
▁cru	-13.7428
▁proc	-13.7428
_2;	-13.7431
inputLength	-13.7432
allA	-13.7433
[0][1])	-13.7439
lzl	-13.7442
▁0.0	-13.7443
texto	-13.7446
2[5]	-13.7456
maap	-13.7458
2][	-13.7467
OK	-13.7476
packs	-13.7477
blep	-13.7487
tpresents	-13.7488
654	-13.7489
nnC	-13.751
▁gla	-13.7519
copy	-13.752
indimpar	-13.7521
nbl	-13.7522
station	-13.7523
cities	-13.7531
prod	-13.7532
ratios	-13.7534
nxd	-13.7539
indpar	-13.7545
ndigit	-13.7546
▁"..|	-13.755
qtb	-13.755
ador	-13.7552
posL	-13.7558
FA	-13.7559
nhor	-13.7561
tail	-13.7563
▁Ta	-13.7567
▁"7"	-13.7569
src	-13.759
nsumA	-13.7591
beginat	-13.7613
[8	-13.7616
[4000	-13.7626
Hm	-13.7632
200000;	-13.7647
Amount	-13.7654
11	-13.7659
▁sp	-13.7662
2019	-13.7669
stud	-13.767
ndic	-13.7678
li	-13.7679
udah	-13.7681
mon	-13.7684
128	-13.7704
nprep	-13.7706
nslice	-13.7709
ition	-13.7713
blah	-13.7724
eed	-13.7731
Cmp	-13.7736
lead	-13.7737
inches	-13.7737
checke	-13.7738
▁finish	-13.7747
()])	-13.776
say	-13.7763
▁join	-13.7764
wei	-13.7777
au	-13.778
48);	-13.7796
tre	-13.7803
▁cs	-13.7803
]]--	-13.7805
▁minp	-13.7805
maxl	-13.7806
▁'0'));	-13.7819
35;	-13.7823
▁57	-13.7831
ards	-13.7838
Sol	-13.7842
./"	-13.7842
olume	-13.7846
▁HE	-13.7846
▁hah	-13.785
qtd	-13.7854
▁multipl	-13.7855
sumA	-13.7858
fi	-13.7866
ow	-13.7867
levator	-13.7867
Waste	-13.7867
Zeros	-13.7869
Root	-13.787
mainvector	-13.7871
[501	-13.7872
▁sort	-13.7874
▁mirror	-13.7875
nominator	-13.7877
▁StaionsDistance	-13.7879
▁binarycoding	-13.7879
BBBBBBB	-13.7879
▁sentence	-13.7879
banyaklemon	-13.7879
cardOnTable	-13.7879
▁sCopy	-13.7879
555555555	-13.7879
FLAG	-13.7879
NumberOfContests	-13.7879
NumberOfStations	-13.7879
RGBYW	-13.7879
TheOtherDestance	-13.7879
alguienSabe	-13.7879
discountQuantity	-13.7879
domino	-13.7879
duplicate	-13.7879
extrema	-13.7879
minbitcoins	-13.7879
numPeople	-13.7879
qingkuang	-13.7879
rowFull	-13.7879
textVolume	-13.7879
vaporeon	-13.7879
warOpen	-13.7879
▁"32767"	-13.7879
▁banyakapel	-13.7879
▁banyakpear	-13.7879
▁firstLine	-13.7879
▁mierda	-13.7879
▁noOfStudents	-13.7879
▁originalState	-13.7879
▁restBetween	-13.7879
▁tabeSize	-13.7879
▁wordVolume	-13.7879
6789	-13.7879
[200025]	-13.7879
participantes	-13.7879
selisih	-13.7879
▁"2147483647"	-13.7879
▁IleMeczy	-13.7879
strunity	-13.7879
▁smjerovi	-13.7879
▁tranSize	-13.7879
▁kvbox	-13.7879
espeon	-13.7879
maxVolume	-13.7879
erfect	-13.7879
▁0.25)	-13.7879
▁salary	-13.7879
reached	-13.7879
▁likeNum	-13.7879
▁sqLIM	-13.7879
antisimon	-13.7879
[1069]	-13.7879
▁ftpass	-13.7879
▁2048	-13.7879
ambos	-13.7879
wasOut	-13.7879
minPockets	-13.7879
[120][120]	-13.7879
filter	-13.7879
Statement	-13.7879
shovelNum	-13.7879
▁floorNum	-13.7879
▁otherday	-13.788
vertex	-13.788
▁decrease	-13.788
▁realR	-13.788
label	-13.788
isTwo	-13.7881
lphabet	-13.7881
[5000000]	-13.7881
nmarge	-13.7881
▁olnum	-13.7881
nolnum	-13.7881
▁noob	-13.7881
▁447	-13.7882
[56]	-13.7882
[220]	-13.7882
▁250.0)	-13.7886
cupboard	-13.7886
turned	-13.7887
gender	-13.7887
▁nInputs	-13.7889
▁tgd	-13.7889
▁chrish	-13.7891
▁444	-13.7892
▁ggg	-13.7892
▁flights	-13.7892
aaabbc	-13.7892
[3][1]	-13.7893
ree	-13.7894
answerFound	-13.7894
[3][201]	-13.7894
substrings	-13.7895
1300006	-13.7895
[4005]	-13.7896
▁maxTemp	-13.7898
mis	-13.7898
zzzzzzzzzzz	-13.7899
damageY	-13.7899
flush	-13.7901
blem	-13.7901
tmaxmin	-13.7901
ajor	-13.7901
athome	-13.7902
#.#.#.#.#.|.|"	-13.7903
nwynik	-13.7903
▁marge	-13.7905
▁Bstep	-13.7906
▁']'	-13.7907
▁winC	-13.7907
[1004]	-13.7907
Amaze	-13.7909
[81]	-13.7911
▁VI	-13.7912
ntakeoff	-13.7913
▁lenth	-13.7915
emm	-13.7915
[1000100]	-13.7915
currdiv	-13.7918
▁-9999999	-13.7919
▁dead	-13.792
printed	-13.792
MaxN	-13.7923
[52]	-13.7925
(&	-13.7925
1200000	-13.7928
▁avai	-13.7932
▁difB	-13.7933
▁0.01	-13.7937
▁meio	-13.7938
lang	-13.7941
6]	-13.7942
▁limes	-13.7942
"/"	-13.7942
▁1.00)	-13.7944
▁colums	-13.7945
▁474	-13.7949
▁477	-13.7951
▁QA	-13.7954
oCount	-13.7956
inputArr	-13.7957
chax	-13.7959
dec	-13.7965
npause	-13.7967
▁miax	-13.7968
▁lks	-13.7969
reach	-13.797
▁smaller	-13.7971
▁BG	-13.7972
▁available	-13.7972
▁diffuclty	-13.7972
OW	-13.7973
▁kecil	-13.7973
▁afterP	-13.7974
▁uper	-13.7974
▁mitad	-13.7975
▁sumador	-13.7976
▁tomas	-13.7978
▁"11111"	-13.7978
▁Pedy	-13.7978
▁falta	-13.7979
▁militros	-13.7979
▁aTypes	-13.798
▁Potega	-13.798
▁aPrices	-13.798
▁rightMost	-13.7981
sss	-13.7981
▁binaryChar	-13.7982
▁knight	-13.7982
highid	-13.7983
▁Vcost	-13.7984
▁today	-13.7986
▁indexG	-13.7987
▁uu	-13.7993
▁13	-13.7994
Rest	-13.7994
[1][0]][1]	-13.7997
▁esq	-13.7998
▁Mcost	-13.7998
roduc	-13.7998
▁Minv	-13.8
▁tiga	-13.8003
▁3000;	-13.8005
▁lastpos	-13.8007
swaped	-13.8013
▁kiri	-13.8015
[1][1]][1]	-13.8018
▁lowar	-13.8018
xop	-13.802
▁cws	-13.8021
ower	-13.8023
▁ccws	-13.8024
▁From	-13.8027
SE	-13.8028
▁hand	-13.8031
sb	-13.8033
▁lvl	-13.8038
nrep	-13.8041
nbig	-13.8041
self	-13.8043
▁tagua	-13.8044
▁gro	-13.8044
nsec	-13.8045
ES	-13.8048
bstartc	-13.8049
cmax	-13.805
77	-13.8051
▁yiti	-13.8052
nmaxb	-13.806
nvertikal	-13.8061
AG	-13.8062
▁newnut	-13.8066
▁likes	-13.8068
(1000);	-13.8068
ant	-13.8073
▁tambah	-13.8073
▁alana	-13.8077
▁ispal	-13.8078
▁sequence	-13.8081
666	-13.8082
▁leaves	-13.8084
nnumbers	-13.8084
▁getNext	-13.8087
samey	-13.8089
▁complexity	-13.8091
ncontN	-13.8093
▁mindist	-13.8093
endpos	-13.8094
▁supply	-13.8101
▁fristOven	-13.8103
▁"0000000"	-13.8106
isv	-13.8109
▁taka	-13.8111
▁maxgro	-13.8114
▁maxJoy	-13.8115
▁MID	-13.8116
▁token	-13.8116
nword	-13.8116
▁fasum	-13.8117
▁kiek	-13.8118
▁client	-13.8118
▁"1111111"	-13.8119
▁maxName	-13.812
▁perRowColor	-13.812
▁DashaCount	-13.8122
▁currgcd	-13.8122
▁elevator	-13.8123
!")	-13.8123
intpart	-13.8124
▁prefixed	-13.8124
32_	-13.8125
▁esto	-13.8127
nsolx	-13.8131
▁menorB	-13.8131
[17]	-13.8133
▁prevI	-13.8139
nfinal	-13.814
hb	-13.814
nperson	-13.8142
7")	-13.8143
▁winB	-13.8143
▁tbd	-13.8145
employees	-13.815
▁Freq	-13.8153
▁maxPrime	-13.8154
breakFlag	-13.8154
▁5000;	-13.8158
▁mnth	-13.8159
multiple	-13.8159
▁upd	-13.8159
')]	-13.8159
▁nomer	-13.8161
lasttime	-13.8167
njjj	-13.817
neC	-13.818
▁ax	-13.8185
ntoggle	-13.8191
▁press	-13.8195
▁wl	-13.8197
npages	-13.8206
axDominoesNumber	-13.8217
▁sumodd	-13.8217
elves	-13.8218
▁totalpass	-13.8219
verif	-13.822
▁rts	-13.8233
▁'8')))	-13.8234
OD	-13.8236
▁seven	-13.8237
▁ashu	-13.8237
▁sumw	-13.8237
▁maxfather	-13.8237
▁lcp	-13.8238
▁quit	-13.8246
▁blocks	-13.8247
Day	-13.8248
npol	-13.8249
ndiamond	-13.8251
▁hour	-13.8252
bestw	-13.8254
ABC	-13.8254
eCount	-13.8255
nspect	-13.8256
[69]	-13.8256
▁cry	-13.8256
▁borrow	-13.8257
▁maxer	-13.8258
4")	-13.8259
'<'	-13.8259
▁replace	-13.8262
nzuo	-13.8263
▁penalty	-13.8263
▁monedas	-13.8263
gifts	-13.8265
▁pict	-13.8265
▁minTime	-13.8268
▁{0	-13.8269
▁faktori	-13.8271
prise	-13.8281
24;	-13.8289
▁stck	-13.8291
▁indpar	-13.8292
backw	-13.8294
nCnt	-13.8294
nzerocnt	-13.8301
▁qwe	-13.8301
▁indimpar	-13.8302
▁files	-13.8305
lax	-13.8311
▁tpresents	-13.8314
▁mayu	-13.8316
[0]));	-13.8319
▁lasth	-13.8324
0(	-13.8326
02	-13.8335
▁Res	-13.8342
▁inputLength	-13.8347
▁100000000000;	-13.8351
▁maxV	-13.8356
INT	-13.8359
LA	-13.8359
▁disy	-13.836
▁kill	-13.8364
▁pick	-13.8372
nyear	-13.8382
▁maxlevel	-13.8386
maximo	-13.8392
(201)	-13.8394
▁rIdx	-13.84
▁IsM	-13.84
years	-13.8402
1_2	-13.8404
▁parity	-13.8406
▁maskX	-13.8412
▁tipe	-13.8415
nkeep	-13.8416
▁maxSections	-13.8416
▁qtd	-13.8419
dc	-13.8427
nacu	-13.8435
▁maap	-13.8441
ndenied	-13.8444
▁heap	-13.8447
▁1500000	-13.8449
dari	-13.8451
emb	-13.8453
nck	-13.8454
nap	-13.8456
BS	-13.8458
cols	-13.8462
▁gmin	-13.847
iro	-13.8477
nmaxW	-13.8481
▁exc	-13.8488
▁yelo	-13.8488
▁maxP	-13.8489
nexist	-13.8495
nleaf	-13.8497
▁shapes	-13.8502
▁2)))	-13.8502
nsheets	-13.8505
colo	-13.8507
[150	-13.8508
▁usa	-13.8509
age	-13.8509
init	-13.8512
▁-10000	-13.8518
nmaxim	-13.8519
samex	-13.8521
npntr	-13.8522
poss	-13.8522
four	-13.8525
lis	-13.8529
▁medal	-13.8534
[12	-13.8544
▁wong	-13.8553
nband	-13.8555
nbiao	-13.8558
▁cty	-13.8559
▁rprev	-13.8561
])));	-13.8564
((*	-13.8569
curY	-13.857
▁"..	-13.8576
▁arrayi	-13.8589
▁90	-13.859
▁kh	-13.8594
▁2}	-13.8594
nbiaoji	-13.86
▁gp	-13.8605
nmaxlen	-13.8606
▁flat	-13.8613
tplayers	-13.8617
▁Left	-13.8624
curX	-13.8629
[5][	-13.863
ndistanc	-13.8637
▁recurs	-13.8652
▁trd	-13.8656
finall	-13.8669
nbao	-13.8669
▁ya	-13.8676
▁auxp	-13.8679
Fre	-13.8686
▁nineteen	-13.8692
pposi	-13.8696
valido	-13.8706
▁46	-13.8708
▁minim	-13.871
▁maxsalary	-13.8711
▁prevr	-13.8724
▁matr	-13.8728
▁code	-13.8733
nmaps	-13.8736
kiu	-13.8743
▁hou	-13.8744
▁"8	-13.8745
▁52)	-13.8747
nsign	-13.8748
#.#.#.#.#.|	-13.8749
▁startx	-13.875
▁10000000)	-13.8755
nfake	-13.8758
▁ts	-13.876
nqClose	-13.8767
▁2000	-13.8771
500000;	-13.878
oct	-13.879
shu	-13.8802
vct	-13.8803
nro	-13.8805
▁fors	-13.882
stck	-13.8831
▁piso	-13.8834
03	-13.8843
▁anton	-13.8843
put	-13.8844
[18]	-13.8849
[400	-13.8851
nmasuk	-13.8853
ned	-13.8868
▁maxc	-13.887
minsq	-13.887
▁2000010	-13.8878
▁lp	-13.8882
(1005	-13.8883
▁tmpb	-13.8884
wap	-13.8888
2[200]	-13.8888
[100][2]	-13.8893
lag	-13.8895
▁order	-13.8895
2[10	-13.8898
ncha	-13.8899
nitem	-13.89
▁trow	-13.8909
ngra	-13.8913
dodec	-13.8915
[102][10	-13.8929
▁timer	-13.8933
][1][1]	-13.8938
mLeft	-13.8941
▁++(	-13.8944
ntC	-13.8973
bst	-13.8982
disx	-13.8988
currentans	-13.9013
nbisa	-13.9017
▁tol	-13.9025
ul	-13.9034
isI	-13.9036
▁-100;	-13.9044
istan	-13.9048
▁'=';	-13.9058
▁lab	-13.9058
▁stars	-13.9058
isP	-13.9065
---------+"	-13.9071
5);	-13.9071
▁tests	-13.9072
▁99999999999999	-13.9079
▁bro	-13.908
ymin	-13.9106
gay	-13.9135
nhu	-13.9135
▁')';	-13.9151
tob	-13.9152
▁kanan	-13.9181
▁"?")	-13.9182
WIN	-13.9185
priority	-13.9199
combs	-13.92
▁lenA	-13.9209
▁cei	-13.9216
▁ny	-13.9219
▁47;	-13.9221
ove	-13.9224
▁unit	-13.9233
sieve	-13.9234
aly	-13.9242
▁Win	-13.9243
napp	-13.9248
1[100005]	-13.9264
VE	-13.9265
▁{31	-13.9288
npres	-13.9296
▁100))	-13.9298
He	-13.9299
[11	-13.93
stop	-13.9306
rit	-13.931
ic	-13.9313
cion	-13.9315
maxcount	-13.9328
ho	-13.9333
▁wo	-13.9344
▁14	-13.9372
▁Pow	-13.9375
Oven	-13.9432
▁maxid	-13.9439
nsumr	-13.9452
▁-2}	-13.9463
])))	-13.9463
▁maxval	-13.9472
▁Fa	-13.9476
lca	-13.9478
▁primeFactures	-13.9482
nsett	-13.9486
▁back	-13.9489
ot	-13.9491
dub	-13.9503
permu	-13.9516
nfaktor	-13.9517
▁Way	-13.9522
npal	-13.9535
etime	-13.9537
cant	-13.9538
30	-13.9539
1[4]	-13.9541
▁arm	-13.9542
nad	-13.9556
nmcnt	-13.9564
posx	-13.9568
gmax	-13.9584
▁pA	-13.9589
ept	-13.9596
divisor	-13.9598
▁hl	-13.9619
nkey	-13.9645
▁1000000002	-13.966
▁"3	-13.9662
cm	-13.9674
doi	-13.9676
0(0)	-13.9694
("3	-13.9698
player	-13.9708
nresta	-13.9727
▁notup	-13.9755
rub	-13.9755
urm	-13.9764
difference	-13.9795
huiwen	-13.9797
▁car	-13.9809
remaining	-13.9814
cntone	-13.9819
▁nod	-13.9819
6);	-13.9819
buf	-13.983
stac	-13.9831
686	-13.9833
hy	-13.9836
box	-13.9838
leaf	-13.9838
nname	-13.9841
▁sal	-13.9841
isD	-13.9845
▁reading	-13.9849
dragon	-13.985
▁suml	-13.9861
▁jmin	-13.9872
▁as	-13.9875
acc	-13.9878
did	-13.9886
▁jol	-13.9887
nshel	-13.9894
large	-13.9909
ndsa	-13.991
nNext	-13.991
hour	-13.9915
▁fq	-13.9926
horizontal	-13.9926
free	-13.9942
▁say	-13.9956
umberof	-13.9958
ess	-13.9963
nansh	-13.9967
keep	-13.9972
ways	-13.9973
bul	-13.9978
sheets	-13.9979
▁{2	-13.9982
orgStr	-13.9988
nff	-13.9991
▁totalc	-13.9992
maxind	-14.0013
▁asc	-14.002
▁suc	-14.002
▁Vasya	-14.0045
00]	-14.0049
qiu	-14.005
vect	-14.0052
▁118	-14.0071
(9);	-14.0079
maxnum	-14.0089
▁(;	-14.009
tol	-14.0094
scorea	-14.0094
▁me	-14.0095
[60	-14.0098
sho	-14.0099
File	-14.0127
#.#.#.#.#.#.#.#.	-14.0135
owl	-14.0137
ncaptain	-14.014
cord	-14.0141
1]][	-14.0142
tSum	-14.0148
▁((5	-14.0153
▁vc	-14.0161
][0][1]	-14.0166
▁fs	-14.0167
265358979323846	-14.0167
nmed	-14.0176
cd	-14.0178
sumB	-14.0193
nisPrime	-14.0196
▁wen	-14.0202
▁bic	-14.0209
-8)	-14.0227
▁thi	-14.0229
ass	-14.0235
nasphalt	-14.024
▁itm	-14.0244
nDo	-14.0245
▁'9'))	-14.025
1[101]	-14.0266
palindrom	-14.0268
3")	-14.0274
][1]))	-14.0287
Row	-14.0301
reading	-14.0301
maxim	-14.0303
nprintSt	-14.0309
▁srt	-14.031
nposx	-14.0334
fr	-14.0341
odds	-14.036
▁eq	-14.0365
acum	-14.0394
prevr	-14.0399
nel	-14.0404
▁bf	-14.0405
▁-2	-14.0417
▁aX	-14.0417
magic	-14.0443
----------------	-14.0446
[80	-14.046
pot	-14.0466
#.#.#.#.|.|"	-14.0473
mmax	-14.0477
▁hmn	-14.0483
▁uni	-14.0489
▁numW	-14.0493
button	-14.0496
nerr	-14.0502
▁-100000000	-14.0502
47	-14.0513
bt	-14.0513
▁('	-14.0526
▁eight	-14.0538
cei	-14.0548
▁1}}	-14.0558
db	-14.0562
▁tempm	-14.0586
[2000	-14.059
'\0'	-14.0598
maxVal	-14.0601
Move	-14.0603
turns	-14.0612
▁3];	-14.0616
▁tri	-14.0621
identical	-14.0623
▁hd	-14.0634
watched	-14.0641
SumOf	-14.0644
▁twoPow	-14.0644
jiati	-14.0645
waysCount	-14.0646
goal	-14.0646
maxlen	-14.0652
▁tg	-14.0656
tempSame	-14.0656
awal	-14.0668
rv	-14.0668
before	-14.0674
differentSocks	-14.0674
smlr	-14.0677
verticalMoves	-14.068
▁"1")	-14.0682
comando	-14.0683
safe	-14.0685
zuida	-14.0686
sideMoves	-14.0692
chore	-14.0694
studentTS	-14.0695
menorW	-14.0696
contains	-14.0696
fastexp	-14.0698
quotient	-14.0699
monedas	-14.07
penalty	-14.07
▁gift	-14.0703
posiciones	-14.0707
prohibited	-14.0707
profits	-14.0708
borrow	-14.0709
pResult	-14.0709
pangkat	-14.0711
linha	-14.0711
NULL	-14.0712
defcos	-14.0714
maskY	-14.0714
reqNo	-14.0715
zuo	-14.0716
after	-14.0719
nearest	-14.072
1++	-14.072
▁2.000	-14.0721
mayor	-14.0722
walk	-14.0723
valori	-14.0726
remnut	-14.0727
control	-14.0728
▁1.5	-14.0732
quit	-14.0737
limak	-14.0739
shengyu	-14.074
newsum	-14.0741
wait	-14.0743
empat	-14.0745
curDay	-14.0746
groups	-14.0751
nopen	-14.0751
wrong	-14.0755
discounts	-14.0756
text	-14.0757
▁boo	-14.0759
choose	-14.076
triangle	-14.0762
▁58)	-14.0765
cyka	-14.0766
lAns	-14.0767
firstdata	-14.0768
fg	-14.077
ncomb	-14.0777
candies	-14.0779
passou	-14.0783
(105	-14.0794
esto	-14.0798
amount	-14.08
nextprime	-14.0801
3.0	-14.0806
'1'	-14.0814
'5'	-14.0814
Check	-14.0817
totalpass	-14.0819
nsumc	-14.0822
inicial	-14.0824
][1][0]	-14.0831
▁50000	-14.0831
niC	-14.0841
▁ba	-14.0847
mmc	-14.0856
▁kmax	-14.0856
▁whi	-14.0861
nhe	-14.0863
▁so	-14.0888
▁aY	-14.0891
bottles	-14.0892
▁tren	-14.0895
())))	-14.0901
maxlevel	-14.0903
End	-14.0905
[9])	-14.0912
lev	-14.0914
][0][0]	-14.0924
▁prog	-14.0926
ish	-14.0932
choc	-14.0933
▁Dis	-14.0941
▁cans	-14.0946
▁34	-14.0952
▁faktor	-14.0953
)'	-14.0961
maxW	-14.0969
ru	-14.0969
nsp	-14.0971
MN	-14.098
▁INFL	-14.0982
jwb	-14.0984
hol	-14.0984
dia	-14.0986
acumx	-14.0994
▁remd	-14.0995
")))	-14.1003
LC	-14.1007
▁123	-14.1014
▁5.0	-14.1015
rate	-14.1017
118	-14.1024
nty	-14.103
im	-14.1031
.............	-14.1034
mol	-14.1041
'>'	-14.1061
vmin	-14.1077
bulbs	-14.1078
shelb	-14.1081
▁"2/3	-14.1087
▁"5/6	-14.1087
▁"1/3	-14.1087
▁"1/2	-14.1092
maps	-14.1098
ncy	-14.1119
▁"1/6	-14.1122
myv	-14.1127
[1005	-14.1131
zerocnt	-14.1132
timr	-14.114
ult	-14.1146
ets	-14.1148
gla	-14.115
▁pali	-14.1171
positivo	-14.1172
negativo	-14.1176
extPrime	-14.1176
characters	-14.1179
ffic	-14.1184
nsa	-14.1189
ansx	-14.1191
bnew	-14.1199
ntriang	-14.1201
'3'	-14.1201
arget	-14.1203
Word	-14.1204
olution	-14.1207
qrt	-14.1208
▁alexey	-14.1211
ockets	-14.1212
changedVotes	-14.1212
timeOfEnding	-14.1212
▁maxGive	-14.1212
▁particpant	-14.1212
▁encoded	-14.1212
▁travel	-14.1212
yippee	-14.1212
▁garrafas	-14.1212
▁inPutStr	-14.1212
▁murdered	-14.1212
▁quantity	-14.1212
Distance	-14.1212
[1440]	-14.1212
availabe	-14.1212
galaxy	-14.1212
haveSmallLetter	-14.1212
hayColision	-14.1212
lastZero	-14.1212
leavekid	-14.1212
mayuscula	-14.1212
numMedal	-14.1212
purchaseQuantity	-14.1212
shouldContinue	-14.1212
tSinOven	-14.1212
unfortunate	-14.1212
uniqueCharacters	-14.1212
utility	-14.1212
wasBest	-14.1212
▁BestCoupon	-14.1212
▁FoundCard	-14.1212
▁bilangan	-14.1212
▁chatSec	-14.1212
▁collect	-14.1212
▁columnFull	-14.1212
▁floorToGo	-14.1212
▁fuente	-14.1212
▁hidden	-14.1212
▁hoursSpent	-14.1212
▁limoes	-14.1212
▁minLimon	-14.1212
▁noOfOranges	-14.1212
▁numShapes	-14.1212
▁punkty	-14.1212
▁quick	-14.1212
▁supercentral	-14.1212
▁unhack	-14.1212
Answers	-14.1212
dropout	-14.1212
numberOfInputs	-14.1212
▁0.00001)	-14.1212
▁handels	-14.1212
▁plyrs	-14.1212
isBest	-14.1212
kpyto	-14.1212
orginal	-14.1212
respuesta	-14.1212
source	-14.1212
▁greeting	-14.1212
▁unsuch	-14.1212
▁validProblems	-14.1212
banknotes	-14.1212
▁MCM	-14.1212
▁ichdama	-14.1212
▁papersper	-14.1212
[600][600]	-14.1212
components	-14.1212
isLesson	-14.1212
segundos	-14.1212
▁juntos	-14.1212
▁minCoins	-14.1212
▁numberOfLucky	-14.1212
_7_4	-14.1212
certos	-14.1212
▁passCode	-14.1212
▁virus	-14.1212
statements	-14.1212
▁minSal	-14.1212
▁destino	-14.1212
▁"0/1	-14.1212
▁origin	-14.1212
▁whiteAns	-14.1212
▁37000	-14.1212
success	-14.1212
thislen	-14.1212
▁Tonya	-14.1212
kontol	-14.1212
statment	-14.1212
▁onemore	-14.1212
rigth	-14.1212
Toats	-14.1212
▁bincode	-14.1212
cifra	-14.1212
▁comeco	-14.1212
isStop	-14.1212
▁nhack	-14.1213
paichi	-14.1213
▁smallAns	-14.1213
hutch	-14.1213
camino	-14.1213
▁patok	-14.1213
▁entry	-14.1213
numCup	-14.1213
▁"14"	-14.1213
▁firstDay	-14.1213
qplays	-14.1213
▁lastrowa	-14.1213
▁Plus	-14.1213
▁alexeyI	-14.1213
crease	-14.1213
[200009]	-14.1213
▁angel	-14.1214
▁"$"	-14.1214
distressed	-14.1214
finished	-14.1214
[106]	-14.1214
▁exCount	-14.1214
▁vvod	-14.1214
mirrorup	-14.1215
▁747	-14.1215
▁5005;	-14.1215
sumAux	-14.1215
▁774	-14.1215
▁xiao	-14.1215
mirrorright	-14.1215
12345	-14.1215
boxees	-14.1215
▁horiz	-14.1215
[30][30]	-14.1216
paila	-14.1216
locale	-14.1216
[1024]	-14.1216
actions	-14.1216
html	-14.1216
matrex	-14.1217
bestIndex	-14.1217
▁newsquare	-14.1217
Fast	-14.1217
[440	-14.1218
▁simmin	-14.1218
colour	-14.1218
▁term	-14.1218
▁doll	-14.1219
▁meet	-14.1219
▁2000005;	-14.1219
▁744	-14.1219
'0'	-14.1219
trash	-14.1219
usadas	-14.1219
[100006]	-14.122
(2002)	-14.1221
dwj	-14.1222
▁924	-14.1222
waiter	-14.1223
lega	-14.1223
upperCount	-14.1224
yeah	-14.1224
▁Wsp	-14.1224
▁maxWord	-14.1224
Fill	-14.1225
▁gede	-14.1226
▁deck	-14.1228
▁prazn	-14.1228
▁maxWaste	-14.1229
isRoot	-14.123
▁Vtime	-14.1232
▁modPow	-14.1232
[99]	-14.1232
▁obj	-14.1233
[4][11]	-14.1233
zeroCount	-14.1234
▁hack	-14.1235
nbuns	-14.1236
▁peek	-14.1236
poped	-14.1236
LIM	-14.1236
▁2000000009	-14.1238
▁unos	-14.1238
▁asli	-14.124
▁hlp	-14.124
[1][1][	-14.124
▁modul	-14.1241
maxindex	-14.1241
[202][2	-14.1242
▁numround	-14.1247
fourcount	-14.1249
OfM	-14.125
limake	-14.125
curAng	-14.1251
▁Cost	-14.1252
mltotal	-14.1253
▁360));	-14.1253
slices	-14.1254
Fir	-14.1254
[104]	-14.1256
150]	-14.1257
camp	-14.1257
ndesk	-14.1259
[10][100]	-14.1259
▁lpalin	-14.126
until	-14.1261
▁colume	-14.1262
▁util	-14.1262
▁wtf	-14.1265
[115]	-14.1267
▁cilik	-14.1269
▁selves	-14.1269
▁another	-14.1269
▁35)	-14.127
nQA	-14.1271
easy	-14.1273
tempChar	-14.1275
▁veces	-14.1275
(101);	-14.1276
[16]	-14.1276
▁cgg	-14.128
▁anstemp	-14.1284
exrt	-14.1286
▁Mtime	-14.1286
Players	-14.1288
uppe	-14.1289
▁mean	-14.1292
▁haha	-14.1295
#.#.#.#.#.#.|.|"	-14.1296
sumthing	-14.1299
▁tick	-14.1299
)(2	-14.13
▁contBa	-14.1301
▁dois	-14.1303
▁contCh	-14.1307
▁(9999	-14.1312
▁passenger	-14.1315
▁closest	-14.1316
All	-14.1319
▁baack	-14.132
odw	-14.1322
nfac	-14.1325
cube	-14.1329
tstudy	-14.133
▁2005;	-14.133
▁women	-14.1331
Out	-14.1331
▁minD	-14.1332
factors	-14.1332
▁deflt	-14.1334
listprime	-14.1335
▁usedLen	-14.1337
1:1	-14.1338
etya	-14.1338
ncurlen	-14.1339
Abs	-14.1339
▁10000001;	-14.1346
▁"144"	-14.1347
▁12870	-14.1348
▁isOne	-14.1348
▁maxgas	-14.1348
▁prob	-14.1349
▁3432	-14.1349
▁(99999	-14.1349
▁teams	-14.135
▁nsticks	-14.135
▁damm	-14.135
▁numofzero	-14.1351
▁onerun	-14.1351
▁mapOfRow	-14.1351
▁kedua	-14.1351
▁48620	-14.1351
▁"127"	-14.1352
▁WandC	-14.1352
▁mapOfColumn	-14.1352
▁jmax	-14.1352
▁refrence	-14.1353
▁mxcommon	-14.1353
nxt	-14.1353
Cor	-14.1353
▁wordLen	-14.1353
▁username	-14.1354
▁casiresp	-14.1354
nmina	-14.1354
▁originalsquare	-14.1354
▁prezero	-14.1354
▁whatever	-14.1354
▁zeroNum	-14.1355
▁isSub	-14.1355
▁chrisCounter	-14.1355
▁ra	-14.1355
▁SieveOfErat	-14.1355
▁CountOfMoney	-14.1356
▁mishkaCounter	-14.1356
▁Md	-14.1357
▁202;	-14.1357
▁Wstep	-14.1358
▁resolve	-14.1359
▁1000002;	-14.1359
▁MAXall	-14.1359
▁defy	-14.1359
llega	-14.136
▁curMin	-14.1364
▁zzz	-14.1364
[30001]	-14.1364
drom	-14.1365
▁who	-14.1365
nkecil	-14.1365
▁movesB	-14.137
nbulb	-14.1371
▁stairs	-14.1372
▁listsize	-14.1375
▁bord	-14.1375
▁Orange	-14.1379
▁Bwin	-14.1382
npod	-14.1383
▁feets	-14.1385
▁Run	-14.1386
▁gbs	-14.1394
▁hred	-14.1395
peration	-14.14
▁defm	-14.1405
▁buns	-14.1406
nlvl	-14.1408
local	-14.1408
▁besar	-14.1409
valp	-14.1409
tra	-14.1413
[1500	-14.1414
▁post	-14.1417
sumx	-14.1419
▁grau	-14.142
▁!!(	-14.142
▁ttwo	-14.142
▁testCases	-14.1424
razn	-14.1426
nbesar	-14.1427
frap	-14.1427
ngrau	-14.1429
▁fro	-14.1429
))->	-14.1436
▁boss	-14.1437
55]	-14.1441
▁SZ	-14.1441
▁solu	-14.1446
▁sid	-14.1448
▁20000000000	-14.145
▁cent	-14.145
arC	-14.1454
▁suit	-14.1458
lcp	-14.146
allB	-14.1461
▁kw	-14.1465
▁countE	-14.1466
nsh	-14.1467
nrcont	-14.1477
▁remainders	-14.1488
▁rount	-14.1489
ciel	-14.1489
▁toast	-14.1495
nsta	-14.1498
2[15]	-14.15
▁1000100	-14.15
▁halfs	-14.1503
▁fcounter	-14.1505
1[2001]	-14.1505
(1000000000	-14.1512
▁difA	-14.1513
smallans	-14.1518
▁256;	-14.1519
ToPa	-14.1521
▁totCc	-14.1522
nnote	-14.1523
elta	-14.1523
ndanik	-14.1526
▁hcf	-14.1527
▁divide	-14.1528
▁hari	-14.1531
▁spectator	-14.1534
Kh	-14.1534
▁dCount	-14.1535
▁adivb	-14.1536
▁chec	-14.1541
▁psg	-14.1541
▁fra	-14.1543
▁(9999999	-14.1544
▁fatias	-14.1544
▁beginu	-14.1545
▁diameter	-14.1546
▁sizebul	-14.1546
▁arrSorted	-14.1548
▁ultimate	-14.1549
▁niceWord	-14.1551
▁nowsafe	-14.1554
▁lineTime	-14.1554
▁bvoric	-14.1555
▁minMatch	-14.1555
▁numhours	-14.1555
▁bhoric	-14.1555
▁raices	-14.1556
▁curlen	-14.1556
▁sorte	-14.1559
▁isT	-14.156
▁minCoinValue	-14.156
▁question	-14.156
▁casos	-14.1561
ncolumn	-14.1563
▁dsk	-14.1564
▁crest	-14.1565
▁emps	-14.1565
▁bdiva	-14.1565
▁10005)	-14.1567
Des	-14.157
1[15]	-14.1573
▁oddsum	-14.1575
stick	-14.1577
[18	-14.1579
olo	-14.158
▁-1000000007	-14.1581
nGoals	-14.1582
▁evensum	-14.1584
tinue	-14.1586
▁iso	-14.1588
nsalt	-14.1588
▁pkt	-14.1588
▁maxVal	-14.1589
▁absent	-14.159
[300001	-14.1597
▁indexT	-14.1604
▁chal	-14.1613
couner	-14.1619
▁Tim	-14.162
605;	-14.162
▁secs	-14.162
▁TB	-14.1633
isA	-14.1646
▁(99999999	-14.1647
▁{{0	-14.1648
▁1000004	-14.1654
tip	-14.1654
nmore	-14.1657
▁Mid	-14.1676
▁passou	-14.1677
▁rats	-14.1678
npending	-14.1682
#.#.#.#.#.#.|	-14.1687
▁Go	-14.169
▁"..|"	-14.1691
▁pending	-14.1694
[11][111]	-14.1697
minind	-14.17
chI	-14.1701
nseat	-14.1705
ngod	-14.1705
10000;	-14.1706
▁bestb	-14.1709
▁empat	-14.1711
▁curDay	-14.1711
▁(999999	-14.1714
isAns	-14.1716
opr	-14.1718
▁control	-14.1721
blocks	-14.1721
10.0	-14.1725
▁58);	-14.1729
▁gx	-14.1729
▁shelb	-14.1733
▁triangle	-14.1733
▁(99	-14.1735
▁of	-14.174
upit	-14.174
▁defcos	-14.1741
[100000][2]	-14.1742
▁maxba	-14.1743
ft	-14.1745
▁MI	-14.1746
▁studentTS	-14.1757
ws	-14.1758
▁reqNo	-14.1759
▁sideMoves	-14.176
Ha	-14.1761
▁zuida	-14.1767
▁comando	-14.177
▁menorW	-14.1774
▁verticalMoves	-14.1774
▁dar	-14.1775
▁pResult	-14.1781
anda	-14.1786
▁nOdd	-14.1798
▁vert	-14.1799
▁coA	-14.1805
nlarge	-14.181
220	-14.1816
++")	-14.1827
▁nx	-14.1828
▁9]	-14.1829
cnew	-14.183
once	-14.1842
▁mndist	-14.185
▁65]	-14.1853
▁bv	-14.186
▁sam	-14.1865
▁cnew	-14.1865
nstac	-14.1867
▁winm	-14.1869
1[2];	-14.187
▁0.00000	-14.1878
▁252	-14.1885
]]++	-14.1887
▁bot	-14.1904
prevlen	-14.1909
▁NP	-14.191
oses	-14.1911
▁ctf	-14.1913
▁colo	-14.1934
mcd	-14.1935
▁bxb	-14.1937
▁open	-14.1944
norgStr	-14.1951
eil	-14.1952
mnm	-14.1953
primer	-14.1956
ncup	-14.1968
▁alp	-14.197
tgm	-14.1975
errl	-14.1976
nev	-14.1977
▁pasos	-14.1977
▁lev	-14.198
ninsertion	-14.1981
▁feature	-14.1986
▁qiu	-14.1988
▁finishx	-14.199
▁isA	-14.1992
cOdd	-14.1998
nchars	-14.2
nsolution	-14.2003
ell	-14.2004
▁chI	-14.2004
▁primo	-14.2008
▁FA	-14.2019
xb	-14.2022
nba	-14.2023
nbuf	-14.2024
[](	-14.2033
▁las	-14.2033
▁lift	-14.2041
▁2000001	-14.2042
nreports	-14.2042
ntimer	-14.2045
▁505	-14.2047
▁trans	-14.2047
▁ve	-14.2051
▁blah	-14.2054
nrl	-14.2055
▁am	-14.2057
▁allA	-14.2057
▁gm	-14.2061
▁countI	-14.2076
▁TA	-14.2077
▁cz	-14.2077
▁use	-14.2083
▁cmin	-14.209
▁roll	-14.2091
nblock	-14.2099
#.#.#.#.|	-14.2102
▁xa	-14.2102
nplayer	-14.2106
▁sumx	-14.2106
nflat	-14.2108
anew	-14.2119
▁{{1	-14.2119
npage	-14.2138
▁bnew	-14.2144
nha	-14.2153
▁actual	-14.2155
▁discount	-14.2156
For	-14.2163
▁segun	-14.2171
able	-14.2174
▁sumtime	-14.2175
▁'['))	-14.2178
▁1)][	-14.2179
2[10000]	-14.2181
▁chax	-14.2184
▁(999999999	-14.2185
▁pom	-14.2188
▁74	-14.219
▁minit	-14.2193
wo	-14.2194
Counter	-14.2194
▁vict	-14.2203
▁scoreb	-14.2204
▁dishes	-14.2204
upset	-14.2205
▁2000000000	-14.2207
▁myString	-14.221
▁lenB	-14.2214
rta	-14.2214
nts	-14.222
▁shap	-14.2226
nfives	-14.2238
yd	-14.224
▁cprev	-14.2242
[80]	-14.2244
▁leg	-14.2245
tations	-14.2258
ood	-14.2259
DY	-14.2263
kq	-14.2271
▁dk	-14.2282
▁jwbn	-14.2288
nfree	-14.2295
nfactor	-14.2312
(4)	-14.2314
tation	-14.2316
▁(999	-14.2327
▁lik	-14.2331
▁lista	-14.2337
ntone	-14.2337
Rem	-14.234
▁gcdofarray	-14.2345
pasa	-14.2352
▁countT	-14.2357
▁curInd	-14.2365
▁ratio	-14.2374
▁wa	-14.238
just	-14.2381
][10]	-14.2381
(25);	-14.2382
nreading	-14.2384
▁hap	-14.2393
400;	-14.2394
▁200000	-14.2395
nlas	-14.2402
]--	-14.2402
nder	-14.2405
▁numL	-14.2406
▁prer	-14.2412
nwei	-14.2428
nnode	-14.2429
▁split	-14.243
viii	-14.2433
finala	-14.2439
▁rowe	-14.2442
▁anew	-14.2448
▁-10	-14.2454
▁remainings	-14.2455
▁curs	-14.246
chot	-14.2477
work	-14.248
48	-14.2489
_5	-14.2493
nacc	-14.2497
▁103	-14.2511
tone	-14.2519
▁rides	-14.2522
kString	-14.2536
▁92)	-14.2546
▁hero	-14.2551
▁auxr	-14.2563
3[100	-14.2574
▁idxb	-14.2578
▁masuk	-14.258
tur	-14.2599
▁mCount	-14.2612
nposy	-14.2617
[0][3])	-14.2624
▁tres	-14.2627
▁scores	-14.2633
tia	-14.2651
ncmax	-14.2654
--------+"	-14.266
▁dW	-14.2665
▁priority	-14.2666
▁mmin	-14.2669
▁tha	-14.2674
nanton	-14.2677
nucont	-14.268
▁pmin	-14.2682
1:	-14.2683
▁TR	-14.2685
ntmpb	-14.2695
ncasos	-14.2698
▁wr	-14.2706
▁Time	-14.2708
nperm	-14.271
ndigits	-14.2717
▁syl	-14.2719
▁Ca	-14.2721
▁3.141592	-14.2727
1[100000]	-14.2733
▁3.1415926	-14.2736
▁dip	-14.2737
▁fh	-14.2743
▁-9999	-14.2745
▁tran	-14.2748
niss	-14.278
nTa	-14.2786
▁range	-14.2789
nmink	-14.2798
pf	-14.28
686]	-14.282
▁Ch	-14.2851
je	-14.2856
▁umbreon	-14.2874
▁glaceon	-14.2879
▁flareon	-14.2882
▁leafeon	-14.2882
▁bag	-14.2884
oy	-14.2884
▁jolteon	-14.2885
▁sylveon	-14.2887
pick	-14.2896
sam	-14.2897
▁100010	-14.2899
▁lf	-14.2903
▁xie	-14.2914
'}	-14.2915
who	-14.2921
rope	-14.2931
cnta	-14.2931
▁occur	-14.2933
pu	-14.2941
agi	-14.2955
▁ui	-14.2958
tmpA	-14.2965
qbe	-14.301
▁(((((	-14.301
▁'7';	-14.3019
▁lprime	-14.3025
▁isv	-14.3026
#.#.#.#.	-14.3034
akt	-14.3034
200	-14.3036
▁floors	-14.3037
nroot	-14.304
360	-14.3064
appe	-14.3073
ice	-14.3082
▁10.0	-14.309
cn	-14.3095
lon	-14.3099
▁pet	-14.3103
nboost	-14.3122
▁cnta	-14.3136
▁minib	-14.3166
files	-14.3166
▁fg	-14.3172
counta	-14.3185
▁-1000;	-14.3186
▁22	-14.3194
▁com	-14.3198
2_	-14.3214
▁inpp	-14.3216
1->	-14.3236
eak	-14.324
ater	-14.3244
forwards	-14.3246
2[100]	-14.3252
[4]))	-14.3259
▁tempstr	-14.3265
▁ary	-14.3266
▁Am	-14.3269
lista	-14.3269
▁sumC	-14.3289
▁sumM	-14.3291
__	-14.3304
sed	-14.3305
print	-14.3308
[])	-14.3308
▁(;;	-14.3308
nta	-14.3312
▁44	-14.3327
▁nom	-14.3354
union	-14.336
nor	-14.3361
nfim	-14.3365
mxv	-14.3372
nsumd	-14.3373
nvi	-14.3376
▁lal	-14.3401
▁"000	-14.3411
cclock	-14.3416
nrecord	-14.3427
nyd	-14.3461
▁maxh	-14.3465
ip	-14.3466
kan	-14.3472
umb	-14.348
nte	-14.351
nsai	-14.3537
cCount	-14.3542
jvb	-14.3546
nlength	-14.355
▁90;	-14.3554
2[101]	-14.356
nis	-14.356
][5]	-14.3569
▁anti	-14.3585
nph	-14.3588
▁ge	-14.3593
nLim	-14.3598
kata	-14.3608
nle	-14.3621
▁131	-14.3623
namounts	-14.3624
ord	-14.3635
exc	-14.3642
^	-14.3655
npro	-14.3658
Ar	-14.3665
rl	-14.3669
dick	-14.3671
51	-14.368
alr	-14.3683
▁Primes	-14.3689
nspec	-14.3704
DE	-14.3745
desks	-14.3766
our	-14.3771
▁cB	-14.3771
npalin	-14.3777
▁100000000)	-14.3779
[*	-14.3786
there	-14.3788
maxA	-14.3821
000007;	-14.383
▁mis	-14.3841
nqua	-14.3851
flagB	-14.3852
#.#.#.|.|)"	-14.3866
........|"	-14.3876
tb	-14.3883
ust	-14.3905
[9	-14.3907
2]);	-14.3907
▁9999	-14.3911
nhead	-14.3912
100;	-14.3912
xmin	-14.3929
▁6][	-14.3948
▁200000000	-14.3952
2000005	-14.3958
[36	-14.3989
AT	-14.3994
UD	-14.4004
▁1001)	-14.4007
▁maxpos	-14.4028
nbcount	-14.4029
▁65)	-14.405
nowp	-14.4051
1[100]	-14.4056
▁vi	-14.4061
▁101	-14.4062
▁'('))	-14.4067
nkh	-14.4084
foo	-14.4095
▁cer	-14.4119
▁105	-14.4129
cntup	-14.4131
▁phi	-14.4132
minvalue	-14.4138
▁"0000	-14.4151
▁Maxa	-14.4158
ori	-14.4162
hashi	-14.4195
nPos	-14.4209
contador	-14.4211
updates	-14.4228
1][26]	-14.4242
nmaxc	-14.4247
eps	-14.425
oli	-14.4268
ntaken	-14.4281
arrayi	-14.4285
▁curl	-14.4286
dua	-14.4289
ri	-14.429
2501;	-14.4302
.........	-14.4316
nsub	-14.4336
1024	-14.4354
nmapp	-14.4365
winC	-14.4373
nchess	-14.4378
0]	-14.438
solution	-14.4381
ghi	-14.439
npart	-14.4391
slice	-14.4397
▁ti	-14.442
▁"?	-14.4449
childs	-14.4452
nne	-14.4452
.............|"	-14.4455
Result	-14.446
▁vaa	-14.4475
update	-14.4482
nsume	-14.4512
3(	-14.4546
▁55	-14.455
▁kind	-14.4554
▁"5	-14.4558
occ	-14.4562
Res	-14.4563
(10005	-14.4563
▁xs	-14.4574
siz	-14.4585
nmc	-14.4633
▁jud	-14.4645
evenCount	-14.4647
quest	-14.4669
character	-14.4691
▁lar	-14.4709
(((10	-14.471
26;	-14.4712
bx	-14.4726
tVal	-14.4733
lit	-14.4734
]]]]	-14.4736
sizeof	-14.4736
dr	-14.4776
100000	-14.4789
vert	-14.479
remaind	-14.4796
nsir	-14.4798
[20000	-14.48
nsatu	-14.4803
diamond	-14.4804
idxa	-14.4805
divisores	-14.4809
68	-14.4816
▁'-');	-14.4817
caso	-14.4824
6"	-14.4827
~	-14.4828
][8]	-14.4838
vertical	-14.484
▁1"	-14.4855
succ	-14.4866
equence	-14.4869
ura	-14.487
Freq	-14.4894
▁fS	-14.4897
In	-14.4915
▁chara	-14.4918
nletters	-14.4929
paraa	-14.4941
press	-14.4943
pending	-14.4955
ref	-14.4966
vaa	-14.4973
pages	-14.4975
-7)	-14.4975
▁3]);	-14.4979
1000000007	-14.4982
desk	-14.4988
levels	-14.4993
spect	-14.501
▁mem	-14.5019
more	-14.5025
nfcount	-14.5035
▁lj	-14.5045
nreq	-14.5049
▁getDi	-14.5053
2"	-14.5055
▁(((1	-14.5058
revs	-14.5062
▁100000000000	-14.5064
fla	-14.507
dition	-14.5073
minval	-14.5079
--------------+	-14.5115
zsum	-14.5117
gs	-14.512
[1][1]]	-14.5138
ntb	-14.5146
97	-14.5149
npermut	-14.5154
(1))	-14.5159
nbasi	-14.5167
▁cA	-14.5175
ON	-14.5177
minw	-14.5178
▁1001	-14.518
▁81)	-14.5195
▁byte	-14.5197
▁10)]	-14.5203
Win	-14.5211
nfeet	-14.5212
ostr	-14.5214
zhu	-14.522
▁Ma	-14.5253
ge	-14.5263
yb	-14.5272
greater	-14.5272
▁'0')))	-14.5279
'\	-14.5286
▁'&'	-14.5291
▁imin	-14.5297
kill	-14.5307
flagA	-14.5312
▁dB	-14.5321
dim	-14.5327
(200	-14.5336
hate	-14.5347
prims	-14.5352
[30000]	-14.5356
npsum	-14.5357
8]	-14.5358
▁ajout	-14.5359
der	-14.5363
got	-14.5365
▁Bu	-14.5365
nten	-14.5367
msh	-14.5368
egi	-14.5382
[1007	-14.5387
270	-14.5387
▁2.0))	-14.5399
seat	-14.5402
-1;	-14.5408
▁Str	-14.5415
..........	-14.5419
[1][0]]	-14.5421
qwe	-14.5423
mapp	-14.5424
▁cX	-14.5436
Pi	-14.5445
tions	-14.5449
ndat	-14.5466
nMa	-14.5471
Low	-14.5473
hu	-14.5477
uion	-14.5483
pA	-14.5497
marke	-14.5504
vi	-14.551
anjil	-14.5513
nnas	-14.5518
city	-14.5518
njumlahg	-14.553
▁nor	-14.5535
)))))	-14.5545
men	-14.5546
Find	-14.5549
▁"("	-14.5557
deq	-14.5561
ask	-14.5574
odp	-14.5577
▁union	-14.5585
▁600	-14.5595
blyat	-14.5596
000000000000000	-14.5598
repeticiones	-14.5602
peeps	-14.5604
plNumber	-14.5615
[6][2	-14.562
cntNotFastened	-14.5622
loop	-14.5622
[2600	-14.5622
refused	-14.5622
programming	-14.5626
▁40	-14.5627
bestVotes	-14.5629
pertama	-14.563
vashya	-14.5632
............|"	-14.5635
medalboard	-14.5636
Goals	-14.5636
maurm	-14.5638
arrOccur	-14.5645
[69	-14.5646
123;	-14.5647
▁-999	-14.5647
downloaded	-14.5647
▁aset	-14.5651
mejor	-14.5652
onth	-14.5657
mySum	-14.5658
nwa	-14.5658
ispal	-14.566
sorte	-14.5663
ultsel	-14.5664
[100002	-14.5667
minCoinValue	-14.5668
question	-14.5668
reqrec	-14.5669
bookgreen	-14.5669
isPref	-14.5671
raices	-14.5674
cadena	-14.5674
bvoric	-14.5675
minMatch	-14.5675
bhoric	-14.5676
curWorst	-14.5677
vow	-14.5679
inicio	-14.568
perColor	-14.568
nowsafe	-14.5681
DashaCount	-14.5681
buffer	-14.5681
importance	-14.5682
niceWord	-14.5682
perRowColor	-14.5684
ultimate	-14.5685
maxName	-14.5685
prefixed	-14.5686
arrSorted	-14.5686
smallest	-14.5687
diameter	-14.5689
"1111111"	-14.569
client	-14.569
fatias	-14.5692
Green	-14.5693
bucket	-14.5693
token	-14.5694
maxExcl	-14.5694
absent	-14.5695
maxJoy	-14.5695
passengers	-14.5696
MODUL	-14.5697
(100005	-14.5697
[0][2])	-14.5698
bdiva	-14.5698
btoa	-14.5698
MID	-14.5699
problems	-14.57
numhours	-14.57
kiek	-14.57
nogover	-14.5703
elevator	-14.5704
query	-14.5704
initial	-14.5705
spectator	-14.5707
salida	-14.5708
newnut	-14.5709
maxgro	-14.5711
minimun	-14.5713
saltos	-14.5713
omer	-14.5714
(1.5	-14.5715
adivb	-14.5715
11111111	-14.5717
dots	-14.5718
cake	-14.5719
taka	-14.5719
fristOven	-14.5721
sizebul	-14.5722
tipo	-14.5723
supply	-14.5724
totCc	-14.5727
tToPa	-14.5728
Roz	-14.5729
"0000000"	-14.573
mnth	-14.573
njoin	-14.5732
only	-14.5733
peso	-14.5736
tujuh	-14.574
complexity	-14.5746
upi	-14.5748
added	-14.5748
positivos	-14.5752
totAll	-14.5755
divide	-14.5755
fit	-14.5759
leaves	-14.5761
menorB	-14.5763
employee	-14.5766
contBi	-14.5769
▁sums	-14.577
100000]	-14.5771
woch	-14.5773
cambio	-14.5778
toast	-14.5782
▁999999999)	-14.5784
tambah	-14.5784
maxr	-14.5787
hpm	-14.5787
mohi	-14.5787
▁10000007	-14.5788
sPer	-14.5788
imulai	-14.5788
psg	-14.5789
00000000;	-14.5804
increment	-14.5818
trunc	-14.5824
ight	-14.5835
flat	-14.5842
▁9000000	-14.5843
MI	-14.5844
hcf	-14.5846
winB	-14.585
alana	-14.5851
ninv	-14.5855
norm	-14.5855
Red	-14.5855
largest	-14.5857
adder	-14.5857
izq	-14.5863
valfin	-14.5866
maxPrime	-14.5867
▁1}	-14.5871
[0]++	-14.5875
▁Sr	-14.5877
▁"00"	-14.5879
tplays	-14.5889
patt	-14.589
Mid	-14.5898
getNext	-14.5907
▁256	-14.5908
timer	-14.5909
5001	-14.5912
minstring	-14.5916
nrod	-14.5917
(10000	-14.5928
3[1]	-14.5928
▁77	-14.593
lane	-14.5932
▁vowel	-14.5932
ables	-14.5937
FB	-14.594
bX	-14.5943
heets	-14.5945
▁ml	-14.5948
lineTime	-14.5951
skills	-14.5958
sudah	-14.5967
tagua	-14.5969
▁-300	-14.5971
ze	-14.5973
14;	-14.5979
▁dash	-14.5983
larg	-14.5984
friends	-14.5989
.........|	-14.5998
1[101	-14.6
blocka	-14.6002
ashu	-14.601
disC	-14.601
18);	-14.6015
dire	-14.6019
sd	-14.6028
ntx	-14.6035
hours	-14.6041
NP	-14.6045
007;	-14.6047
contV	-14.6056
▁'_'	-14.6056
▁"^	-14.6058
2[2]	-14.606
69]	-14.6062
inter	-14.6065
▁-999999999	-14.6087
▁cY	-14.609
120)	-14.6091
0000005;	-14.6095
pkt	-14.6105
2139062143	-14.611
uff	-14.6114
boss	-14.6114
chay	-14.6128
nve	-14.6141
soroban	-14.6144
currgcd	-14.6147
▁clen	-14.6147
gtw	-14.6152
(~	-14.6152
smR	-14.6155
arge	-14.6159
maxfather	-14.6165
zzzzzzzzzz	-14.6167
nomer	-14.6175
▁bottle	-14.6176
md	-14.6176
▁friend	-14.6179
aaabb	-14.6183
▁stair	-14.6184
mesto	-14.6185
newstr	-14.6186
angka	-14.6187
vowels	-14.6188
letra	-14.6189
unction	-14.619
maxdiff	-14.6197
common	-14.62
real	-14.6201
uiwen	-14.6206
cambi	-14.6207
mindiff	-14.6208
puter	-14.6209
Lucky	-14.6209
▁888888	-14.621
▁distress	-14.621
▁triang	-14.6211
▁shovel	-14.6211
▁subtract	-14.6212
AppEnd	-14.6212
FFFFFF	-14.6212
nOutput	-14.6212
noccurances	-14.6212
▁selectionSort	-14.6212
nfloorToGo	-14.6212
statmnts	-14.6212
-2147483648	-14.6212
1(100020)	-14.6212
commamd	-14.6212
▁falseLine	-14.6212
▁maxsecction	-14.6212
1828	-14.6212
codechef	-14.6212
enough	-14.6212
nconnected	-14.6212
nparticpant	-14.6212
nselectionSort	-14.6212
removeDuplicate	-14.6212
toastFromBottle	-14.6212
totalLimon	-14.6212
▁LastCommom	-14.6212
▁LastCommon	-14.6212
▁bByGame	-14.6212
▁missingTemps	-14.6212
▁removals	-14.6212
▁timeWalk	-14.6212
▁toastDueToSalt	-14.6212
123123	-14.6212
▁totalSalt	-14.6212
▁beishu	-14.6212
▁trailing	-14.6212
[811]	-14.6212
kachok	-14.6212
▁"23:32	-14.6212
▁numType	-14.6212
▁pichone	-14.6212
▁tempName	-14.6212
▁INFTY	-14.6212
reshala	-14.6212
Small	-14.6212
[2048][2048]	-14.6212
333333	-14.6212
249(	-14.6212
Column	-14.6212
[10000007]	-14.6212
raction	-14.6212
[305][305]	-14.6212
[116]	-14.6213
▁-5000000	-14.6213
anako	-14.6213
"444"	-14.6213
euclid	-14.6213
▁loaded	-14.6213
▁5000000)	-14.6213
OUT	-14.6214
▁bnyak	-14.6214
nmaxWord	-14.6214
[59]	-14.6214
▁minGas	-14.6214
2(100000	-14.6214
17576	-14.6214
▁"0011	-14.6214
▁8000;	-14.6214
▁newpage	-14.6214
[320]	-14.6214
▁setbit	-14.6214
[3010]	-14.6215
("-")	-14.6215
▁sidesI	-14.6215
▁resultado	-14.6216
9876	-14.6216
987	-14.6217
tenth	-14.6217
[255]	-14.6217
Loop	-14.6217
totalMili	-14.6218
▁upperbound	-14.6218
reater	-14.6218
[2010][3]	-14.6218
INP	-14.6219
▁2222;	-14.6221
▁revert	-14.6222
prawa	-14.6223
▁Last	-14.6223
▁"51"	-14.6224
▁64]++;	-14.6225
myFile	-14.6225
batas	-14.6226
)*8	-14.6226
Code	-14.6228
[1200]	-14.6229
5:5	-14.6233
ncontE	-14.6234
Gdrink	-14.6234
5555	-14.6234
▁68)	-14.6235
000000005	-14.6236
▁ispri	-14.6239
matr	-14.624
borne	-14.6242
nfoot	-14.6242
▁CountO	-14.6243
[35][2]	-14.6244
▁super	-14.6244
wynw	-14.6248
erte	-14.6248
▁-99999	-14.6249
▁'0'];	-14.6252
nsaved	-14.6253
[360]	-14.6254
▁see	-14.6255
▁mycmp	-14.6258
mySS	-14.6259
wynb	-14.6259
gest	-14.6259
[151]	-14.6259
suffix	-14.6261
▁df	-14.6261
nprob	-14.6262
▁frnd	-14.6263
lewa	-14.6264
▁contE	-14.6264
nGas	-14.6265
▁units	-14.6268
▁"0001	-14.6268
▁hits	-14.6273
▁nOp	-14.6276
▁cents	-14.6278
▁3000001	-14.6281
alp	-14.6281
▁oldstr	-14.6286
▁getR	-14.6287
kind	-14.6288
evel	-14.6288
▁captin	-14.6288
passed	-14.6293
▁sumclock	-14.6294
isCo	-14.6295
nstreak	-14.6298
▁43	-14.6298
maxd	-14.63
oreP	-14.6301
endloop	-14.6307
pas	-14.6309
dit	-14.631
nlanes	-14.631
fS	-14.6311
▁ctMin	-14.6311
2333	-14.6311
inser	-14.6314
▁-2139062143	-14.6315
▁1440;	-14.6322
▁220	-14.6323
.000)	-14.6323
ndiffer	-14.6324
▁newnuts	-14.6324
)((-	-14.6328
▁indE	-14.6329
minsteps	-14.6329
[50	-14.633
zzzz	-14.6341
Jo	-14.6354
▁newM	-14.6356
)(3	-14.6357
-------------+	-14.6363
testC	-14.6364
555	-14.6366
▁2500;	-14.6367
RC	-14.6371
[1000006][2]	-14.6371
ther	-14.6371
▁tsocial	-14.6371
hui	-14.6371
[50000]	-14.6373
▁2001;	-14.6374
▁chocs	-14.6375
▁ctMax	-14.6375
[600]	-14.6379
[24	-14.6386
▁colSet	-14.6386
math	-14.6389
333	-14.6391
▁getPo	-14.6391
▁totalMoves	-14.6394
▁towhid	-14.6394
▁cityNo	-14.6394
▁truth	-14.6396
▁thissub	-14.6396
ecz	-14.6396
▁thomasT	-14.6397
nextPrime	-14.6397
▁totDist	-14.6399
▁saved	-14.64
▁duck	-14.6401
▁lste	-14.6401
▁deep	-14.6404
▁cntlw	-14.6404
▁diam	-14.6407
▁foobar	-14.6409
▁group	-14.6409
kh	-14.641
bY	-14.641
▁indO	-14.6417
▁Tot	-14.6419
▁resultadofinal	-14.642
▁isF	-14.6421
▁contT	-14.6422
▁uno	-14.6423
▁contI	-14.6424
▁quo	-14.6427
nstay	-14.6431
▁"10"	-14.6431
▁sobuj	-14.6431
▁lEven	-14.6432
▁belum	-14.6433
▁sdVest	-14.6433
▁akhir	-14.6434
▁gtw	-14.6435
2[5001]	-14.6435
▁aumento	-14.6436
▁aguinha	-14.6437
▁-99999999	-14.6437
▁death	-14.6438
▁firstone	-14.6439
▁lowerCount	-14.6441
▁rowsDeleted	-14.6441
▁rowSet	-14.6442
▁lemoes	-14.6444
cEven	-14.6444
▁nechot	-14.6445
▁Lo	-14.6445
▁lasteven	-14.6446
[14]	-14.6446
▁numOfNet	-14.6447
▁leafName	-14.6447
nkt	-14.6447
▁numOfInfo	-14.6447
▁phack	-14.6449
▁Team	-14.645
▁myAss	-14.645
▁employeenum	-14.645
▁coupons	-14.6453
▁minusSum	-14.6453
▁Smith	-14.6453
▁shuzi	-14.6453
▁binaryResult	-14.6453
▁choice	-14.6454
▁shuwei	-14.6454
▁quatro	-14.6454
▁posRL	-14.6454
▁towel	-14.6454
▁Petya	-14.6455
▁MAXB	-14.6455
▁tempRange	-14.6455
▁playerState	-14.6456
▁duration	-14.6456
▁spicifier	-14.6456
▁comparator	-14.6457
▁maxSwaps	-14.6457
▁LastoddPos	-14.6458
▁LastevenPos	-14.6459
2[35]	-14.646
▁Ile	-14.646
▁lOdd	-14.6467
▁flot	-14.647
nlos	-14.647
▁minima	-14.647
[4][5]	-14.6473
▁buttons	-14.6473
BY	-14.6473
npack	-14.6474
▁rm	-14.6475
▁judg	-14.6475
▁2)];	-14.6476
nstars	-14.6477
▁pearl	-14.6477
QR	-14.648
▁btong	-14.6483
▁levl	-14.6483
▁11111111111111	-14.6488
nW	-14.6488
▁58;	-14.6493
▁cu	-14.6496
1[5001]	-14.6497
▁contain	-14.6498
▁quant	-14.6501
▁sk	-14.6502
luck	-14.6503
▁Rem	-14.6506
nrigh	-14.6507
]))))	-14.6511
▁PEsize	-14.6511
Point	-14.6515
▁mesto	-14.6516
▁mixx	-14.6517
▁wak	-14.6518
scoreb	-14.6522
nowl	-14.6524
▁getso	-14.6525
▁border	-14.6526
vc	-14.6528
▁failed	-14.6532
est	-14.6533
nbill	-14.6533
▁7])	-14.6539
▁tempCount	-14.6542
▁1000003)	-14.6545
▁papers	-14.6546
▁minsum	-14.6548
oal	-14.6548
▁(24	-14.6549
▁tplays	-14.655
▁tsd	-14.6561
nfailed	-14.6563
exa	-14.6564
nother	-14.6566
nsee	-14.6569
▁ispalin	-14.6569
ncharacter	-14.6572
▁1000000004	-14.6575
prevI	-14.6578
[125]	-14.6585
nprims	-14.6586
nPE	-14.6587
▁zcost	-14.6587
Ra	-14.6589
tbm	-14.659
37	-14.6591
▁social	-14.6595
ncry	-14.6596
▁bon	-14.6607
▁"00";	-14.6616
▁highnum	-14.6618
▁(-7)	-14.662
CE	-14.6621
2[1000000]	-14.6624
▁wor	-14.6624
fA	-14.6632
ntiga	-14.6637
indexT	-14.664
▁study	-14.6641
contM	-14.6643
▁parta	-14.6644
(-	-14.6648
prevC	-14.665
▁olds	-14.6655
▁512;	-14.6655
oranges	-14.6659
EI	-14.6666
▁divN	-14.6666
[90]	-14.6672
fH	-14.6676
nSC	-14.6682
lowar	-14.6683
ves	-14.6693
Per	-14.6693
flot	-14.6702
ndenominator	-14.6703
[500000]	-14.6706
dama	-14.6706
▁totAll	-14.6706
▁tujuh	-14.6707
())->	-14.6713
▁contBi	-14.6714
2[4][2]	-14.6718
▁peso	-14.672
▁powm	-14.6724
▁ceils	-14.6724
nlime	-14.6733
▁{"-	-14.6733
)360	-14.6737
1000000)	-14.6739
rAmount	-14.6742
▁vsz	-14.6743
▁saltos	-14.6757
nzer	-14.6759
PE	-14.676
▁valfin	-14.6761
suit	-14.6763
▁ppp	-14.6767
▁importance	-14.6772
6))	-14.6773
▁contM	-14.6776
▁curWorst	-14.6777
▁backwards	-14.6779
Fac	-14.6781
tter	-14.6781
▁forb	-14.6783
▁tipo	-14.6784
▁minsteps	-14.6786
▁contV	-14.679
▁ultsel	-14.6792
▁de	-14.6796
..............|"	-14.6796
▁ciel	-14.6798
▁gem	-14.6799
nnums	-14.6799
minD	-14.6802
▁minstep	-14.6802
nbas	-14.6803
▁mejor	-14.6805
nsuf	-14.6807
▁downloaded	-14.681
▁arrOccur	-14.6812
▁miss	-14.6813
okay	-14.6817
▁abcnt	-14.6818
(2.0))	-14.682
▁bookgreen	-14.6821
minix	-14.6821
nhari	-14.6822
▁maurm	-14.6822
▁DE	-14.6823
▁mySum	-14.6823
BB	-14.6824
▁awal	-14.6826
▁vashya	-14.6827
▁medalboard	-14.6827
▁pertama	-14.6829
▁bestVotes	-14.683
▁programming	-14.6833
BR	-14.6834
▁coB	-14.6837
xian	-14.6838
▁cntNotFastened	-14.6839
(100005)	-14.6841
erato	-14.6843
▁such	-14.6845
▁TT	-14.6846
nletterx	-14.6849
nhj	-14.6854
nusers	-14.6855
▁250.	-14.6856
nrefused	-14.6857
[2600]	-14.6858
ncheckdouble	-14.686
▁ob	-14.6861
nrepeticiones	-14.6861
npeeps	-14.6863
ttwo	-14.6865
▁vpoints	-14.6868
3[1000]	-14.6869
nplNumber	-14.6871
▁imulai	-14.6874
▁prv	-14.6875
si	-14.6878
▁"05	-14.688
putL	-14.6884
nansx	-14.6887
▁prevC	-14.6888
▁isPref	-14.6906
▁hours	-14.6917
▁3000	-14.692
▁vertical	-14.692
imax	-14.6923
"^"	-14.6935
LOG	-14.6935
may	-14.6936
▁sudah	-14.6945
▁wid	-14.6952
ngot	-14.6952
▁atan	-14.6953
▁400;	-14.6965
▁succ	-14.6965
▁dish	-14.6966
OU	-14.6968
nevenCount	-14.6973
nsucc	-14.6978
▁-3000	-14.6982
▁remaind	-14.6983
▁mystr	-14.6984
jmin	-14.6989
▁firstw	-14.7005
26);	-14.7008
evensum	-14.701
▁maxA	-14.7015
modu	-14.7019
npali	-14.702
▁RC	-14.7021
nvertical	-14.7027
▁temps	-14.7033
ncaso	-14.7038
00010;	-14.7042
▁creq	-14.7043
maxv	-14.7049
nFreq	-14.7051
nvert	-14.7054
nmaxdiff	-14.7055
▁86	-14.7059
"|	-14.706
3[2])	-14.7066
nnumOf	-14.7079
duck	-14.7082
▁sete	-14.7082
sumw	-14.7087
▁remnut	-14.7089
▁hui	-14.709
▁240;	-14.7091
jum	-14.7095
▁contN	-14.7099
▁threes	-14.71
nremaind	-14.7103
▁37	-14.7105
▁1.5;	-14.7108
▁tempc	-14.7112
spa	-14.7117
▁xh	-14.7127
ndivisores	-14.7129
nOdd	-14.7129
ncp	-14.7132
(105)	-14.7132
nansf	-14.7134
][3]))	-14.7138
▁larg	-14.714
▁maxN	-14.7145
▁rad	-14.7152
mz	-14.7156
nmedal	-14.7156
▁differentSocks	-14.7156
▁smlr	-14.7156
lhs	-14.7165
▁contains	-14.7165
nminval	-14.717
▁nowR	-14.717
zx	-14.7177
npress	-14.7178
▁Result	-14.7186
nrad	-14.719
nResult	-14.7192
odPow	-14.7196
▁firstdata	-14.7199
fine	-14.7202
...........	-14.7204
▁waysCount	-14.7212
▁SumOf	-14.7214
▁512	-14.7217
▁watched	-14.7219
▁jiati	-14.7223
▁letra	-14.7231
nnextprime	-14.7235
nkind	-14.7236
sevenCount	-14.7239
Do	-14.7241
sequence	-14.7242
▁pages	-14.7245
lc	-14.725
nidentical	-14.7253
▁jsq	-14.7256
▁unio	-14.7263
▁233	-14.7267
▁dire	-14.7267
njumps	-14.727
▁acumx	-14.7283
ntempSame	-14.7295
cstart	-14.7303
ender	-14.7309
[1000000	-14.7318
prices	-14.7318
nsingle	-14.7321
countN	-14.7324
dish	-14.7333
▁spe	-14.7344
ngro	-14.7352
▁ld	-14.7354
evenPo	-14.7366
An	-14.7378
▁cdy	-14.7382
nRes	-14.7384
▁vocal	-14.7386
▁geo	-14.7389
mk	-14.7411
cle	-14.7417
Prim	-14.7418
▁-201	-14.7426
nsho	-14.7433
bpb	-14.7436
----	-14.7457
▁102;	-14.746
prevc	-14.7469
oddsum	-14.7475
isval	-14.7475
nqiu	-14.7488
elements	-14.7502
▁ptot	-14.7505
▁pol	-14.7509
▁ly	-14.7511
▁isLucky	-14.753
...........|"	-14.7532
BWBWBWB	-14.7533
▁digitn	-14.7538
lab	-14.7538
axSub	-14.7539
nprimo	-14.754
▁{'	-14.7552
firstw	-14.7554
▁opr	-14.7556
nowR	-14.7557
lp	-14.756
gcdd	-14.7565
▁mnts	-14.7565
hap	-14.7573
▁2501]	-14.7575
▁BR	-14.7577
ncn	-14.7591
Roo	-14.7592
▁180.0	-14.7595
▁currentans	-14.7605
16;	-14.7606
▁bexc	-14.7606
nstone	-14.7615
etNext	-14.7634
▁cursum	-14.7636
)(4	-14.764
1[10000	-14.7644
▁jpar	-14.7646
idxb	-14.7646
28]	-14.7647
▁mnind	-14.7651
ncandidate	-14.7653
run	-14.7665
cho	-14.7672
▁posi	-14.7697
▁newX	-14.7698
nvol	-14.7699
ndivi	-14.7699
▁59	-14.7702
▁70	-14.7708
olut	-14.7718
resolve	-14.7723
ntoPurchase	-14.7725
▁((100	-14.7729
cntr	-14.773
lens	-14.7733
ndragon	-14.775
▁tmpB	-14.7754
hand	-14.7765
▁17)	-14.7768
▁5000	-14.7774
hen	-14.7774
hou	-14.7776
#.#.#.|.|"	-14.7797
▁minas	-14.7807
nvect	-14.7808
late	-14.7811
nU	-14.7813
Psize	-14.7819
50)	-14.7827
▁'@';	-14.7829
cru	-14.7831
ete	-14.7835
▁cand	-14.784
ndifference	-14.7841
maxgcd	-14.7851
▁nslice	-14.7863
99	-14.7868
▁newstr	-14.7871
▁mpoints	-14.7874
rowa	-14.7876
▁bulb	-14.7876
09;	-14.7878
1[++	-14.7889
▁"23"	-14.7893
esq	-14.7893
Sh	-14.7899
exe	-14.7916
▁cpr	-14.7919
1[200]	-14.7924
necho	-14.7934
tsum	-14.7936
▁sameSocks	-14.794
▁forbid	-14.795
bin	-14.7951
nama	-14.7956
ntmpa	-14.796
ndid	-14.7982
njw	-14.7984
nmay	-14.7985
cntfloat	-14.7995
▁'9');	-14.7995
nposi	-14.8008
nreversed	-14.8017
▁ansb	-14.8028
][0]);	-14.8028
▁yello	-14.8029
ntt	-14.8034
sumz	-14.8039
▁modi	-14.8048
(202	-14.8049
nfir	-14.8075
enter	-14.8081
▁candidates	-14.8083
0}	-14.8095
▁blen	-14.8097
▁sqrs	-14.8104
ubseq	-14.812
fac	-14.8122
▁Hermione	-14.8123
lines	-14.8126
▁nph	-14.8139
single	-14.814
nstat	-14.8142
▁posL	-14.8155
▁pct	-14.8158
fy	-14.8161
winm	-14.8165
▁forw	-14.8172
▁"22	-14.8175
▁10)];	-14.8182
▁maxLen	-14.8188
0--;	-14.8192
▁xy	-14.8193
▁tempb	-14.8196
hori	-14.8215
▁numOp	-14.822
▁umb	-14.824
flagh	-14.8248
1009	-14.8248
curAn	-14.825
rhs	-14.8261
------------+	-14.8267
nheight	-14.8271
ndrink	-14.8276
1000000	-14.8276
▁BS	-14.8278
digitm	-14.8279
[-1])	-14.828
dCount	-14.8303
▁zs	-14.8309
ntill	-14.831
dsk	-14.8324
ites	-14.8326
mxd	-14.835
curl	-14.8357
ponent	-14.8359
▁44)	-14.837
▁sumd	-14.8376
lasth	-14.8377
▁vote	-14.838
nhole	-14.8384
▁mass	-14.8385
▁summax	-14.8391
writes	-14.8402
▁maxk	-14.8408
disy	-14.8412
▁pascal	-14.8447
28;	-14.8448
10000000	-14.8452
2++]	-14.846
nmaxv	-14.8461
GI	-14.8472
..............	-14.8491
nselec	-14.8492
Wor	-14.8498
▁strr	-14.8501
nwelfare	-14.8504
dead	-14.8506
nCHR	-14.8526
▁hush	-14.8531
sumD	-14.8541
(0))	-14.8557
nnega	-14.8566
▁nome	-14.8581
imin	-14.8584
czy	-14.8588
▁mk	-14.8595
nho	-14.8605
▁7]++	-14.8609
▁lin	-14.8614
▁turn	-14.8631
udge	-14.8641
][7	-14.8641
minB	-14.8674
jmax	-14.8675
nnumb	-14.8709
nod	-14.8718
11;	-14.8719
ttl	-14.8728
00);	-14.8749
conti	-14.8767
30[	-14.8782
▁gen	-14.8795
])]	-14.881
ndisk	-14.8814
▁tip	-14.8815
nawaly	-14.8818
▁gtr	-14.8824
ncurl	-14.883
▁ou	-14.887
▁sg	-14.888
moda	-14.889
11)	-14.8891
▁maxindex	-14.8893
▁ri	-14.8909
wa	-14.8915
▁curans	-14.8917
clo	-14.8928
▁2}]	-14.8947
iday	-14.8953
ssss	-14.8954
nawalx	-14.8961
▁cat	-14.8977
nposibles	-14.8985
▁twos	-14.8992
rip	-14.9005
▁pat	-14.901
▁ooi	-14.9016
nlett	-14.9018
[500000	-14.9032
▁flagB	-14.9039
▁sd	-14.9052
ort	-14.9078
▁newb	-14.9091
▁firstb	-14.9098
nbad	-14.9115
][26]	-14.9123
▁');	-14.9129
)(++	-14.913
▁".")	-14.9156
▁bui	-14.9164
faktori	-14.9165
000000000000000;	-14.9172
▁250))	-14.9178
2013	-14.918
▁acu	-14.918
sumodd	-14.9202
4[0]	-14.9226
▁permu	-14.9227
▁ivec	-14.9228
▁'}';	-14.9242
xy	-14.9255
ew	-14.926
3[3]	-14.9282
▁chat	-14.9287
posi	-14.9296
Pol	-14.9297
00000007;	-14.932
[3][0]	-14.9321
boy	-14.9321
▁resb	-14.935
999;	-14.9355
▁ju	-14.9373
(5)	-14.9373
▁maxgcd	-14.9379
(201	-14.9386
isal	-14.942
npcount	-14.9435
kkk	-14.9436
19	-14.9475
La	-14.9482
▁sig	-14.9483
........	-14.9487
miny	-14.9497
▁'4';	-14.9511
▁kiu	-14.9514
[300	-14.9517
▁82	-14.9518
▁primesize	-14.9523
cat	-14.9528
pres	-14.9533
npermu	-14.9541
nfunc	-14.9548
tl	-14.9552
▁ext	-14.958
▁lon	-14.9586
▁minind	-14.96
][4	-14.9611
▁xsum	-14.9626
nAr	-14.9651
cu	-14.9658
............	-14.9684
nmaxd	-14.9706
▁distr	-14.9711
▁akt	-14.9714
12[	-14.9738
▁2)]	-14.9775
meio	-14.9781
▁sets	-14.9787
}_._	-14.9787
dm	-14.9792
(200000	-14.9792
1[1])	-14.9821
nTime	-14.9833
ors	-14.9834
corre	-14.984
nMIN	-14.9847
sprime	-14.9897
nmake	-14.9926
42	-14.9958
OG	-14.9963
Ex	-14.9968
2[3]	-14.9982
▁cb	-14.9989
60	-14.9998
(9	-15.0023
rk	-15.003
▁Che	-15.0072
▁-2000	-15.009
▁{4	-15.0094
'('	-15.0106
'));	-15.0113
nbj	-15.0126
nzz	-15.0147
▁9999999999999	-15.0152
[3000	-15.0158
▁hori	-15.0159
[100001][2]	-15.0169
▁gs	-15.0174
nnew	-15.0181
nvc	-15.0214
ox	-15.0261
auxc	-15.0262
▁newint	-15.0268
[26	-15.0268
▁(27	-15.0283
..........|"	-15.0284
eep	-15.0292
nalph	-15.0299
22"	-15.0306
▁tota	-15.0329
suml	-15.0331
users	-15.0344
sumd	-15.0363
▁2)));	-15.0363
nju	-15.038
2000000	-15.0396
(101	-15.0406
▁52;	-15.041
▁msum	-15.0441
((2	-15.0441
4][2]	-15.0444
won	-15.0461
astodd	-15.0482
][1]][	-15.0484
zz	-15.0494
slen	-15.0495
▁vb	-15.0496
njo	-15.0499
eo	-15.0506
22;	-15.0508
nwz	-15.0524
oma	-15.0526
nflagh	-15.054
▁1200	-15.0546
nblu	-15.0572
urr	-15.0573
▁(1.0	-15.0576
▁incr	-15.0577
▁totd	-15.0579
checkD	-15.0589
Ove	-15.0593
]][0])	-15.0606
nprimeFact	-15.0607
nnex	-15.061
▁100]	-15.0629
ndia	-15.0647
▁terkecil	-15.0651
▁bex	-15.0661
[111	-15.0663
▁mmm	-15.0675
nmaxk	-15.0683
▁gcdv	-15.0694
00005	-15.0696
Lim	-15.0701
minib	-15.0703
ncc	-15.0727
[500	-15.0788
tmpB	-15.0789
1000	-15.0804
39;	-15.0807
oll	-15.0843
INE	-15.0849
)0);	-15.0879
▁cho	-15.0893
"?")	-15.0925
▁ass	-15.0926
-----------+	-15.0948
nmar	-15.0951
[40	-15.0957
99999999	-15.0958
1++)	-15.0959
fx	-15.0991
▁jw	-15.0998
▁(2);	-15.1007
▁hit	-15.1037
ull	-15.1057
Mi	-15.1059
casos	-15.1063
200005	-15.1085
cntc	-15.1088
Mv	-15.109
001]	-15.11
▁115	-15.1126
ucont	-15.113
rnum	-15.1152
56	-15.1167
32;	-15.1186
hc	-15.119
▁RE	-15.1222
py	-15.1222
distl	-15.1244
ndot	-15.1252
▁3600	-15.1256
#.#.#.|	-15.1276
1000000007;	-15.1286
ung	-15.1317
▁countN	-15.1328
range	-15.1331
ncurs	-15.1347
99)	-15.1353
ule	-15.1368
nF	-15.1376
)10	-15.1393
(2)	-15.1403
900;	-15.1415
strea	-15.142
▁minB	-15.1421
▁cut	-15.1429
rMod	-15.1458
nCa	-15.1512
▁(_	-15.1532
nansm	-15.1534
▁fj	-15.1545
10000	-15.1551
operat	-15.1565
][7]	-15.1583
▁slt	-15.1609
▁numa	-15.1638
nthe	-15.1647
34	-15.1653
ool	-15.1659
tmpa	-15.1661
0))	-15.1661
fir	-15.168
2(2	-15.1717
'.')	-15.1718
rc	-15.172
vB	-15.1726
nlb	-15.1738
▁vy	-15.1755
▁sle	-15.1757
▁minix	-15.178
180	-15.1793
▁npd	-15.1805
8979323846	-15.1807
▁4];	-15.1867
▁counta	-15.1871
▁Msize	-15.1875
▁(25	-15.1889
▁27	-15.1906
-1)	-15.1911
sumc	-15.1919
nke	-15.1934
loct	-15.1937
▁btot	-15.1942
nti	-15.1942
60000;	-15.1943
020;	-15.196
cas	-15.1974
10]	-15.1984
tml	-15.1988
100]	-15.1991
▁wc	-15.2004
35	-15.2008
jed	-15.2008
port	-15.203
▁mxl	-15.2033
00006]	-15.2057
DS	-15.2064
nka	-15.2076
65]	-15.2096
qi	-15.2098
1005	-15.2098
ec	-15.2107
ours	-15.2182
▁ansr	-15.2183
dge	-15.2209
minit	-15.2219
nope	-15.2224
cs	-15.2235
nsel	-15.2265
nlim	-15.2274
nE	-15.2288
bi	-15.2295
his	-15.2327
cmin	-15.2327
bot	-15.2329
sL	-15.2331
Col	-15.2332
fB	-15.2384
1].	-15.2391
100050	-15.2407
▁ski	-15.2408
▁minj	-15.2419
cep	-15.2419
ili	-15.2424
100000000	-15.2433
Input	-15.2463
4.	-15.2482
][0]][	-15.2495
wi	-15.2538
▁ansx	-15.2542
nkir	-15.2588
((1	-15.2595
80	-15.2609
tDiv	-15.2631
"1"	-15.2639
ndf	-15.2667
▁mxj	-15.2692
zy	-15.2707
nde	-15.2725
#.#.#.#.#.#.#.|	-15.2752
14)	-15.276
▁bac	-15.2764
▁iss	-15.2781
vr	-15.2815
▁2.0	-15.2835
100040	-15.2835
005);	-15.2861
▁fd	-15.287
npi	-15.287
▁mind	-15.2874
▁bi	-15.2879
'+'	-15.2896
[15	-15.2909
nsize	-15.2934
nche	-15.2935
(15	-15.295
ena	-15.2972
▁0));	-15.2981
maxc	-15.2981
ansA	-15.2985
▁sto	-15.3009
▁bin	-15.302
23")	-15.3031
ave	-15.307
[30	-15.3079
ye	-15.3143
100010]	-15.3189
ste	-15.3189
000000)	-15.3207
▁numsize	-15.3228
081	-15.3237
▁send	-15.3265
▁((!	-15.3278
dW	-15.3295
▁compo	-15.3297
000000000000;	-15.3317
pred	-15.3322
numOf	-15.3331
nca	-15.3358
vp	-15.3362
[102	-15.3377
countr	-15.3389
▁conti	-15.342
[120	-15.344
ome	-15.3444
sal	-15.3451
[0][(	-15.3476
ista	-15.3486
▁flagh	-15.3494
0000000000000000	-15.3495
eq	-15.3497
toggle	-15.3511
mmm	-15.3528
()]]	-15.3536
▁stac	-15.354
901	-15.3542
fq	-15.3547
2")	-15.3557
az	-15.3562
25;	-15.3582
gal	-15.3603
vid	-15.3627
qr	-15.366
[1000001	-15.3661
▁96]	-15.3672
nminus	-15.3678
▁rp	-15.3685
small	-15.3697
▁51	-15.3707
ups	-15.3707
4]++;	-15.3717
▁bstart	-15.3747
isl	-15.3817
nmaxl	-15.383
▁wnr	-15.383
▁mc	-15.3834
▁As	-15.3838
person	-15.3843
god	-15.3846
'.'	-15.3847
[110	-15.3853
50000	-15.3857
tion	-15.3881
▁maxj	-15.3891
ris	-15.3895
0007;	-15.3897
auxp	-15.3928
99999999999	-15.3939
nbk	-15.394
maxk	-15.3943
CA	-15.3948
110	-15.396
rac	-15.3966
TR	-15.3977
srt	-15.3992
20)	-15.4002
▁curAn	-15.4011
cpr	-15.4011
dip	-15.4054
▁clr	-15.407
'4'	-15.4082
take	-15.4091
ef	-15.4093
ution	-15.4098
ion	-15.4124
▁Bn	-15.4141
given	-15.4157
▁hashi	-15.4164
nisp	-15.417
column	-15.4171
danik	-15.4196
salt	-15.4198
aren	-15.4201
eam	-15.4202
▁-0	-15.4217
"()"	-15.422
Need	-15.4223
ek	-15.4231
▁idxa	-15.4236
mpu	-15.4251
fnd	-15.4265
000]	-15.4268
▁cstart	-15.4268
winc	-15.4298
▁cval	-15.4301
▁'#');	-15.4314
dq	-15.4323
feet	-15.4325
checkdouble	-15.4329
denominator	-15.4337
38	-15.4342
less	-15.4344
07]	-15.4345
('#'	-15.4348
tes	-15.4371
vertikal	-15.4416
note	-15.4418
army	-15.4442
55;	-15.4443
bill	-15.4452
other	-15.4458
▁dam	-15.4465
pearl	-15.4495
▁chm	-15.4496
lsum	-15.4501
(1001	-15.4505
shit	-15.4561
005]	-15.4564
Ro	-15.4574
▁nut	-15.4574
aram	-15.4576
nCh	-15.4579
social	-15.458
tiga	-15.4582
50;	-15.4601
iff	-15.4624
1[0].	-15.4624
besar	-15.4635
zer	-15.4646
▁inputs	-15.4654
failed	-15.4656
1000000001	-15.466
----------+	-15.4661
▁sumD	-15.4692
-2	-15.4695
ipos	-15.4702
grau	-15.4723
vol	-15.4735
gy	-15.4759
sumy	-15.4792
122	-15.4799
user	-15.481
▁xor	-15.4839
000	-15.4846
[600	-15.4851
Cal	-15.4866
study	-15.487
prep	-15.4876
contN	-15.4876
AK	-15.4879
oroban	-15.4897
▁8]	-15.4906
▁qi	-15.495
▁Pr	-15.4962
nminstep	-15.4968
11111]	-15.4971
nli	-15.4973
123456	-15.5002
Har	-15.509
17	-15.5093
1000000009	-15.5097
steps	-15.5099
▁2.00000	-15.5101
5][5]	-15.5103
ps	-15.514
▁vii	-15.5141
iss	-15.5143
(18	-15.5146
nla	-15.515
[200001	-15.5169
[17	-15.5178
▁mink	-15.5194
▁front	-15.5201
▁mcnt	-15.5208
▁166	-15.5214
{1};	-15.5224
▁-1000000000000	-15.5277
▁Prime	-15.5284
▁1][0]);	-15.5289
00005]	-15.5293
LCM	-15.5341
▁900000000	-15.5347
em	-15.5359
slogan	-15.5364
0000000;	-15.537
mmi	-15.5385
From	-15.5392
[101	-15.5395
lime	-15.5396
SP	-15.542
upd	-15.5423
lvl	-15.5439
0.5	-15.5441
students	-15.5444
kids	-15.5454
inv	-15.5455
▁1][0]))	-15.546
sav	-15.5465
[101][1	-15.5477
problem	-15.5484
nbottle	-15.5487
decrypt	-15.5491
20;	-15.5504
ka	-15.5505
454	-15.5508
2]]	-15.5515
[200010	-15.5518
Ad	-15.5518
ock	-15.5527
[100100	-15.5529
great	-15.5537
▁1111111111111	-15.5539
pali	-15.555
Orange	-15.5552
▁100.0	-15.5553
judg	-15.5557
killed	-15.5581
letterx	-15.5589
damage	-15.559
group	-15.5596
mass	-15.5597
passenger	-15.5604
LastevenPos	-15.5608
LastoddPos	-15.5609
CityCode	-15.561
iskom	-15.5611
maxSwaps	-15.5612
comparator	-15.5612
spicifier	-15.5613
radius	-15.5613
duration	-15.5613
secretar	-15.5615
tempRange	-15.5615
playerState	-15.5618
▁-(	-15.5618
1001	-15.5618
quatro	-15.5618
shuwei	-15.5619
choice	-15.5619
binaryResult	-15.562
Smith	-15.562
coupons	-15.5621
binaryCode	-15.5623
Petya	-15.5623
shuzi	-15.5623
secretaryNum	-15.5623
posRL	-15.5625
full	-15.5625
myAss	-15.5628
minusSum	-15.5629
modulo	-15.563
secnumbs	-15.563
contain	-15.563
numofelements	-15.5633
SC	-15.5633
mishkaCounter	-15.5634
phack	-15.5634
CountOfMoney	-15.5634
numOfInfo	-15.5634
leafName	-15.5634
binaryChar	-15.5635
SieveOfErat	-15.5635
numOfNet	-15.5635
chrisCounter	-15.5636
noOfprizes	-15.5636
numOfteams	-15.5637
revStr	-15.5638
05]	-15.5639
rightMost	-15.5639
javab	-15.5639
whatever	-15.5639
originalsquare	-15.564
casiresp	-15.5641
lb	-15.5642
lemoes	-15.5642
secretary	-15.5643
aPrices	-15.5643
notebooks	-15.5643
employeenum	-15.5643
Potega	-15.5644
refrence	-15.5644
perlas	-15.5644
zeroNum	-15.5645
aTypes	-15.5646
username	-15.5647
militros	-15.5647
mapOfColumn	-15.5648
WandC	-15.5648
"127"	-15.5649
rowsDeleted	-15.565
48620	-15.565
kedua	-15.5651
mapOfRow	-15.5651
numofzero	-15.5652
falta	-15.5653
Pedy	-15.5654
"11111"	-15.5655
stairs	-15.5658
death	-15.5659
onerun	-15.5659
aguinha	-15.566
aumento	-15.566
numero	-15.5661
rotasi	-15.5661
phnum	-15.5662
nsticks	-15.5663
isOne	-15.5664
12870	-15.5664
maxgas	-15.5664
▁wy	-15.5665
tomas	-15.5665
akhir	-15.5666
sdVest	-15.5667
wordLen	-15.5669
belum	-15.5671
sobuj	-15.5672
btong	-15.5672
mitad	-15.5675
reflect	-15.5675
mxcommon	-15.5676
isSub	-15.5677
newY	-15.5677
insect	-15.5677
lowerCount	-15.5681
Ncoins	-15.5686
diffuclty	-15.5686
afterP	-15.5687
available	-15.5688
Vcost	-15.5689
knight	-15.5691
3432	-15.5694
today	-15.5695
curMin	-15.5696
getNum	-15.5697
resultadofinal	-15.5699
smaller	-15.57
quo	-15.5705
damm	-15.5708
MAXall	-15.5712
rowSet	-15.5718
chec	-15.5718
Wstep	-15.5724
foobar	-15.5725
such	-15.5726
tempCount	-15.5729
deflt	-15.573
[1005][1	-15.5733
▁2005	-15.5734
Mcost	-15.5737
women	-15.5739
▁2.00	-15.5742
inpp	-15.5744
nechot	-15.5745
"144"	-15.5747
movesB	-15.5749
ispalin	-15.5753
lEven	-15.5755
thomasT	-15.5756
thissub	-15.5756
▁39	-15.576
truth	-15.5761
towhid	-15.5762
1000000000;	-15.5763
totalMoves	-15.5763
recurs	-15.5763
3])	-15.5765
▁lmin	-15.5773
cityNo	-15.5779
lst	-15.5782
lowest	-15.5789
nunio	-15.5792
closest	-15.5794
usedLen	-15.5807
baack	-15.581
colCount	-15.5815
▁employee	-15.5816
divN	-15.5819
colSet	-15.5823
qpow	-15.583
buttons	-15.5831
prezero	-15.5836
chores	-15.5846
13579	-15.5851
girl	-15.5854
Get	-15.5857
][3]++	-15.5865
blockb	-15.5883
colums	-15.5892
deep	-15.5897
contBa	-15.5898
levl	-15.5904
▁58	-15.5905
'0')	-15.5906
totDist	-15.5923
lasteven	-15.5926
-5	-15.5934
onent	-15.5937
ica	-15.5948
▁1440	-15.5955
cntlw	-15.5957
contCh	-15.5961
jia	-15.5969
mtest	-15.5972
(12000	-15.5976
masha	-15.5978
▁0.000	-15.5986
▁tempsum	-15.5988
Maxa	-15.5991
narra	-15.5998
nwinC	-15.6008
▁30000	-15.6015
-4	-15.6017
▁lnum	-15.602
minTime	-15.6023
Team	-15.6023
00000050;	-15.6024
3]);	-15.6034
▁11111111	-15.6055
ndash	-15.6056
ysum	-15.6059
riangle	-15.6071
oard	-15.6079
testCases	-15.6079
quare	-15.6081
1000000000	-15.6091
512	-15.6095
hot	-15.6101
bsent	-15.6102
difA	-15.6108
4005]	-15.6124
sumr	-15.6131
rinted	-15.6137
totalS	-15.6138
105;	-15.6161
vpoints	-15.6163
▁12345678	-15.617
327	-15.617
ctMax	-15.617
ky	-15.6177
nprecomp	-15.6193
▁decreas	-15.6204
▁precomp	-15.6205
▁214748364	-15.6208
(1200	-15.6211
ndistress	-15.6212
nshovel	-15.6212
nselection	-15.6212
444444444	-15.6212
.141592653589793	-15.6212
.|.|"	-15.6212
`	-15.6212
ndenomina	-15.6212
.|.|)"	-15.6212
▁"0123	-15.6213
6.	-15.6213
nloaded	-15.6214
ffffffffffffff	-15.6214
BYW	-15.6214
0737	-15.6215
▁Sieve	-15.6215
nresultado	-15.6217
8888888	-15.6218
POS	-15.6219
Valid	-15.622
kpk	-15.622
nLast	-15.6221
osible	-15.6222
▁55555	-15.6224
000006	-15.6225
▁rever	-15.6227
"012	-15.6229
606	-15.623
▁tolow	-15.6234
captin	-15.6244
/6"	-15.6246
1415	-15.6248
▁"111111	-15.6249
22222	-15.625
link	-15.6254
123456789	-15.6255
nmayu	-15.6258
1234567	-15.6261
3]))	-15.6264
nprimeF	-15.6266
11112	-15.6268
576;	-15.6268
icate	-15.6273
cilik	-15.6277
Bwin	-15.6278
values	-15.6283
3276	-15.6283
("000	-15.6285
156	-15.6286
▁".|	-15.6288
angkat	-15.6299
frac	-15.6299
▁shel	-15.6304
Test	-15.6305
disc	-15.6306
SZ	-15.6316
ndiam	-15.6316
353	-15.6321
firstone	-15.6321
(25	-15.6322
istinct	-15.6322
7"	-15.6326
▁1234	-15.6327
erce	-15.6329
nTot	-15.6334
▁shee	-15.6335
binar	-15.6342
create	-15.6348
mai	-15.6349
Tru	-15.6349
ist	-15.6351
80.	-15.6362
[30001	-15.6368
25)	-15.6369
visors	-15.6371
Gra	-15.6373
mndist	-15.6383
suc	-15.6386
67)	-15.6389
unit	-15.6389
343	-15.6411
aaaab	-15.6415
▁pres	-15.6421
368	-15.6421
ASE	-15.6423
njump	-15.6436
▁(1000000	-15.6437
bestb	-15.6445
▁mpb	-15.6445
▁facto	-15.6457
/6	-15.646
[123456	-15.6471
LIN	-15.6475
98	-15.6478
ee	-15.6482
("14	-15.6503
▁dv	-15.6509
926	-15.6511
BW	-15.6528
▁(36	-15.6531
teste	-15.6554
om	-15.6555
nsor	-15.6561
PEsize	-15.6566
][600]	-15.657
(7)	-15.6571
▁primeF	-15.6573
nremd	-15.6578
8.0	-15.6584
tsocial	-15.6616
emps	-15.6618
sumador	-15.662
navai	-15.6625
nge	-15.6632
lOdd	-15.6646
▁Minn	-15.6659
nmaxP	-15.6669
00000);	-15.6684
Rea	-15.6688
LE	-15.669
▁130000	-15.6713
07"	-15.6719
stexp	-15.6739
creq	-15.6742
[(1	-15.6742
4])	-15.676
(!((	-15.6763
nab	-15.6786
▁close	-15.6792
[21	-15.6794
abcnt	-15.68
89"	-15.6809
endy	-15.6813
▁buck	-15.6823
ctMin	-15.6824
rca	-15.6828
(2.0)	-15.684
esP	-15.6847
ds	-15.6849
000000007	-15.6857
ui	-15.6875
jmx	-15.6883
80;	-15.6884
ppr	-15.6885
mpoints	-15.6897
TT	-15.6909
▁problem	-15.6912
Cnt	-15.6913
ub	-15.6922
▁great	-15.6935
5.0	-15.6943
indE	-15.695
▁-999999	-15.6957
69	-15.6991
uper	-15.7008
150005	-15.7019
pict	-15.7021
'0']	-15.7041
npearl	-15.7058
ments	-15.7082
minim	-15.7082
countI	-15.7085
jsq	-15.7095
PR	-15.7119
nite	-15.7134
RP	-15.7143
winA	-15.7154
quant	-15.7155
ght	-15.717
TB	-15.7175
2]))	-15.7195
eof	-15.7202
ansb	-15.7206
eration	-15.7233
isT	-15.7236
pc	-15.7242
hred	-15.7277
007]	-15.728
▁123456	-15.7284
nCal	-15.7298
6][26]	-15.7305
cand	-15.731
'<')	-15.7326
▁1]]++	-15.7334
▁isP	-15.7336
ntry	-15.7345
nbex	-15.7356
LM	-15.7391
bq	-15.7393
Ile	-15.7407
likes	-15.742
64)	-15.7425
mys	-15.7425
06"	-15.7426
conte	-15.7444
lexi	-15.7446
▁au	-15.7465
75	-15.7468
nbui	-15.7475
Car	-15.7478
nrever	-15.7486
coB	-15.7486
tira	-15.7489
nuse	-15.7494
yiti	-15.7501
nNum	-15.7503
ieve	-15.7528
maxnn	-15.7531
son	-15.7547
newk	-15.7554
news	-15.7555
posy	-15.7577
zcost	-15.7585
TA	-15.7589
FF	-15.7608
][27]	-15.7621
maxsum	-15.7624
mpa	-15.763
fu	-15.765
countT	-15.7663
Tst	-15.7665
pi	-15.7707
lik	-15.7759
nim	-15.776
28)	-15.7781
[1])))	-15.7791
▁-10000000	-15.7804
▁we	-15.7808
nlink	-15.7815
nmys	-15.782
95;	-15.782
100);	-15.7851
mina	-15.7853
rcont	-15.7854
1[]	-15.7863
▁lasti	-15.7866
▁Li	-15.7874
highnum	-15.7881
nsav	-15.7883
((2.	-15.7883
mc	-15.7886
31[	-15.79
;)	-15.7906
▁link	-15.7915
[101][10	-15.7925
RS	-15.7926
posR	-15.7962
nak	-15.7964
▁kx	-15.7973
(100000000	-15.7999
2000]	-15.803
assi	-15.8032
sk	-15.8039
▁bX	-15.8041
ems	-15.8043
(10000000	-15.8054
13;	-15.8102
Pr	-15.8103
Run	-15.8127
1.00	-15.8147
nrv	-15.8166
[0]][	-15.8176
nless	-15.8186
▁cpy	-15.819
▁81	-15.8191
01))	-15.8221
nspe	-15.8238
▁rq	-15.8244
wal	-15.8249
nsmall	-15.827
▁111111111	-15.8302
▁20000	-15.831
0000000	-15.8313
ides	-15.8322
tests	-15.8325
nnumera	-15.834
▁flage	-15.8348
((360	-15.8349
inS	-15.8352
][2]++	-15.8376
nstrc	-15.8422
▁cop	-15.8431
backwards	-15.8441
flags	-15.8486
00))	-15.8548
util	-15.8552
("11	-15.8554
ST	-15.8567
teps	-15.8597
▁totalS	-15.8618
10][10]	-15.8621
▁First	-15.8633
122"	-15.8635
▁alen	-15.864
gp	-15.8652
15)	-15.8671
kir	-15.868
uda	-15.8686
▁vA	-15.8717
"2"	-15.8724
bac	-15.8743
10][100	-15.8767
08"	-15.877
▁toas	-15.8793
atch	-15.8799
▁sav	-15.8799
multi	-15.8815
mq	-15.882
▁ang	-15.8833
OfMon	-15.8839
5][25]	-15.8848
▁abso	-15.8851
nva	-15.8856
▁god	-15.8874
powm	-15.8895
pack	-15.8923
[110][	-15.8939
.000	-15.8947
ansB	-15.8953
nhour	-15.8954
stri	-15.896
'>')	-15.8973
nend	-15.8976
▁dh	-15.8989
mex	-15.9
53	-15.9017
ndel	-15.9017
Mon	-15.9018
bas	-15.9031
xa	-15.9043
▁Is	-15.9045
mv	-15.9045
((5	-15.9075
indexG	-15.9083
▁er	-15.9084
▁divi	-15.9085
'-');	-15.9086
ql	-15.9088
▁-1))	-15.9132
222	-15.9204
▁90000	-15.9217
▁8))	-15.9222
nGe	-15.9245
00007;	-15.9246
ndistr	-15.9269
▁palindrom	-15.9288
1[4][	-15.9296
nmarke	-15.9297
Ta	-15.9315
▁zhu	-15.9335
nbic	-15.9382
▁posR	-15.9383
▁toup	-15.9384
▁numP	-15.9391
gen	-15.9395
Ds	-15.9401
40	-15.9402
inary	-15.9422
▁button	-15.9451
111	-15.9465
((1.	-15.947
firstb	-15.9502
totd	-15.9594
][--	-15.9601
ash	-15.9719
▁vow	-15.9722
tota	-15.9732
reak	-15.9755
nccnt	-15.9769
▁pans	-15.9785
nkl	-15.9799
CB	-15.9829
isle	-15.9838
1)))	-15.9882
49	-15.9891
▁pan	-15.9893
87	-15.993
---------+	-15.9933
1.0)	-15.9937
sumtime	-15.9946
▁ansf	-15.9966
▁{'0'	-15.9981
▁lt	-16.0005
cor	-16.002
((-1	-16.0054
▁ansm	-16.0096
256	-16.0098
nocc	-16.0105
▁si	-16.0128
▁dres	-16.0132
▁bY	-16.0145
qt	-16.0152
(120	-16.0165
12)	-16.0187
▁bt	-16.0192
▁nb	-16.0221
nbul	-16.0234
ncod	-16.0269
9]	-16.0277
ht	-16.0283
222;	-16.0291
0001	-16.0291
PA	-16.0292
empt	-16.0306
00003	-16.0306
▁disp	-16.031
nreadin	-16.0332
sel	-16.0378
ote	-16.0408
▁"32	-16.0427
ctx	-16.043
▁'1');	-16.0434
du	-16.0444
px	-16.0473
akes	-16.0486
nvet	-16.0487
Cb	-16.0503
wen	-16.0536
▁bcnt	-16.0619
flage	-16.0631
▁getC	-16.0635
tempsum	-16.0643
ops	-16.0655
▁bdiv	-16.0681
feets	-16.0687
nprim	-16.0687
ats	-16.0734
nOve	-16.0766
ncu	-16.0768
digitn	-16.0787
nbla	-16.0794
2345	-16.083
minnum	-16.0839
aj	-16.0876
arry	-16.0884
▁"20	-16.0886
nbstart	-16.0896
][25]	-16.0902
▁Di	-16.0914
[0][3]	-16.0979
(2000	-16.1006
bstart	-16.1023
nfin	-16.106
[2]]	-16.1095
▁white	-16.115
▁kt	-16.1159
▁"6	-16.1177
▁sL	-16.1193
jw	-16.1251
tcases	-16.128
nmaxind	-16.1287
uan	-16.1319
65358979323846	-16.1327
inor	-16.1455
2(0)	-16.1476
()];	-16.1493
iv	-16.1508
▁jmx	-16.1531
ain	-16.1533
aaa	-16.1534
10005;	-16.1539
▁-9	-16.1541
qw	-16.1556
▁500000	-16.1582
lf	-16.1595
][0]]	-16.1633
▁dsum	-16.1636
_1.	-16.1652
000000;	-16.1658
9999999)	-16.1664
rq	-16.1665
--"	-16.1683
LunchTimes	-16.1723
nsid	-16.1774
▁case	-16.1778
▁pnt	-16.181
(12	-16.1812
lenb	-16.1838
nremn	-16.1886
▁[&	-16.1911
▁360)	-16.1925
nlev	-16.194
ndd	-16.1961
▁10004	-16.2009
sumo	-16.2028
82;	-16.2035
▁man	-16.2108
mulai	-16.2135
era	-16.2164
▁minsize	-16.2188
play	-16.2259
lessonsn	-16.2288
▁winc	-16.2304
are	-16.2336
"];	-16.2338
primesize	-16.2469
dB	-16.2484
nbs	-16.2498
▁chai	-16.2561
nqi	-16.2568
824	-16.258
][2][	-16.259
▁11);	-16.2638
'^')	-16.2678
hil	-16.2751
slow	-16.2773
▁"-1")	-16.278
ntota	-16.2846
aten	-16.2853
(2))	-16.2859
xs	-16.2867
npe	-16.2867
(--	-16.294
)(0)	-16.2942
▁5));	-16.2982
ys	-16.3018
vm	-16.3093
▁xd	-16.3117
nsk	-16.3127
lk	-16.315
ase	-16.3158
indO	-16.3196
nodds	-16.3199
tch	-16.32
][201]	-16.324
numer	-16.3258
▁imp	-16.3304
tal	-16.3318
mapa	-16.3341
26	-16.3342
[3001	-16.3378
kw	-16.339
jmn	-16.343
59;	-16.3439
restaurants	-16.3454
nsuml	-16.3517
▁ii	-16.3547
toup	-16.3633
▁marke	-16.3684
0])	-16.3729
ound	-16.3753
'1')	-16.3828
mpos	-16.3834
nvote	-16.3861
(8)	-16.3875
60;	-16.3883
▁bas	-16.3956
▁TE	-16.3963
▁mon	-16.4004
1111	-16.4007
bxb	-16.4015
nways	-16.4019
_2)	-16.4028
bio	-16.4108
lenB	-16.4114
ii	-16.4114
miss	-16.4151
▁1)]	-16.4158
535	-16.416
22	-16.4175
nhome	-16.4203
'-')	-16.4214
nchild	-16.4236
3[2	-16.4251
][26	-16.4266
1)));	-16.4315
▁ssum	-16.434
anti	-16.4352
5358979323846	-16.4359
mnd	-16.4384
kiri	-16.4457
nNumber	-16.4476
...............	-16.4526
▁ccount	-16.4534
100)	-16.4544
2000	-16.4605
6][2]	-16.4614
▁jia	-16.4656
inch	-16.467
"<"	-16.4699
mcount	-16.4711
uu	-16.4731
▁py	-16.4756
NotF	-16.4805
30;	-16.483
Che	-16.4838
'0';	-16.4885
1[3][	-16.4887
kc	-16.4914
jud	-16.4919
lter	-16.4926
tlen	-16.4958
papers	-16.4959
▁ip	-16.4959
▁mnj	-16.4991
ies	-16.5129
nfind	-16.5146
cntm	-16.5172
divi	-16.5201
nye	-16.5337
▁minv	-16.5368
▁1]))]	-16.5378
mnx	-16.5408
'2'	-16.5419
▁inindex	-16.5432
EF	-16.544
getM	-16.5452
5.	-16.5471
nzli	-16.5547
(0.	-16.5583
][1]++	-16.5584
▁21	-16.5599
][2][2]	-16.5615
▁tes	-16.5661
###	-16.5667
▁isRo	-16.5699
▁emp	-16.5718
Dif	-16.5721
kd	-16.573
[8][	-16.5745
2].	-16.5745
yp	-16.5775
nsal	-16.5875
maxC	-16.5887
▁numera	-16.594
▁tu	-16.5957
00000	-16.5966
▁bcount	-16.6012
nisP	-16.6024
01)	-16.6053
vA	-16.6101
nSe	-16.6111
▁(18	-16.6131
[100009	-16.6177
1[2][	-16.6179
(48	-16.6208
nnod	-16.622
▁cnr	-16.6221
▁anda	-16.6268
101]	-16.6293
mar	-16.636
nSol	-16.6372
][0]++	-16.6423
[1]][1];	-16.6454
pich	-16.6464
▁120	-16.6611
62;	-16.6618
▁Misha	-16.6632
aft	-16.6653
sha	-16.6655
yo	-16.6655
'1');	-16.6684
[1000][2	-16.6715
ends	-16.6745
anstemp	-16.6777
rC	-16.6813
ansm	-16.6843
za	-16.6866
'#');	-16.6906
parta	-16.691
000005]	-16.6915
nda	-16.7017
maxer	-16.7048
xp	-16.7135
5"	-16.717
av	-16.7172
sat	-16.7175
mgcd	-16.7231
arrb	-16.7234
▁rand	-16.7276
gc	-16.7283
temps	-16.7301
34;	-16.7444
[1001	-16.745
210	-16.7451
▁sei	-16.7454
▁primeFact	-16.7506
▁pu	-16.7544
strr	-16.7582
▁zp	-16.7628
kt	-16.764
▁10005	-16.7721
ntr	-16.7799
imi	-16.7827
contI	-16.7897
nEn	-16.7914
--------+	-16.7938
((10	-16.7967
cval	-16.8026
otes	-16.8033
ir	-16.8061
pen	-16.8065
nremove	-16.8074
ml	-16.8104
rb	-16.8154
xr	-16.827
2000;	-16.8294
pha	-16.8296
gan	-16.8324
▁rstr	-16.8333
remainders	-16.8358
Ty	-16.8364
gno	-16.8404
plicat	-16.8427
▁jmn	-16.8437
▁20))	-16.8479
▁flags	-16.8552
mond	-16.8552
nsorte	-16.8562
.......|"	-16.8597
10000]	-16.8665
5][2]	-16.8675
Ga	-16.8681
▁(++	-16.8715
npt	-16.8743
[6][	-16.8838
▁mq	-16.8853
aw	-16.8854
▁px	-16.8908
▁5][	-16.8916
loga	-16.8924
las	-16.8944
▁dst	-16.897
ninp	-16.9051
▁102	-16.9064
wy	-16.9066
200;	-16.912
▁mys	-16.914
▁kir	-16.9144
"-1"	-16.9151
curs	-16.9167
ccnt	-16.9205
inue	-16.9227
▁qo	-16.9232
nbv	-16.9275
000000000;	-16.9421
▁sset	-16.9452
▁para	-16.9488
▁1][3	-16.9653
nrr	-16.9685
200]	-16.9767
nwy	-16.9772
ran	-16.9903
[6])	-16.9915
noccur	-16.992
][3])	-16.9933
slast	-16.9949
umberOfStudents	-16.9954
4"	-16.9997
ppow	-17.0026
@	-17.0049
ansy	-17.0049
